{
  "version": "1.0",
  "truncation": null,
  "padding": null,
  "added_tokens": [
    {
      "id": 0,
      "content": "<pad>",
      "single_word": false,
      "lstrip": false,
      "rstrip": false,
      "normalized": false,
      "special": true
    },
    {
      "id": 1,
      "content": "<bos>",
      "single_word": false,
      "lstrip": false,
      "rstrip": false,
      "normalized": false,
      "special": true
    },
    {
      "id": 2,
      "content": "<eos>",
      "single_word": false,
      "lstrip": false,
      "rstrip": false,
      "normalized": false,
      "special": true
    },
    {
      "id": 3,
      "content": "<unk>",
      "single_word": false,
      "lstrip": false,
      "rstrip": false,
      "normalized": false,
      "special": true
    }
  ],
  "normalizer": null,
  "pre_tokenizer": {
    "type": "ByteLevel",
    "add_prefix_space": true,
    "trim_offsets": true,
    "use_regex": true
  },
  "post_processor": null,
  "decoder": {
    "type": "ByteLevel",
    "add_prefix_space": true,
    "trim_offsets": true,
    "use_regex": true
  },
  "model": {
    "type": "BPE",
    "dropout": null,
    "unk_token": "<unk>",
    "continuing_subword_prefix": null,
    "end_of_word_suffix": null,
    "fuse_unk": false,
    "byte_fallback": false,
    "ignore_merges": false,
    "vocab": {
      "<pad>": 0,
      "<bos>": 1,
      "<eos>": 2,
      "<unk>": 3,
      "!": 4,
      "\"": 5,
      "#": 6,
      "$": 7,
      "%": 8,
      "&": 9,
      "'": 10,
      "(": 11,
      ")": 12,
      "*": 13,
      "+": 14,
      ",": 15,
      "-": 16,
      ".": 17,
      "/": 18,
      "0": 19,
      "1": 20,
      "2": 21,
      "3": 22,
      "4": 23,
      "5": 24,
      "6": 25,
      "7": 26,
      "8": 27,
      "9": 28,
      ":": 29,
      ";": 30,
      "<": 31,
      "=": 32,
      ">": 33,
      "?": 34,
      "@": 35,
      "A": 36,
      "B": 37,
      "C": 38,
      "D": 39,
      "E": 40,
      "F": 41,
      "G": 42,
      "H": 43,
      "I": 44,
      "J": 45,
      "K": 46,
      "L": 47,
      "M": 48,
      "N": 49,
      "O": 50,
      "P": 51,
      "Q": 52,
      "R": 53,
      "S": 54,
      "T": 55,
      "U": 56,
      "V": 57,
      "W": 58,
      "X": 59,
      "Y": 60,
      "Z": 61,
      "[": 62,
      "\\": 63,
      "]": 64,
      "^": 65,
      "_": 66,
      "`": 67,
      "a": 68,
      "b": 69,
      "c": 70,
      "d": 71,
      "e": 72,
      "f": 73,
      "g": 74,
      "h": 75,
      "i": 76,
      "j": 77,
      "k": 78,
      "l": 79,
      "m": 80,
      "n": 81,
      "o": 82,
      "p": 83,
      "q": 84,
      "r": 85,
      "s": 86,
      "t": 87,
      "u": 88,
      "v": 89,
      "w": 90,
      "x": 91,
      "y": 92,
      "z": 93,
      "{": 94,
      "|": 95,
      "}": 96,
      "~": 97,
      "¡": 98,
      "¢": 99,
      "£": 100,
      "¤": 101,
      "¥": 102,
      "¦": 103,
      "§": 104,
      "¨": 105,
      "©": 106,
      "ª": 107,
      "«": 108,
      "¬": 109,
      "®": 110,
      "¯": 111,
      "°": 112,
      "±": 113,
      "²": 114,
      "³": 115,
      "´": 116,
      "µ": 117,
      "¶": 118,
      "·": 119,
      "¸": 120,
      "¹": 121,
      "º": 122,
      "»": 123,
      "¼": 124,
      "½": 125,
      "¾": 126,
      "¿": 127,
      "Â": 128,
      "Ã": 129,
      "Ä": 130,
      "Å": 131,
      "Æ": 132,
      "Ç": 133,
      "È": 134,
      "É": 135,
      "Ê": 136,
      "Ë": 137,
      "Ì": 138,
      "Í": 139,
      "Î": 140,
      "Ï": 141,
      "Ð": 142,
      "Ñ": 143,
      "Ò": 144,
      "Ó": 145,
      "Ô": 146,
      "Õ": 147,
      "Ö": 148,
      "×": 149,
      "Ø": 150,
      "Ù": 151,
      "Ú": 152,
      "Û": 153,
      "Ü": 154,
      "Ý": 155,
      "à": 156,
      "á": 157,
      "â": 158,
      "ã": 159,
      "ä": 160,
      "å": 161,
      "æ": 162,
      "ç": 163,
      "è": 164,
      "é": 165,
      "ê": 166,
      "ë": 167,
      "ì": 168,
      "í": 169,
      "ï": 170,
      "ð": 171,
      "Ċ": 172,
      "Ġ": 173,
      "Ģ": 174,
      "ģ": 175,
      "Ĥ": 176,
      "ĥ": 177,
      "Ħ": 178,
      "ħ": 179,
      "Ĩ": 180,
      "ĩ": 181,
      "Ī": 182,
      "ī": 183,
      "Ĭ": 184,
      "ĭ": 185,
      "Į": 186,
      "į": 187,
      "İ": 188,
      "ı": 189,
      "Ĳ": 190,
      "ĳ": 191,
      "Ĵ": 192,
      "ĵ": 193,
      "Ķ": 194,
      "ķ": 195,
      "ĸ": 196,
      "Ĺ": 197,
      "ĺ": 198,
      "Ļ": 199,
      "ļ": 200,
      "Ľ": 201,
      "ľ": 202,
      "Ŀ": 203,
      "ŀ": 204,
      "Ł": 205,
      "ł": 206,
      "Ń": 207,
      "Ġt": 208,
      "he": 209,
      "Ġa": 210,
      "in": 211,
      "Ġthe": 212,
      "er": 213,
      "on": 214,
      "re": 215,
      "Ġs": 216,
      "Ġo": 217,
      "at": 218,
      "Ġw": 219,
      "nd": 220,
      "ed": 221,
      "en": 222,
      "Ġc": 223,
      "es": 224,
      "or": 225,
      "it": 226,
      "is": 227,
      "Ġf": 228,
      "Ġb": 229,
      "Ġof": 230,
      "an": 231,
      "al": 232,
      "Ġp": 233,
      "ar": 234,
      "Ġin": 235,
      "ing": 236,
      "Ġ,": 237,
      "Ġand": 238,
      "Ġto": 239,
      "ou": 240,
      "Ġm": 241,
      "ic": 242,
      "as": 243,
      "Ġd": 244,
      "ion": 245,
      "Ġ.": 246,
      "le": 247,
      "ro": 248,
      "Ġh": 249,
      "ent": 250,
      "Ġth": 251,
      "Ġre": 252,
      "il": 253,
      "ĠT": 254,
      "Ġe": 255,
      "Ġl": 256,
      "st": 257,
      "om": 258,
      "ct": 259,
      "Ġn": 260,
      "el": 261,
      "ĠA": 262,
      "ĠS": 263,
      "Ġbe": 264,
      "am": 265,
      "ly": 266,
      "ĠC": 267,
      "Ġg": 268,
      "ol": 269,
      "ur": 270,
      "ad": 271,
      "id": 272,
      "im": 273,
      "Ġ1": 274,
      "Ġon": 275,
      "iv": 276,
      "et": 277,
      "ot": 278,
      "ce": 279,
      "Ġfor": 280,
      "us": 281,
      "ut": 282,
      "ig": 283,
      "ch": 284,
      "ĠI": 285,
      "ation": 286,
      "ow": 287,
      "Ġis": 288,
      "ir": 289,
      "ĠM": 290,
      "Ġ\"": 291,
      "ĠThe": 292,
      "Ġwas": 293,
      "Ġst": 294,
      "Ġthat": 295,
      "Ġas": 296,
      "ay": 297,
      "ĠB": 298,
      "ith": 299,
      "ers": 300,
      "her": 301,
      "âĢ": 302,
      "ra": 303,
      "Ġwith": 304,
      "Ġ@": 305,
      "ul": 306,
      "ver": 307,
      "ter": 308,
      "ĠH": 309,
      "ĠP": 310,
      "Ġwh": 311,
      "un": 312,
      "Ġcon": 313,
      "Ġal": 314,
      "em": 315,
      "Ġan": 316,
      "os": 317,
      "th": 318,
      "Ġit": 319,
      "Ġ(": 320,
      "Ġ2": 321,
      "Ġpro": 322,
      "ĠD": 323,
      "Ġ'": 324,
      "Ġby": 325,
      "ĠR": 326,
      "av": 327,
      "ĠW": 328,
      "Ġhe": 329,
      "od": 330,
      "est": 331,
      "um": 332,
      "Ġat": 333,
      "if": 334,
      "Ġy": 335,
      "ist": 336,
      "ĠF": 337,
      "ag": 338,
      "-@": 339,
      "Ġ@-@": 340,
      "and": 341,
      "ac": 342,
      "Ġde": 343,
      "rom": 344,
      "Ġv": 345,
      "pe": 346,
      "ĠG": 347,
      "Ġor": 348,
      "ĠN": 349,
      "ain": 350,
      "ĠL": 351,
      "Ġse": 352,
      "Ġcom": 353,
      "Ġare": 354,
      "ill": 355,
      "ies": 356,
      "ĠE": 357,
      "op": 358,
      "ore": 359,
      "ld": 360,
      "Ġr": 361,
      "Ġfrom": 362,
      "res": 363,
      "ate": 364,
      "Ġex": 365,
      "Ġsu": 366,
      "ab": 367,
      "ess": 368,
      "ĠĊ": 369,
      "00": 370,
      "igh": 371,
      "se": 372,
      "ity": 373,
      "ĠJ": 374,
      "our": 375,
      "ak": 376,
      "ant": 377,
      "ri": 378,
      "ort": 379,
      "qu": 380,
      "Ġ19": 381,
      "art": 382,
      "ud": 383,
      "oc": 384,
      "Ġch": 385,
      "ive": 386,
      "ew": 387,
      "ĠO": 388,
      "ment": 389,
      "pp": 390,
      "ich": 391,
      "all": 392,
      "ard": 393,
      "Ġsh": 394,
      "ere": 395,
      "ĠIn": 396,
      "Ġhis": 397,
      "gh": 398,
      "Ġle": 399,
      "Ġ)": 400,
      "Ġnot": 401,
      "ave": 402,
      "ĠâĢ": 403,
      "ial": 404,
      "ated": 405,
      "pt": 406,
      "Ġk": 407,
      "ge": 408,
      "Ġpl": 409,
      "ure": 410,
      "rou": 411,
      "Ġwere": 412,
      "ect": 413,
      "ong": 414,
      "ber": 415,
      "ical": 416,
      "ight": 417,
      "ast": 418,
      "Ġus": 419,
      "ell": 420,
      "ĠU": 421,
      "ost": 422,
      "Ġwhich": 423,
      "ther": 424,
      "ear": 425,
      "Ġu": 426,
      "ip": 427,
      "ust": 428,
      "nt": 429,
      "ine": 430,
      "ame": 431,
      "og": 432,
      "ould": 433,
      "Ġhave": 434,
      "out": 435,
      "ov": 436,
      "ions": 437,
      "ĠK": 438,
      "ia": 439,
      "per": 440,
      "Ġab": 441,
      "Ġwor": 442,
      "Ġcan": 443,
      "ian": 444,
      "ff": 445,
      "cl": 446,
      "Ġtheir": 447,
      "ome": 448,
      "ary": 449,
      "ous": 450,
      "âĢĻ": 451,
      "Ġthis": 452,
      "Ġhad": 453,
      "ire": 454,
      "ĠSt": 455,
      "cc": 456,
      "Ġint": 457,
      "Ġwhe": 458,
      "Ġcomp": 459,
      "Ġcont": 460,
      "Ġun": 461,
      "ide": 462,
      "are": 463,
      "act": 464,
      "Ġbut": 465,
      "ack": 466,
      "ru": 467,
      "so": 468,
      "Ġyou": 469,
      "ap": 470,
      "Ġad": 471,
      "rit": 472,
      "du": 473,
      "Ġen": 474,
      "Ġwe": 475,
      "ord": 476,
      "Ġim": 477,
      "Ġcl": 478,
      "ater": 479,
      "orm": 480,
      "iz": 481,
      "ok": 482,
      "age": 483,
      "Ġres": 484,
      "ult": 485,
      "ence": 486,
      "Ġall": 487,
      "pl": 488,
      "ans": 489,
      "ish": 490,
      "ry": 491,
      "Ġar": 492,
      "Ġthey": 493,
      "Ġdis": 494,
      "Ġalso": 495,
      "ass": 496,
      "Ġhas": 497,
      "Ġne": 498,
      "ign": 499,
      "ĠTh": 500,
      "ie": 501,
      "ĠCh": 502,
      "ally": 503,
      "Ġ3": 504,
      "Ġone": 505,
      "ations": 506,
      "Ġits": 507,
      "Ġper": 508,
      "ood": 509,
      "Ġte": 510,
      "irst": 511,
      "ime": 512,
      "ub": 513,
      "ĠV": 514,
      "ib": 515,
      "ance": 516,
      "Ġother": 517,
      "ue": 518,
      "ely": 519,
      "Ġwho": 520,
      "ction": 521,
      "Ġman": 522,
      "Ġ20": 523,
      "Ġmore": 524,
      "fter": 525,
      "Ġpart": 526,
      "ach": 527,
      "Ġj": 528,
      "mer": 529,
      "te": 530,
      "ition": 531,
      "vel": 532,
      "ice": 533,
      "Ġsc": 534,
      "ik": 535,
      "Ġtw": 536,
      "ound": 537,
      "ond": 538,
      "ile": 539,
      "Ġfirst": 540,
      "able": 541,
      "own": 542,
      "Ġout": 543,
      "ind": 544,
      "fer": 545,
      "Ġpre": 546,
      "ents": 547,
      "Ġbec": 548,
      "ress": 549,
      "ĠIt": 550,
      "ild": 551,
      "Ġrec": 552,
      "Ġ200": 553,
      "ory": 554,
      "Ġbeen": 555,
      "ount": 556,
      "ree": 557,
      "ough": 558,
      "hed": 559,
      "ens": 560,
      "Ġyear": 561,
      "port": 562,
      "Ġher": 563,
      "Ġag": 564,
      "ĠHe": 565,
      "ks": 566,
      "erv": 567,
      "one": 568,
      "ric": 569,
      "Ġev": 570,
      "ose": 571,
      "ase": 572,
      "ang": 573,
      "ace": 574,
      "oll": 575,
      "Ġup": 576,
      "nder": 577,
      "reat": 578,
      "over": 579,
      "clud": 580,
      "ake": 581,
      "ces": 582,
      "Ġover": 583,
      "Ġme": 584,
      "Ġro": 585,
      "Ġspe": 586,
      "Ġsp": 587,
      "aus": 588,
      "Ġtwo": 589,
      "Ġdes": 590,
      "Ġdo": 591,
      "Ġ4": 592,
      "Ġcomm": 593,
      "uring": 594,
      "Ġinto": 595,
      "ph": 596,
      "ors": 597,
      "Ġtime": 598,
      "ite": 599,
      "Ġtr": 600,
      "ates": 601,
      "Ġabout": 602,
      "ĠâĢĵ": 603,
      "The": 604,
      "ade": 605,
      "Ġwill": 606,
      "Ġso": 607,
      "Ġ5": 608,
      "Ġwould": 609,
      "ĠAl": 610,
      "form": 611,
      "ail": 612,
      "wn": 613,
      "Ġinclud": 614,
      "Ġthem": 615,
      "ĠY": 616,
      "Ġinter": 617,
      "rough": 618,
      "we": 619,
      "ced": 620,
      "ep": 621,
      "Ġ18": 622,
      "ings": 623,
      "ng": 624,
      "Ġwhen": 625,
      "ons": 626,
      "int": 627,
      "Ġthan": 628,
      "Ġpe": 629,
      "Ġ201": 630,
      "land": 631,
      "Ġbet": 632,
      "ays": 633,
      "ark": 634,
      "les": 635,
      "Ġyour": 636,
      "Ġafter": 637,
      "Ġkn": 638,
      "ck": 639,
      "Ġqu": 640,
      "ĠUn": 641,
      "erm": 642,
      "Ġnew": 643,
      "ook": 644,
      "Ġwork": 645,
      "Ġ;": 646,
      "ious": 647,
      "urn": 648,
      "old": 649,
      "ve": 650,
      "Ġsy": 651,
      "Ġmost": 652,
      "amp": 653,
      "Ġcons": 654,
      "ied": 655,
      "ne": 656,
      "ased": 657,
      "Ġoff": 658,
      "Ġatt": 659,
      "ual": 660,
      "very": 661,
      "Ġapp": 662,
      "Ġtra": 663,
      "lic": 664,
      "Ġsome": 665,
      "Ġstud": 666,
      "âĢĿ": 667,
      "Ġthere": 668,
      "Ġra": 669,
      "Ġunder": 670,
      "Ġfl": 671,
      "Ġfe": 672,
      "Ġact": 673,
      "Ġonly": 674,
      "aw": 675,
      "ited": 676,
      "ob": 677,
      "ational": 678,
      "iss": 679,
      "rib": 680,
      "ĠThis": 681,
      "Ġrel": 682,
      "Ġacc": 683,
      "Ġind": 684,
      "oy": 685,
      "lect": 686,
      "round": 687,
      "Ġinc": 688,
      "Ġshe": 689,
      "olog": 690,
      "oth": 691,
      "ward": 692,
      "ike": 693,
      "Ġprodu": 694,
      "ft": 695,
      "Ġthrough": 696,
      "ren": 697,
      "ĠSe": 698,
      "Ġrem": 699,
      "Ġsuch": 700,
      "ning": 701,
      "ific": 702,
      "gan": 703,
      "Ġpr": 704,
      "Ġplay": 705,
      "ath": 706,
      "ular": 707,
      "Ġpo": 708,
      "Ġmay": 709,
      "ween": 710,
      "Ġhim": 711,
      "red": 712,
      "Ġ6": 713,
      "ople": 714,
      "ating": 715,
      ".@": 716,
      "Ġ@.@": 717,
      "Ġass": 718,
      "ause": 719,
      "tern": 720,
      "fore": 721,
      "Ġbl": 722,
      "ĠâĢľ": 723,
      "ject": 724,
      "Ġgen": 725,
      "ss": 726,
      "Ġreg": 727,
      "Ġear": 728,
      "ick": 729,
      "Ġsec": 730,
      "Ġbetween": 731,
      "Ġam": 732,
      "ĠRe": 733,
      "ower": 734,
      "als": 735,
      "Ġdif": 736,
      ",@": 737,
      "Ġ@,@": 738,
      "velop": 739,
      "Ġpos": 740,
      "Ġ:": 741,
      "ool": 742,
      "ities": 743,
      "Ġspec": 744,
      "ict": 745,
      "end": 746,
      "Ġused": 747,
      "Ġthese": 748,
      "Ġcent": 749,
      "Ġsa": 750,
      "Ġhow": 751,
      "Ġbu": 752,
      "Ġform": 753,
      "Ġduring": 754,
      "ron": 755,
      "Ġac": 756,
      "ics": 757,
      "Ġsub": 758,
      "Ġ7": 759,
      "'s": 760,
      "att": 761,
      "Ġwhere": 762,
      "Ġpeople": 763,
      "ollow": 764,
      "Ġnum": 765,
      "Ġcol": 766,
      "Ġimp": 767,
      "ram": 768,
      "hen": 769,
      "ember": 770,
      "Ġprov": 771,
      "ts": 772,
      "Ġno": 773,
      "meric": 774,
      "Ġuse": 775,
      "Ġyears": 776,
      "Ġsur": 777,
      "ever": 778,
      "Ġany": 779,
      "Ġsupp": 780,
      "ars": 781,
      "Ġmany": 782,
      "stem": 783,
      "Ġagain": 784,
      "hes": 785,
      "hip": 786,
      "Ġdevelop": 787,
      "ĠAr": 788,
      "ix": 789,
      "iew": 790,
      "ys": 791,
      "ily": 792,
      "Ġeff": 793,
      "Ġem": 794,
      "ĠAmeric": 795,
      "ise": 796,
      "Ġinv": 797,
      "inal": 798,
      "Ġhigh": 799,
      "Ġadd": 800,
      "iet": 801,
      "ful": 802,
      "ted": 803,
      "ered": 804,
      "Ġwell": 805,
      "arch": 806,
      "ten": 807,
      "Ġ8": 808,
      "Ġend": 809,
      "ife": 810,
      "ident": 811,
      "Ġchar": 812,
      "ins": 813,
      "Ġlar": 814,
      "ative": 815,
      "Ġph": 816,
      "ivers": 817,
      "ient": 818,
      "ĠDe": 819,
      "Ġco": 820,
      "Ġob": 821,
      "ures": 822,
      "ll": 823,
      ").": 824,
      "Ġpres": 825,
      "Ġdec": 826,
      "ĠNew": 827,
      "cess": 828,
      "ason": 829,
      "other": 830,
      "uch": 831,
      "Ġwhile": 832,
      "Ġ9": 833,
      "Ġthree": 834,
      "ug": 835,
      "ps": 836,
      "Ġdef": 837,
      "000": 838,
      "Ġmade": 839,
      "row": 840,
      "ĠCom": 841,
      "orth": 842,
      "Ġret": 843,
      "Ġcall": 844,
      "Ġthen": 845,
      "ert": 846,
      "ock": 847,
      "Ġgo": 848,
      "ines": 849,
      "Ġpub": 850,
      "Ġif": 851,
      "its": 852,
      "Ġfound": 853,
      "Ġmet": 854,
      "Ġfil": 855,
      "Ġfollow": 856,
      "Ġcould": 857,
      "Ġmov": 858,
      "Ġbeing": 859,
      "elf": 860,
      "ĠOn": 861,
      "Ġhel": 862,
      "way": 863,
      "ral": 864,
      "ran": 865,
      "Ġbefore": 866,
      "Ġsm": 867,
      "io": 868,
      "ement": 869,
      "ĠAs": 870,
      "Ġ199": 871,
      "Ġwrit": 872,
      "any": 873,
      "Ġchild": 874,
      "ished": 875,
      "Ġap": 876,
      "Ġent": 877,
      "Ġwhat": 878,
      "ism": 879,
      "outh": 880,
      "Ġserv": 881,
      "ible": 882,
      "Ġsystem": 883,
      "Ġinf": 884,
      "Ġset": 885,
      "ink": 886,
      "uc": 887,
      "ility": 888,
      "Ġlong": 889,
      "chool": 890,
      "Ġlike": 891,
      "ments": 892,
      "Ġloc": 893,
      "ract": 894,
      "ting": 895,
      "ually": 896,
      "ork": 897,
      "ather": 898,
      "alth": 899,
      "Ġlater": 900,
      "pect": 901,
      "Ġgame": 902,
      "Ġinst": 903,
      "oh": 904,
      "ĠWh": 905,
      "ature": 906,
      "ived": 907,
      "Ġdiffer": 908,
      "ision": 909,
      "iel": 910,
      "Ġtrans": 911,
      "Ġneed": 912,
      "Ġpers": 913,
      "ĠAn": 914,
      "Ġmon": 915,
      "ution": 916,
      "Ġmod": 917,
      "ale": 918,
      "ists": 919,
      "ble": 920,
      "cept": 921,
      "Ġexp": 922,
      "man": 923,
      "Ġ10": 924,
      "ved": 925,
      "Ġboth": 926,
      "ury": 927,
      "orn": 928,
      "Ġmus": 929,
      "Ġlead": 930,
      "Ġrele": 931,
      "air": 932,
      "Ġdisc": 933,
      "led": 934,
      "ince": 935,
      "cy": 936,
      "ĠLe": 937,
      "Ġshow": 938,
      "ange": 939,
      "ames": 940,
      "Ġser": 941,
      "aking": 942,
      "Ġour": 943,
      "Ġsecond": 944,
      "Ġsaid": 945,
      "overn": 946,
      "Ġcre": 947,
      "Ġcar": 948,
      "Ġback": 949,
      "Ġnumber": 950,
      "Ġbel": 951,
      "eral": 952,
      "ton": 953,
      "Ġcount": 954,
      "ants": 955,
      "Ġsever": 956,
      "ined": 957,
      "Ġpol": 958,
      "Ġfilm": 959,
      "Ġsign": 960,
      "xt": 961,
      "Ġmain": 962,
      "Ġbecause": 963,
      "Ġmin": 964,
      "Ġart": 965,
      "vent": 966,
      "Ġsim": 967,
      "aj": 968,
      "Ġhelp": 969,
      "ier": 970,
      "Ġdist": 971,
      "Ġown": 972,
      "ĠAt": 973,
      "Ġfour": 974,
      "Ġincluding": 975,
      "ized": 976,
      "Ġpop": 977,
      "irect": 978,
      "Ġmed": 979,
      "Ġrecord": 980,
      "Ġrep": 981,
      "oun": 982,
      "Ġfam": 983,
      "ĠCon": 984,
      "get": 985,
      "rop": 986,
      "Ġcomple": 987,
      "ained": 988,
      "Ġwater": 989,
      "ĠSh": 990,
      "Ġed": 991,
      "Ġdid": 992,
      "Ġsong": 993,
      "Ġappe": 994,
      "ĠSc": 995,
      "ural": 996,
      "Ġworld": 997,
      "cial": 998,
      "ross": 999,
      "der": 1000,
      "imes": 1001,
      "ically": 1002,
      "iver": 1003,
      "Ġmake": 1004,
      "ern": 1005,
      "ty": 1006,
      "Ġagainst": 1007,
      "ey": 1008,
      "Ġcontin": 1009,
      "ĠHow": 1010,
      "Ġop": 1011,
      "ired": 1012,
      "Ġwar": 1013,
      "ared": 1014,
      "ven": 1015,
      "pr": 1016,
      "ues": 1017,
      "ives": 1018,
      "ruct": 1019,
      "Ġjust": 1020,
      "au": 1021,
      "Ġgrou": 1022,
      "ĠInd": 1023,
      "Ġresult": 1024,
      "Ġsame": 1025,
      "ah": 1026,
      "Ġshould": 1027,
      "ience": 1028,
      "Ġvar": 1029,
      "Ġday": 1030,
      "ĠEng": 1031,
      "ield": 1032,
      "Ġdet": 1033,
      "ouse": 1034,
      "Ġcharact": 1035,
      "Ġpartic": 1036,
      "Ġeach": 1037,
      "az": 1038,
      "ness": 1039,
      "Ġdesign": 1040,
      "Ġincre": 1041,
      "und": 1042,
      "ird": 1043,
      "Ġeven": 1044,
      "Ġins": 1045,
      "ode": 1046,
      "gg": 1047,
      "Ġknown": 1048,
      "Ġep": 1049,
      "ised": 1050,
      "Ġest": 1051,
      "ash": 1052,
      "ĠFor": 1053,
      "Ġaut": 1054,
      "ĠUnited": 1055,
      "Ġsl": 1056,
      "Ġ17": 1057,
      "Ġty": 1058,
      "ank": 1059,
      "ĠâĢĶ": 1060,
      "Ġvery": 1061,
      "Ġteam": 1062,
      "ax": 1063,
      "ĠThey": 1064,
      "up": 1065,
      "ene": 1066,
      "Ġsupport": 1067,
      "Ġland": 1068,
      "omet": 1069,
      "Ġhist": 1070,
      "Ġcalled": 1071,
      "Ġair": 1072,
      "ĠBe": 1073,
      "Ġeffect": 1074,
      "Ġmill": 1075,
      "Ġexper": 1076,
      "Ġget": 1077,
      "Ġext": 1078,
      "ove": 1079,
      "ĠBrit": 1080,
      "ĠAmerican": 1081,
      "Ġlife": 1082,
      "Ġimport": 1083,
      "Ġdown": 1084,
      "Ġthose": 1085,
      "ĠPro": 1086,
      "Ġ12": 1087,
      "ner": 1088,
      "Ġway": 1089,
      "Ġmuch": 1090,
      "Ġhum": 1091,
      "els": 1092,
      "ology": 1093,
      "Ġprog": 1094,
      "Ġsmall": 1095,
      "Ġ15": 1096,
      "Ġseason": 1097,
      "Ġperform": 1098,
      "apt": 1099,
      "Ġbecame": 1100,
      "Ġgovern": 1101,
      "Ġdifferent": 1102,
      "Ġsing": 1103,
      "Ġrev": 1104,
      "Ġstr": 1105,
      "Ġaround": 1106,
      "Ġorig": 1107,
      "Ġocc": 1108,
      "ek": 1109,
      "Ġpoint": 1110,
      "Ġschool": 1111,
      "ium": 1112,
      "chn": 1113,
      "Ġbro": 1114,
      "Ġgr": 1115,
      "gy": 1116,
      "Ġstart": 1117,
      "though": 1118,
      "Ġseveral": 1119,
      "ided": 1120,
      "osed": 1121,
      "Ġ000": 1122,
      "Ġrequ": 1123,
      "ody": 1124,
      "emb": 1125,
      "Ġthough": 1126,
      "Ġdirect": 1127,
      "ccess": 1128,
      "),": 1129,
      "ull": 1130,
      "con": 1131,
      "Ġpass": 1132,
      "Ġperson": 1133,
      "Ġ0": 1134,
      "ages": 1135,
      "Ġearly": 1136,
      "Ġclass": 1137,
      "Ġunt": 1138,
      "Ġrece": 1139,
      "cent": 1140,
      "Ġsk": 1141,
      "ĠWe": 1142,
      "Ġright": 1143,
      "Ġbr": 1144,
      "oss": 1145,
      "iving": 1146,
      "Ġmat": 1147,
      "Ġsoc": 1148,
      "ĠZ": 1149,
      "ane": 1150,
      "Ġ/": 1151,
      "tle": 1152,
      "Ġpower": 1153,
      "Ġconsid": 1154,
      "Ġnear": 1155,
      "Ġfin": 1156,
      "ĠAfter": 1157,
      "Ġexpl": 1158,
      "Ġdep": 1159,
      "crib": 1160,
      "Ġconst": 1161,
      "Ġevery": 1162,
      "Ġcontro": 1163,
      "uss": 1164,
      "ĠIs": 1165,
      "bum": 1166,
      "Ġ16": 1167,
      "arm": 1168,
      "ĠJoh": 1169,
      "Ġknow": 1170,
      "Ġgu": 1171,
      "Ġreport": 1172,
      "ĠCl": 1173,
      "Ġbuild": 1174,
      "Ġmil": 1175,
      "Ġ-": 1176,
      "Ġfact": 1177,
      "ĠShe": 1178,
      "ann": 1179,
      "Ġcommun": 1180,
      "Ġ198": 1181,
      "ajor": 1182,
      "ober": 1183,
      "eng": 1184,
      "ute": 1185,
      "ains": 1186,
      "Ġprot": 1187,
      "Ġadv": 1188,
      "Ġrun": 1189,
      "lish": 1190,
      "ately": 1191,
      "Ġuntil": 1192,
      "Ġhealth": 1193,
      "Ġlevel": 1194,
      "Ġlit": 1195,
      "Ġpat": 1196,
      "Ġdr": 1197,
      "Ġstate": 1198,
      "ices": 1199,
      "Ġmy": 1200,
      "ĠAd": 1201,
      "Ġepis": 1202,
      "ional": 1203,
      "iam": 1204,
      "Ġopen": 1205,
      "Ġnow": 1206,
      "ases": 1207,
      "Ġpublic": 1208,
      "aving": 1209,
      "ata": 1210,
      "Ġav": 1211,
      "Ġcur": 1212,
      "une": 1213,
      "Ġposs": 1214,
      "ley": 1215,
      "Ġseries": 1216,
      "iversity": 1217,
      "ued": 1218,
      "Ġ194": 1219,
      "oot": 1220,
      "Ġoper": 1221,
      "ĠJohn": 1222,
      "ĠSp": 1223,
      "..": 1224,
      "Ġresp": 1225,
      "Ġallow": 1226,
      "Ġinform": 1227,
      "ides": 1228,
      "Ġref": 1229,
      "lished": 1230,
      "Ġ11": 1231,
      "Ġrese": 1232,
      "ize": 1233,
      "Ġconf": 1234,
      "Ġalbum": 1235,
      "raph": 1236,
      "ex": 1237,
      "app": 1238,
      "gin": 1239,
      "Ġreturn": 1240,
      "Ġorgan": 1241,
      "Ġelect": 1242,
      "ital": 1243,
      "ris": 1244,
      "ĠHowever": 1245,
      "Ġlear": 1246,
      "rist": 1247,
      "ively": 1248,
      "Ġalong": 1249,
      "ians": 1250,
      "pend": 1251,
      "read": 1252,
      "ets": 1253,
      "Ġchildren": 1254,
      "Ġoften": 1255,
      "son": 1256,
      "ĠUS": 1257,
      "Ġhand": 1258,
      "akes": 1259,
      "ĠStates": 1260,
      "ĠMar": 1261,
      "uro": 1262,
      "Ġarea": 1263,
      "Ġsuccess": 1264,
      "Ġcrit": 1265,
      "Ġlarge": 1266,
      "Ġread": 1267,
      "Ġgood": 1268,
      "Ġappro": 1269,
      "Ġele": 1270,
      "ulation": 1271,
      "Ġmillion": 1272,
      "ves": 1273,
      "ĠWar": 1274,
      "Ġship": 1275,
      "Ġfind": 1276,
      "Ġbegan": 1277,
      "Ġcour": 1278,
      "omen": 1279,
      "Ġprocess": 1280,
      "Ġ$": 1281,
      "ences": 1282,
      "ording": 1283,
      "ĠCol": 1284,
      "ĠAust": 1285,
      "Ġbo": 1286,
      "Ġplace": 1287,
      "Ġgreat": 1288,
      "ke": 1289,
      "ĠWor": 1290,
      "Ġtake": 1291,
      "Ġrest": 1292,
      "iron": 1293,
      "ĠCan": 1294,
      "ger": 1295,
      "ĠBl": 1296,
      "Ġcare": 1297,
      "Ġtechn": 1298,
      "Ġbook": 1299,
      "Ġvis": 1300,
      "itions": 1301,
      "my": 1302,
      "In": 1303,
      "ret": 1304,
      "Ġimportant": 1305,
      "ission": 1306,
      "Ġprom": 1307,
      "Ġgener": 1308,
      "Ġdescrib": 1309,
      "Ġanother": 1310,
      "Ġcharacter": 1311,
      "ple": 1312,
      "Ġusing": 1313,
      "ified": 1314,
      "Ġsee": 1315,
      "ina": 1316,
      "Ġless": 1317,
      "Ġmajor": 1318,
      "ĠThere": 1319,
      "Ġ197": 1320,
      "enn": 1321,
      "Ġmar": 1322,
      "Ġstill": 1323,
      "ms": 1324,
      "cer": 1325,
      "ĠGerm": 1326,
      "Ġdem": 1327,
      "iven": 1328,
      "Ġche": 1329,
      "ĠPh": 1330,
      "Ġfollowing": 1331,
      "Ġgl": 1332,
      "Ġlast": 1333,
      "Ġ196": 1334,
      "ats": 1335,
      "Ġfun": 1336,
      "iod": 1337,
      "Ġdoes": 1338,
      "ample": 1339,
      "ĠQ": 1340,
      "ĠAll": 1341,
      "ior": 1342,
      "ĠMay": 1343,
      "reen": 1344,
      "Ġbre": 1345,
      "Ġhead": 1346,
      "Ġgroup": 1347,
      "Ġold": 1348,
      "Ġmusic": 1349,
      "Ġsince": 1350,
      "Ġterm": 1351,
      "ection": 1352,
      "Ġ[": 1353,
      "Ġiss": 1354,
      "ĠBritish": 1355,
      "ĠPl": 1356,
      "Ġcentury": 1357,
      "urch": 1358,
      "com": 1359,
      "ĠComm": 1360,
      "Ġgovernment": 1361,
      "ĠAnd": 1362,
      "med": 1363,
      "iety": 1364,
      "Ġoffic": 1365,
      "Ġsol": 1366,
      "hing": 1367,
      "oci": 1368,
      "tend": 1369,
      "Ġpar": 1370,
      "Ġeng": 1371,
      "ality": 1372,
      "Ġprogram": 1373,
      "Ġwithin": 1374,
      "Ġ13": 1375,
      "Ġturn": 1376,
      "Ġfew": 1377,
      "ĠWhen": 1378,
      "ently": 1379,
      "iqu": 1380,
      "rent": 1381,
      "Ġfamily": 1382,
      "Ġhome": 1383,
      "Ġbelie": 1384,
      "Ġlook": 1385,
      "Ġbeh": 1386,
      "Ġequ": 1387,
      "Ġbest": 1388,
      "ential": 1389,
      "eb": 1390,
      "ining": 1391,
      "Ġepisode": 1392,
      "Ġcaus": 1393,
      "Ġcommon": 1394,
      "Ġproble": 1395,
      "ĠWorld": 1396,
      "Ġtest": 1397,
      "Ġstand": 1398,
      "Ġcor": 1399,
      "Ġ14": 1400,
      "Ġaff": 1401,
      "Ġattack": 1402,
      "Ġmonth": 1403,
      "20": 1404,
      "Ġgrow": 1405,
      "wards": 1406,
      "Ġke": 1407,
      "Ġcap": 1408,
      "Ã©": 1409,
      "ged": 1410,
      "Ġopp": 1411,
      "inc": 1412,
      "Ġbased": 1413,
      "ense": 1414,
      "aced": 1415,
      "ored": 1416,
      "Ġcity": 1417,
      "amed": 1418,
      "Ġstudy": 1419,
      "ried": 1420,
      "Ġpresent": 1421,
      "Ġtop": 1422,
      "ĠYou": 1423,
      "Ġwithout": 1424,
      "Ġval": 1425,
      "Ġcond": 1426,
      "Ġdue": 1427,
      "vious": 1428,
      "Ġreleased": 1429,
      "Ġ&": 1430,
      "ĠCar": 1431,
      "Ġshort": 1432,
      "ination": 1433,
      "Ġes": 1434,
      "Ġname": 1435,
      "Ġfive": 1436,
      "Ġinformation": 1437,
      "Ġstudents": 1438,
      "ales": 1439,
      "ency": 1440,
      "Ġtook": 1441,
      "raft": 1442,
      "ilt": 1443,
      "Ġsix": 1444,
      "aim": 1445,
      "Ġmen": 1446,
      "Ġspecies": 1447,
      "alk": 1448,
      "lear": 1449,
      "ĠBy": 1450,
      "Ġann": 1451,
      "ĠNorth": 1452,
      "Ġleft": 1453,
      "ling": 1454,
      "Ġaddition": 1455,
      "ĠIf": 1456,
      "oint": 1457,
      "ĠAug": 1458,
      "Ġfood": 1459,
      "hor": 1460,
      "Ġleg": 1461,
      "Ġtem": 1462,
      "ĠChrist": 1463,
      "Ġbody": 1464,
      "Ġactiv": 1465,
      "Ġant": 1466,
      "urther": 1467,
      "urs": 1468,
      "Ġplan": 1469,
      "Ġchang": 1470,
      "ilar": 1471,
      "Ġperiod": 1472,
      "atic": 1473,
      "Ġsomet": 1474,
      "Ġtreat": 1475,
      "Ġmark": 1476,
      "Ġ195": 1477,
      "Ġide": 1478,
      "ured": 1479,
      "por": 1480,
      "Ġhuman": 1481,
      "Ġredu": 1482,
      "ec": 1483,
      "ĠMan": 1484,
      "Ġvers": 1485,
      "cing": 1486,
      "Ġwant": 1487,
      "ĠSept": 1488,
      "ards": 1489,
      "attle": 1490,
      "ĠJu": 1491,
      "Ġsingle": 1492,
      "lu": 1493,
      "Ġdeath": 1494,
      "Ġwin": 1495,
      "ivid": 1496,
      "Ġnorth": 1497,
      "less": 1498,
      "Ġline": 1499,
      "rodu": 1500,
      "ĠAustral": 1501,
      "Ġlaw": 1502,
      "stand": 1503,
      "ĠThese": 1504,
      "Ġeas": 1505,
      "ead": 1506,
      "Ġprof": 1507,
      "viron": 1508,
      "line": 1509,
      "Ġview": 1510,
      "bs": 1511,
      "ĠAugust": 1512,
      "ĠEuro": 1513,
      "alf": 1514,
      "Ġ30": 1515,
      "ĠUniversity": 1516,
      "Ġbecome": 1517,
      "ration": 1518,
      "day": 1519,
      "Ġdam": 1520,
      "ĠSeptember": 1521,
      "Ġcell": 1522,
      "Ġfre": 1523,
      "ĠNov": 1524,
      "Ġ193": 1525,
      "oad": 1526,
      "ĠOr": 1527,
      "Ġfore": 1528,
      "itive": 1529,
      "ĠNational": 1530,
      "Ġarr": 1531,
      "ories": 1532,
      "Ġorder": 1533,
      "Ġinclude": 1534,
      "aken": 1535,
      "oman": 1536,
      "Ġreceived": 1537,
      "Ġamong": 1538,
      "Ġword": 1539,
      "Ġreal": 1540,
      "by": 1541,
      "Ġexample": 1542,
      "Ġproject": 1543,
      "19": 1544,
      "ont": 1545,
      "Ġdevelopment": 1546,
      "me": 1547,
      "Ġris": 1548,
      "ids": 1549,
      "Ġsit": 1550,
      "Ġcontrol": 1551,
      "ries": 1552,
      "ĠOct": 1553,
      "Ġmust": 1554,
      "Th": 1555,
      "tt": 1556,
      "Ġbas": 1557,
      "ĠBr": 1558,
      ".âĢĿ": 1559,
      "Ġpolit": 1560,
      "apan": 1561,
      "ization": 1562,
      "iness": 1563,
      "Ġevent": 1564,
      "ĠBut": 1565,
      "par": 1566,
      "Ġinterest": 1567,
      "Ġlight": 1568,
      "Ġpost": 1569,
      "ĠGe": 1570,
      "ĠEurope": 1571,
      "Ġstory": 1572,
      "Ġlow": 1573,
      "Ġnext": 1574,
      "ertain": 1575,
      "Ġ25": 1576,
      "Ġlist": 1577,
      "Ġlocal": 1578,
      "Ġstre": 1579,
      "conom": 1580,
      "Ġdays": 1581,
      "ĠJan": 1582,
      "ĠYork": 1583,
      "Ġdata": 1584,
      "vers": 1585,
      "Ġmemb": 1586,
      "Ġport": 1587,
      "ected": 1588,
      "Ġparticular": 1589,
      "empt": 1590,
      "Ġinvol": 1591,
      "Ġdel": 1592,
      "Ġhig": 1593,
      "ĠJapan": 1594,
      "ĠKing": 1595,
      "the": 1596,
      "Ġkill": 1597,
      "oms": 1598,
      "ĠSouth": 1599,
      "Ġkm": 1600,
      "ention": 1601,
      "Ġident": 1602,
      "ator": 1603,
      "Ġresearch": 1604,
      "idge": 1605,
      "ĠTe": 1606,
      "ĠJune": 1607,
      "self": 1608,
      "ster": 1609,
      "ividual": 1610,
      "Ġprop": 1611,
      "ograph": 1612,
      "ĠWill": 1613,
      "ister": 1614,
      "Ġestab": 1615,
      "ĠOctober": 1616,
      "Ġsocial": 1617,
      "Ġhistory": 1618,
      "ival": 1619,
      "ĠPr": 1620,
      "aterial": 1621,
      "hers": 1622,
      "Ġpract": 1623,
      "rand": 1624,
      "yl": 1625,
      "vironment": 1626,
      "ental": 1627,
      "uary": 1628,
      "aster": 1629,
      "ĠGu": 1630,
      "ĠEd": 1631,
      "ĠEx": 1632,
      "Ġel": 1633,
      "ĠJuly": 1634,
      "Ġhy": 1635,
      "Ġimpro": 1636,
      "Ġtrad": 1637,
      "ances": 1638,
      "Ġcamp": 1639,
      "ots": 1640,
      "ott": 1641,
      "arent": 1642,
      "riend": 1643,
      "ones": 1644,
      "Ġstat": 1645,
      "Ġtyp": 1646,
      "ony": 1647,
      "Ġdise": 1648,
      "pril": 1649,
      "Ġcountry": 1650,
      "Ġanim": 1651,
      "ney": 1652,
      "rench": 1653,
      "mp": 1654,
      "che": 1655,
      "Ġwomen": 1656,
      "Ġlim": 1657,
      "Ġeduc": 1658,
      "Ġhowever": 1659,
      "Ġmanag": 1660,
      "Ġtoo": 1661,
      "ggest": 1662,
      "Ġsuggest": 1663,
      "idence": 1664,
      "ĠHar": 1665,
      "eter": 1666,
      "Ġfinal": 1667,
      "Ġconc": 1668,
      "Ġcult": 1669,
      "rain": 1670,
      "ox": 1671,
      "aining": 1672,
      "ĠApril": 1673,
      "resent": 1674,
      "Ġbus": 1675,
      "ering": 1676,
      "ably": 1677,
      "Ġprevious": 1678,
      "fic": 1679,
      "ĠMarch": 1680,
      "ways": 1681,
      "hod": 1682,
      "Ġsimilar": 1683,
      "Ġsay": 1684,
      "osp": 1685,
      "Ġ191": 1686,
      "Ġsouth": 1687,
      "Ġindividual": 1688,
      "ĠNovember": 1689,
      "ĠCent": 1690,
      "Ġpress": 1691,
      "Ġpain": 1692,
      "Ġrepl": 1693,
      "mber": 1694,
      "augh": 1695,
      "Ġthird": 1696,
      "Ġdest": 1697,
      "Ġappear": 1698,
      "Ġincluded": 1699,
      "ipp": 1700,
      "ches": 1701,
      "Ġquest": 1702,
      "Ġdiv": 1703,
      "ole": 1704,
      "Ġled": 1705,
      "ploy": 1706,
      "avy": 1707,
      "ĠHis": 1708,
      "Ġrole": 1709,
      "idd": 1710,
      "Ġside": 1711,
      "ruction": 1712,
      "Ġmembers": 1713,
      "Ġinit": 1714,
      "Ġareas": 1715,
      "Ġtimes": 1716,
      "Ġgiven": 1717,
      "Ġthink": 1718,
      "irc": 1719,
      "Ġmaterial": 1720,
      "ched": 1721,
      "Ġreview": 1722,
      "Ġphys": 1723,
      "Ġchange": 1724,
      "angu": 1725,
      "Ġhaving": 1726,
      "Ġcomb": 1727,
      "rote": 1728,
      "Ġyoung": 1729,
      "Ġrad": 1730,
      "let": 1731,
      "ĠII": 1732,
      "ript": 1733,
      "ĠDuring": 1734,
      "agn": 1735,
      "ergy": 1736,
      "ĠMc": 1737,
      "side": 1738,
      "Ġmight": 1739,
      "Ġcame": 1740,
      "Ġfurther": 1741,
      "cember": 1742,
      "Ġstrong": 1743,
      "Ġage": 1744,
      "Ġbuilt": 1745,
      "Ġable": 1746,
      "Ġtre": 1747,
      "Ġattempt": 1748,
      "Ġmaking": 1749,
      "ĠEnglish": 1750,
      "ring": 1751,
      "Ġsignific": 1752,
      "Ġrefer": 1753,
      "ĠFl": 1754,
      "Ġwind": 1755,
      "Ġsw": 1756,
      "ify": 1757,
      "Ġcover": 1758,
      "Ġnever": 1759,
      "Ġla": 1760,
      "Ġoriginal": 1761,
      "Ġnon": 1762,
      "Ġ100": 1763,
      "ological": 1764,
      "Ġtit": 1765,
      "ĠJanuary": 1766,
      "ape": 1767,
      "ached": 1768,
      "Ġintern": 1769,
      "ĠDecember": 1770,
      "Ġlik": 1771,
      "eg": 1772,
      "Ġdescribed": 1773,
      "itary": 1774,
      "ĠTr": 1775,
      "ĠBro": 1776,
      "ĠGen": 1777,
      "Ġsent": 1778,
      "ources": 1779,
      "ither": 1780,
      "oon": 1781,
      "Ġtri": 1782,
      "ĠFrench": 1783,
      "ĠAf": 1784,
      "Ġvide": 1785,
      "ĠOne": 1786,
      "uted": 1787,
      "Ġdev": 1788,
      "imate": 1789,
      "here": 1790,
      "Ġclaim": 1791,
      "ĠMus": 1792,
      "ĠÂ": 1793,
      "Ġcr": 1794,
      "Ġinflu": 1795,
      "rew": 1796,
      "ability": 1797,
      "sc": 1798,
      "Ġwrote": 1799,
      "ression": 1800,
      "ogn": 1801,
      "ĠWith": 1802,
      "Ġconsidered": 1803,
      "Ġfield": 1804,
      "Ġhouse": 1805,
      "Ġdi": 1806,
      "Ġeconom": 1807,
      "Ġlate": 1808,
      "Ġweek": 1809,
      "ee": 1810,
      "Ġ%": 1811,
      ".,": 1812,
      "ours": 1813,
      "Ġothers": 1814,
      "Ġcommand": 1815,
      "Ġproper": 1816,
      "Ġdon": 1817,
      "Ġauthor": 1818,
      "Ġproduct": 1819,
      "Ġsym": 1820,
      "ĠTo": 1821,
      "ĠPar": 1822,
      "ĠRes": 1823,
      "ĠAm": 1824,
      "atural": 1825,
      "Ġstruct": 1826,
      "Ġtot": 1827,
      "Ġcost": 1828,
      "Ġavail": 1829,
      "Ġlittle": 1830,
      "Ġnamed": 1831,
      "raw": 1832,
      "abor": 1833,
      "ung": 1834,
      "Ġdeb": 1835,
      "Ġpot": 1836,
      "mit": 1837,
      "Ġput": 1838,
      "Ġconn": 1839,
      "ges": 1840,
      "Ġcurrent": 1841,
      "ially": 1842,
      "Ġwon": 1843,
      "Ġ]": 1844,
      "Ġalthough": 1845,
      "ĠCal": 1846,
      "Ġacross": 1847,
      "estern": 1848,
      "Ġsold": 1849,
      "pecial": 1850,
      "Wh": 1851,
      "co": 1852,
      "atch": 1853,
      "olution": 1854,
      "be": 1855,
      "Ġcapt": 1856,
      "Ġfac": 1857,
      "ai": 1858,
      "Ġhalf": 1859,
      "Ġproduction": 1860,
      "atter": 1861,
      "Ġband": 1862,
      "Ġpossible": 1863,
      "Ġbetter": 1864,
      "min": 1865,
      "ĠCanad": 1866,
      "Ġmeas": 1867,
      "Ġkeep": 1868,
      "Ġvol": 1869,
      "ĠEn": 1870,
      "Ġsound": 1871,
      "Ġheld": 1872,
      "ote": 1873,
      "Ġplayed": 1874,
      "ĠX": 1875,
      "ront": 1876,
      "ops": 1877,
      "Ġlearn": 1878,
      "ese": 1879,
      "ef": 1880,
      "Ġgames": 1881,
      "ĠSy": 1882,
      "af": 1883,
      "most": 1884,
      "ĠEar": 1885,
      "atures": 1886,
      "br": 1887,
      "ument": 1888,
      "Ġobject": 1889,
      "ĠGerman": 1890,
      "ills": 1891,
      "ae": 1892,
      "Ġcase": 1893,
      "Ġenvironment": 1894,
      "Ġ21": 1895,
      "Ġtown": 1896,
      "Ġbuilding": 1897,
      "Ġcreat": 1898,
      "Ġsuff": 1899,
      "Ġunderstand": 1900,
      "Ġaway": 1901,
      "Ġsignificant": 1902,
      "icle": 1903,
      "Ġpercent": 1904,
      "ison": 1905,
      "ball": 1906,
      "Ġpublished": 1907,
      "Ġground": 1908,
      "ler": 1909,
      "Ġfail": 1910,
      "Ġcolle": 1911,
      "to": 1912,
      "Ġbegin": 1913,
      "ĠNo": 1914,
      "Ġer": 1915,
      "Ġvarious": 1916,
      "Ġobs": 1917,
      "work": 1918,
      "ĠMed": 1919,
      "Ġrepresent": 1920,
      "Ġassoci": 1921,
      "sequ": 1922,
      "Ġrelations": 1923,
      "Ġenergy": 1924,
      "Ġ...": 1925,
      "omin": 1926,
      "ocus": 1927,
      "Ġanal": 1928,
      "oid": 1929,
      "ĠFeb": 1930,
      "Ġ24": 1931,
      "Ġve": 1932,
      "Ġfire": 1933,
      "ham": 1934,
      "Ġlangu": 1935,
      "Ġspecial": 1936,
      "ĠAss": 1937,
      "ĠWest": 1938,
      "Ġinvest": 1939,
      "Ġmult": 1940,
      "ĠAb": 1941,
      "Ġsum": 1942,
      "ĠWilliam": 1943,
      "ĠBar": 1944,
      "||": 1945,
      "utes": 1946,
      "Ġfeel": 1947,
      "pite": 1948,
      "10": 1949,
      "Ġformer": 1950,
      "Ġdeveloped": 1951,
      "Ġfriend": 1952,
      "Ġprim": 1953,
      "Ġpopulation": 1954,
      "Ġavailable": 1955,
      "ery": 1956,
      "ague": 1957,
      "Ġprovide": 1958,
      "ruary": 1959,
      "ficult": 1960,
      "of": 1961,
      "Ġcy": 1962,
      "Ġlarg": 1963,
      "ĠEngland": 1964,
      "stit": 1965,
      "Ġposition": 1966,
      "ĠNe": 1967,
      "oph": 1968,
      "elt": 1969,
      "Ġmean": 1970,
      "duct": 1971,
      "âĢĶ": 1972,
      "gen": 1973,
      "ators": 1974,
      "Ġexist": 1975,
      "ĠAfric": 1976,
      "Ġvideo": 1977,
      "sel": 1978,
      "Ġenc": 1979,
      "ĠHer": 1980,
      "Ġ2010": 1981,
      "asing": 1982,
      "ĠFebruary": 1983,
      "Ġrout": 1984,
      "ĠFran": 1985,
      "yle": 1986,
      "Ġtoget": 1987,
      "Ġtogether": 1988,
      "Ġgun": 1989,
      "aper": 1990,
      "Ġdifficult": 1991,
      "Ġindust": 1992,
      "Ġaccess": 1993,
      "Ġfull": 1994,
      "elling": 1995,
      "aff": 1996,
      "ĠCount": 1997,
      "ĠWhile": 1998,
      "Ġintrodu": 1999,
      "Ġhard": 2000,
      "Ġcontinued": 2001,
      "eth": 2002,
      "Ġask": 2003,
      "Ġdisease": 2004,
      "Ġtotal": 2005,
      "Ġwritten": 2006,
      "Ġnational": 2007,
      "ĠGod": 2008,
      "Ġstorm": 2009,
      "iting": 2010,
      "Ġhapp": 2011,
      "Ġcompany": 2012,
      "ĠGeor": 2013,
      "aps": 2014,
      "Ġred": 2015,
      "rap": 2016,
      "Ġbene": 2017,
      ",âĢĿ": 2018,
      "Ġgeneral": 2019,
      "__": 2020,
      "lev": 2021,
      "Ġseen": 2022,
      "Ġorigin": 2023,
      "Ġdecl": 2024,
      "Ġter": 2025,
      "ware": 2026,
      "ccording": 2027,
      "Ġworks": 2028,
      "Ġfar": 2029,
      "Ġ50": 2030,
      "ource": 2031,
      "omm": 2032,
      "ĠMin": 2033,
      "iber": 2034,
      "Ġhistor": 2035,
      "ĠAlthough": 2036,
      "Ġfree": 2037,
      "Ġblack": 2038,
      "Ġoccur": 2039,
      "Ġpolitical": 2040,
      "Ġroad": 2041,
      "oard": 2042,
      "Ġoffer": 2043,
      "Ġfocus": 2044,
      "Ġmonths": 2045,
      "ĠMe": 2046,
      "Ġcome": 2047,
      "aves": 2048,
      "ĠEl": 2049,
      "ĠDes": 2050,
      "Ġrisk": 2051,
      "ising": 2052,
      "istic": 2053,
      "ille": 2054,
      "Ġcertain": 2055,
      "yn": 2056,
      "Ġcirc": 2057,
      "Ġcreated": 2058,
      "Ġreported": 2059,
      "Ġscient": 2060,
      "Ġmethod": 2061,
      "Ġpopular": 2062,
      "ĠâĢĺ": 2063,
      "Ġplant": 2064,
      "ĠSu": 2065,
      "Ġobserv": 2066,
      "Ġleast": 2067,
      "Ġmeans": 2068,
      "omes": 2069,
      "Ġbi": 2070,
      "ĠChar": 2071,
      "Ġcause": 2072,
      "ving": 2073,
      "Ġproduced": 2074,
      "âĢĵ": 2075,
      "Ġsaf": 2076,
      "Ġtaken": 2077,
      "Ġprevent": 2078,
      "ief": 2079,
      "Ġrelease": 2080,
      "Ġcal": 2081,
      "roy": 2082,
      "ĠCo": 2083,
      "ended": 2084,
      "Ġ2011": 2085,
      "sh": 2086,
      "Ġjo": 2087,
      "ĠRiver": 2088,
      "ensive": 2089,
      "oney": 2090,
      "Ġmot": 2091,
      "Ġ2008": 2092,
      "Ġblood": 2093,
      "Ġthought": 2094,
      "ĠAmerica": 2095,
      "Ġ2012": 2096,
      "Ġprofess": 2097,
      "Ġrange": 2098,
      "Ġloss": 2099,
      "Ġmeet": 2100,
      "Ġcompet": 2101,
      "Ġfoot": 2102,
      "Ġrather": 2103,
      "uture": 2104,
      "Ġclear": 2105,
      "ublic": 2106,
      "This": 2107,
      "Ġservice": 2108,
      "ems": 2109,
      "face": 2110,
      "reg": 2111,
      "Ġill": 2112,
      "Ġbusiness": 2113,
      "Ġdiscover": 2114,
      "Ġtype": 2115,
      "Ġcho": 2116,
      "ened": 2117,
      "ĠSome": 2118,
      "ĠMich": 2119,
      "ĠSm": 2120,
      "Ġ2009": 2121,
      "Ġey": 2122,
      "Ġsuper": 2123,
      "Ġ22": 2124,
      "ĠFr": 2125,
      "âĢľ": 2126,
      "ondon": 2127,
      "Ġworking": 2128,
      "Ġpast": 2129,
      "outher": 2130,
      "uck": 2131,
      "Ġmilitary": 2132,
      "Ġlost": 2133,
      "Ġ23": 2134,
      "ĠIntern": 2135,
      "ivil": 2136,
      "Ġsite": 2137,
      "ĠComp": 2138,
      "ressed": 2139,
      "alt": 2140,
      "ope": 2141,
      "urb": 2142,
      "view": 2143,
      "Ġsqu": 2144,
      "Ġwent": 2145,
      "ows": 2146,
      "Ġmoved": 2147,
      "Ġonce": 2148,
      "ĠDav": 2149,
      "Ġ192": 2150,
      "Ġ2007": 2151,
      "Ġversion": 2152,
      "Ġbar": 2153,
      "rict": 2154,
      "Ġabove": 2155,
      "ĠState": 2156,
      "aut": 2157,
      "ĠAng": 2158,
      "Ġmodern": 2159,
      "Ġpred": 2160,
      "Ġcross": 2161,
      "Ġthroughout": 2162,
      "ilities": 2163,
      "ask": 2164,
      "Ġhold": 2165,
      "Ġneg": 2166,
      "outhern": 2167,
      "aged": 2168,
      "Ġfall": 2169,
      "Ġeffort": 2170,
      "Ġamount": 2171,
      "Ġwhite": 2172,
      "oring": 2173,
      "Ġdeterm": 2174,
      "atory": 2175,
      "Ġcop": 2176,
      "nal": 2177,
      "ĠLondon": 2178,
      "Ġlower": 2179,
      "ush": 2180,
      "iment": 2181,
      "aching": 2182,
      "Ġrespons": 2183,
      "ford": 2184,
      "Ġthings": 2185,
      "Ġet": 2186,
      "Ġfund": 2187,
      "ming": 2188,
      "chie": 2189,
      "Ġcoll": 2190,
      "iation": 2191,
      "Ġaver": 2192,
      "Ġord": 2193,
      "Ġforce": 2194,
      "Ġste": 2195,
      "Ġopt": 2196,
      "Ġgave": 2197,
      ".\"": 2198,
      "Ġvict": 2199,
      "bers": 2200,
      "for": 2201,
      "Ġcommunity": 2202,
      "Ġnatural": 2203,
      "epend": 2204,
      "ĠCity": 2205,
      "lands": 2206,
      "Ġlive": 2207,
      "ropical": 2208,
      "Ġparticip": 2209,
      "Ġentire": 2210,
      "Ġarg": 2211,
      "pecially": 2212,
      "Ġz": 2213,
      "craft": 2214,
      "Ġtradition": 2215,
      "Ġproblems": 2216,
      "na": 2217,
      "imately": 2218,
      "Ġusually": 2219,
      "Ġhere": 2220,
      "hern": 2221,
      "ĠAct": 2222,
      "Ġarch": 2223,
      "Ġeither": 2224,
      "Ġgive": 2225,
      "ateg": 2226,
      "Ġcut": 2227,
      "Ġfeature": 2228,
      "Ġemploy": 2229,
      "Ġwest": 2230,
      "Ġenough": 2231,
      "ĠPark": 2232,
      "Ġtrack": 2233,
      "aul": 2234,
      "Ġupon": 2235,
      "Ġexam": 2236,
      "Ġspace": 2237,
      "Ġ40": 2238,
      "ĠCor": 2239,
      "ades": 2240,
      "Ġmass": 2241,
      "Ġrecogn": 2242,
      "ification": 2243,
      "Ġnight": 2244,
      "ĠAir": 2245,
      "Ġsuccessful": 2246,
      "Ġpur": 2247,
      "ique": 2248,
      "erc": 2249,
      "Ġtru": 2250,
      "Ġrelationship": 2251,
      "ĠHigh": 2252,
      "ements": 2253,
      "ĠPres": 2254,
      "Ġindic": 2255,
      "Ġwriting": 2256,
      "Ġeast": 2257,
      "ĠSec": 2258,
      "Ġcast": 2259,
      "ien": 2260,
      "Ġalmost": 2261,
      "Ġsays": 2262,
      "rag": 2263,
      "iol": 2264,
      "Ġfem": 2265,
      "Ġhimself": 2266,
      "Ġeight": 2267,
      "Ġforces": 2268,
      "dom": 2269,
      "Ġcourse": 2270,
      "Ġmatch": 2271,
      "Ġfuture": 2272,
      "Ġnort": 2273,
      "Ġlikely": 2274,
      "Ġnet": 2275,
      "Ġpri": 2276,
      "Ġsomething": 2277,
      "acy": 2278,
      "ortun": 2279,
      "Ġfather": 2280,
      "Ġlet": 2281,
      "Ġlanguage": 2282,
      "Ġdiscuss": 2283,
      "ĠTw": 2284,
      "etic": 2285,
      "Ġten": 2286,
      "ĠAccording": 2287,
      "Ġtreatment": 2288,
      "Ġalways": 2289,
      "Ġevidence": 2290,
      "Ġlevels": 2291,
      "Ġcaused": 2292,
      "ĠPer": 2293,
      "Ġsepar": 2294,
      "ĠPol": 2295,
      "ĠDr": 2296,
      "Ġgoing": 2297,
      "Ġsurv": 2298,
      "Ġsex": 2299,
      "val": 2300,
      "lected": 2301,
      "selves": 2302,
      "eds": 2303,
      "ĠPe": 2304,
      "Ġperformance": 2305,
      "ude": 2306,
      "Ġrespect": 2307,
      "Ġfav": 2308,
      "Ġheart": 2309,
      "Ġofficial": 2310,
      "Ġcontrib": 2311,
      "hem": 2312,
      "aces": 2313,
      "rest": 2314,
      "Ġfight": 2315,
      "Ġ190": 2316,
      "Ġtemper": 2317,
      "ana": 2318,
      "Ġcreate": 2319,
      "ients": 2320,
      "sy": 2321,
      "umb": 2322,
      "Ġtry": 2323,
      "Ġchanges": 2324,
      "Ġsubject": 2325,
      "Ġess": 2326,
      "Ġever": 2327,
      "Ġespecially": 2328,
      "Ġearl": 2329,
      "Ġparent": 2330,
      "Ġexperience": 2331,
      "rated": 2332,
      "Ġrelig": 2333,
      "rought": 2334,
      "Ġaction": 2335,
      "Ġpotential": 2336,
      "Ġregion": 2337,
      "Ġimpact": 2338,
      "ready": 2339,
      "ump": 2340,
      "ĠSw": 2341,
      "artment": 2342,
      "arc": 2343,
      "Ġquick": 2344,
      "ray": 2345,
      "Ġmor": 2346,
      "Ġprob": 2347,
      "ĠRuss": 2348,
      "Ġincrease": 2349,
      "Ġexpect": 2350,
      "Ġhigher": 2351,
      "iding": 2352,
      "Ġgroups": 2353,
      "medi": 2354,
      "Ġ27": 2355,
      "Ġaccount": 2356,
      "Ġreturned": 2357,
      "aring": 2358,
      "Ġengine": 2359,
      "go": 2360,
      "ibility": 2361,
      "Ġeducation": 2362,
      "Ġdestroy": 2363,
      "Ġagre": 2364,
      "Ġgre": 2365,
      "Ġdefe": 2366,
      "Ġge": 2367,
      "Ġself": 2368,
      "cil": 2369,
      "aign": 2370,
      "ington": 2371,
      "Ġproblem": 2372,
      "Ġdied": 2373,
      "ĠThat": 2374,
      "Ġconsider": 2375,
      "Ġlearning": 2376,
      "Ġaccording": 2377,
      "Ġ26": 2378,
      "Ġlack": 2379,
      "It": 2380,
      "Ġfunction": 2381,
      "Ġson": 2382,
      "ĠAustralia": 2383,
      "Ġestablished": 2384,
      "Ġplayer": 2385,
      "Ġprovided": 2386,
      "Ġ2013": 2387,
      "Ġachie": 2388,
      "Ġconditions": 2389,
      "ffic": 2390,
      "Ġvir": 2391,
      "Ġfeet": 2392,
      "Ġmaint": 2393,
      "Ġstarted": 2394,
      "Ġalready": 2395,
      "thing": 2396,
      "Ġfle": 2397,
      "Ġcountries": 2398,
      "Ġcells": 2399,
      "Ġclose": 2400,
      "uel": 2401,
      "ĠSchool": 2402,
      "ĠJames": 2403,
      "ĠGeneral": 2404,
      "ires": 2405,
      "Ġ28": 2406,
      "aur": 2407,
      "ĠGl": 2408,
      "Ġeffects": 2409,
      "Ġaccept": 2410,
      "isc": 2411,
      "ume": 2412,
      "not": 2413,
      "Ġincreased": 2414,
      "now": 2415,
      "Ġstar": 2416,
      "Ġinj": 2417,
      "rick": 2418,
      "cle": 2419,
      "hel": 2420,
      "ĠEast": 2421,
      "Ġaud": 2422,
      "Ġkey": 2423,
      "Ġfig": 2424,
      "Ġ2006": 2425,
      "50": 2426,
      "Ġimm": 2427,
      "Ġrecorded": 2428,
      "ites": 2429,
      "Ġannoun": 2430,
      "uation": 2431,
      "gr": 2432,
      "erous": 2433,
      "Ġmid": 2434,
      "Ġcomput": 2435,
      "ĠMon": 2436,
      "Ġfront": 2437,
      "ĠPart": 2438,
      "Ġbattle": 2439,
      "Ġabs": 2440,
      "Ġstated": 2441,
      "Ġclos": 2442,
      "Ġpriv": 2443,
      "Ġinstead": 2444,
      "Ġbig": 2445,
      "Ġfrequ": 2446,
      "Ġnorm": 2447,
      "Ġitself": 2448,
      "Ġbehav": 2449,
      "ze": 2450,
      "play": 2451,
      "Ġphot": 2452,
      "ĠSoc": 2453,
      "ĠSim": 2454,
      "irl": 2455,
      "ĠCounty": 2456,
      "iddle": 2457,
      "Ġpay": 2458,
      "Ġens": 2459,
      "ctor": 2460,
      "Ġhours": 2461,
      "Ġstates": 2462,
      "hib": 2463,
      "Ġnecess": 2464,
      "Ġmix": 2465,
      "ĠAg": 2466,
      "lying": 2467,
      "ights": 2468,
      "ĠQu": 2469,
      "'t": 2470,
      "erson": 2471,
      "Ġbroad": 2472,
      "rug": 2473,
      "ma": 2474,
      "urg": 2475,
      "Ġpoints": 2476,
      "Ġdamage": 2477,
      "ledge": 2478,
      "ĠJapanese": 2479,
      "Ġtraining": 2480,
      "Ġrequired": 2481,
      "Ġrul": 2482,
      "Ġnews": 2483,
      "cks": 2484,
      "Ġkind": 2485,
      "Ġmiles": 2486,
      "Ġcoun": 2487,
      "Ġpie": 2488,
      "cript": 2489,
      "Ġwords": 2490,
      "Ġaverage": 2491,
      "iers": 2492,
      "clus": 2493,
      "ĠPhil": 2494,
      "icro": 2495,
      "ĠJack": 2496,
      "Ġfollowed": 2497,
      "Ġremained": 2498,
      "ule": 2499,
      "Ġpolic": 2500,
      "Ġregard": 2501,
      "Ġthreat": 2502,
      "ĠRep": 2503,
      "oyal": 2504,
      "Ġspecific": 2505,
      "Ġsystems": 2506,
      "Ġdesigned": 2507,
      "omb": 2508,
      "Ġwhether": 2509,
      "oe": 2510,
      "sw": 2511,
      "Ġ189": 2512,
      "urric": 2513,
      "Ġships": 2514,
      "ius": 2515,
      "Ġadded": 2516,
      "Ġstri": 2517,
      "Ġconv": 2518,
      "Ġexc": 2519,
      "Ġmakes": 2520,
      "lement": 2521,
      "Ġcoast": 2522,
      "ĠDep": 2523,
      "Ġchall": 2524,
      "Ġbenef": 2525,
      "NA": 2526,
      "iction": 2527,
      "Ġmount": 2528,
      "Ġconduct": 2529,
      "Ġmother": 2530,
      "Ġfeatures": 2531,
      "Ġdone": 2532,
      "Ġgra": 2533,
      "Ġevents": 2534,
      "Ġtaking": 2535,
      "Ġce": 2536,
      "Ġbehind": 2537,
      "Ġconsist": 2538,
      "eks": 2539,
      "Ġparts": 2540,
      "ication": 2541,
      "Ġtoday": 2542,
      "rown": 2543,
      "Ġgenerally": 2544,
      "ald": 2545,
      "ĠSch": 2546,
      "Ġbase": 2547,
      "Ġbreak": 2548,
      "ett": 2549,
      "Ġidea": 2550,
      "Ġsurface": 2551,
      "Ġdoc": 2552,
      "ĠEm": 2553,
      "ĠWhat": 2554,
      "oor": 2555,
      "onst": 2556,
      "ores": 2557,
      "Ġseven": 2558,
      "Ġmag": 2559,
      "Ġsize": 2560,
      "Ġpressure": 2561,
      "ream": 2562,
      "ength": 2563,
      "Ġcareer": 2564,
      "Ġreached": 2565,
      "ĠSo": 2566,
      "ĠReg": 2567,
      "adem": 2568,
      "cast": 2569,
      "uk": 2570,
      "ought": 2571,
      "Ġdetail": 2572,
      "Ġwid": 2573,
      "Ġhost": 2574,
      "incip": 2575,
      "Ġlocated": 2576,
      "Ġdou": 2577,
      "Ġreally": 2578,
      "ĠArmy": 2579,
      "Ġthemselves": 2580,
      "Ġtitle": 2581,
      "bor": 2582,
      "ournal": 2583,
      "Ġcharacters": 2584,
      "Ġbill": 2585,
      "ĠStud": 2586,
      "ples": 2587,
      "head": 2588,
      "Ġliving": 2589,
      "Ġnoted": 2590,
      "Ġreason": 2591,
      "Ġparticularly": 2592,
      "Ġcases": 2593,
      "lin": 2594,
      "Ġassist": 2595,
      "Ġmarket": 2596,
      "Ġinvolved": 2597,
      "Ġserved": 2598,
      "Ġcampaign": 2599,
      "Ġstop": 2600,
      "ĠMor": 2601,
      "tended": 2602,
      "Ġregular": 2603,
      "cul": 2604,
      "ĠSan": 2605,
      "Ġtravel": 2606,
      "Ġprotect": 2607,
      "ift": 2608,
      "Ġmiss": 2609,
      "ama": 2610,
      "utions": 2611,
      "Ġresults": 2612,
      "Ġbatt": 2613,
      "ĠHen": 2614,
      "Ġquestion": 2615,
      "Ġoil": 2616,
      "Ġtowards": 2617,
      "Ġmodel": 2618,
      "Ġcritic": 2619,
      "ĠIndian": 2620,
      "itch": 2621,
      "Ġchart": 2622,
      "Ġclub": 2623,
      "Ġbelow": 2624,
      "urity": 2625,
      "Ġdig": 2626,
      "used": 2627,
      "Ġfelt": 2628,
      "ĠDiv": 2629,
      "ino": 2630,
      "Ġmem": 2631,
      "levision": 2632,
      "Ġconcept": 2633,
      "Ġmember": 2634,
      "Ġkilled": 2635,
      "Ġleading": 2636,
      "anks": 2637,
      "itor": 2638,
      "Ġsaw": 2639,
      "Ġ29": 2640,
      "Ġsongs": 2641,
      "Ġgrad": 2642,
      "eding": 2643,
      "Ġdepend": 2644,
      "Ġweeks": 2645,
      "irth": 2646,
      "Ġking": 2647,
      "ĠGr": 2648,
      "Ġborn": 2649,
      "ĠThom": 2650,
      "Ġmoney": 2651,
      "Ġformed": 2652,
      "ĠItal": 2653,
      "Ġreve": 2654,
      "Ġtro": 2655,
      "ĠStre": 2656,
      "ĠRober": 2657,
      "Ġtour": 2658,
      "Ġnov": 2659,
      "Ġmedia": 2660,
      "arily": 2661,
      "fact": 2662,
      "rem": 2663,
      "Ġlove": 2664,
      "Ġrights": 2665,
      "ampions": 2666,
      "anc": 2667,
      "osition": 2668,
      "ference": 2669,
      "Ġlay": 2670,
      "Ġstyle": 2671,
      "Ġeventually": 2672,
      "Ġissues": 2673,
      "Ġfarm": 2674,
      "Ġbrought": 2675,
      "Ġwhy": 2676,
      "icles": 2677,
      "Ġrock": 2678,
      "Ġapplic": 2679,
      "obal": 2680,
      "12": 2681,
      "Ġconcern": 2682,
      "iff": 2683,
      "Ġ2005": 2684,
      "Ġwhole": 2685,
      "Ġcomplex": 2686,
      "ĠRich": 2687,
      "Ġaircraft": 2688,
      "ĠBlack": 2689,
      "Ġstudies": 2690,
      "Ġnature": 2691,
      "Ġrequire": 2692,
      "het": 2693,
      "ols": 2694,
      "Ġpersonal": 2695,
      "Ġviol": 2696,
      "Ġlab": 2697,
      "ael": 2698,
      "Ġremov": 2699,
      "Ġver": 2700,
      "ĠGeorge": 2701,
      "Ġdisp": 2702,
      "ands": 2703,
      "Ġstep": 2704,
      "Ġmove": 2705,
      "Ġwall": 2706,
      "Ġemer": 2707,
      "Ġtechnology": 2708,
      "Ġchem": 2709,
      "ĠEuropean": 2710,
      "ĠSte": 2711,
      "Ġscience": 2712,
      "Ġhit": 2713,
      "ership": 2714,
      "hest": 2715,
      "Ġliter": 2716,
      "Ġmind": 2717,
      "Ġrelated": 2718,
      "Ġsoon": 2719,
      "Ġshows": 2720,
      "ica": 2721,
      "men": 2722,
      "Ġassociated": 2723,
      "Ġft": 2724,
      "Ġpra": 2725,
      "Ġrate": 2726,
      "Ġphysical": 2727,
      "Ġround": 2728,
      "Ġplants": 2729,
      "Ġpositive": 2730,
      "ĠDavid": 2731,
      "18": 2732,
      "Ġsun": 2733,
      "ĠHouse": 2734,
      "ĠAnt": 2735,
      "Ġstation": 2736,
      "Ġestim": 2737,
      "rel": 2738,
      "Ġconstruction": 2739,
      "Ġarm": 2740,
      "Ġperformed": 2741,
      "ara": 2742,
      "oes": 2743,
      "Ġoutside": 2744,
      "aries": 2745,
      "ĠWash": 2746,
      "Ġhor": 2747,
      "Ġcommit": 2748,
      "Ġbird": 2749,
      "Ġmer": 2750,
      "oura": 2751,
      "Ġball": 2752,
      "Ġvill": 2753,
      "Ġgoal": 2754,
      "sych": 2755,
      "amb": 2756,
      "ellow": 2757,
      "ĠOther": 2758,
      "Ġneeded": 2759,
      "ĠFrance": 2760,
      "Ġteac": 2761,
      "ening": 2762,
      "Ġtext": 2763,
      "Ġgrowth": 2764,
      "ĠVir": 2765,
      "Ġmultip": 2766,
      "oming": 2767,
      "Ġinternational": 2768,
      "Ġstage": 2769,
      "iforn": 2770,
      "reek": 2771,
      "Ġsens": 2772,
      "Ġworked": 2773,
      "ĠEarth": 2774,
      "ysis": 2775,
      "amm": 2776,
      "Ġstructure": 2777,
      "ĠHist": 2778,
      "igned": 2779,
      "Ġincreasing": 2780,
      "Ġstreng": 2781,
      "ĠRoman": 2782,
      "Ġlonger": 2783,
      "Ġdecided": 2784,
      "Ġpoor": 2785,
      "Ġreact": 2786,
      "Ġissue": 2787,
      "Ġcancer": 2788,
      "Ġtell": 2789,
      "Ġlargest": 2790,
      "Ġallowed": 2791,
      "omp": 2792,
      "Ġheavy": 2793,
      "ĠChristian": 2794,
      "pper": 2795,
      "Ġlot": 2796,
      "ptoms": 2797,
      "Ġplayers": 2798,
      "field": 2799,
      "Ġsometimes": 2800,
      "Ġstru": 2801,
      "oted": 2802,
      "Ġindepend": 2803,
      "ĠMy": 2804,
      "Ġdeep": 2805,
      "Ġesc": 2806,
      "Ġimmedi": 2807,
      "Ġ2014": 2808,
      "Ġ186": 2809,
      "Ġservices": 2810,
      "Ġlength": 2811,
      "pped": 2812,
      ",\"": 2813,
      "aid": 2814,
      "Ġneeds": 2815,
      "Ġquality": 2816,
      "anced": 2817,
      "Ġadult": 2818,
      "Ġcourt": 2819,
      "Ġtar": 2820,
      "Ġanc": 2821,
      "minist": 2822,
      "ĠPresident": 2823,
      "Ġwood": 2824,
      "Ġlaun": 2825,
      "ĠCanada": 2826,
      "Ã¡": 2827,
      "vey": 2828,
      "abit": 2829,
      "ifornia": 2830,
      "asc": 2831,
      "Ġsource": 2832,
      "ped": 2833,
      "Ġsat": 2834,
      "Ġfamil": 2835,
      "St": 2836,
      "Ġemb": 2837,
      "ned": 2838,
      "Ġcentral": 2839,
      "ederal": 2840,
      "Ġactivity": 2841,
      "Ġplaced": 2842,
      "Ġrecomm": 2843,
      "ĠSer": 2844,
      "Ġtax": 2845,
      "ctions": 2846,
      "ging": 2847,
      "Ġtypes": 2848,
      "ĠTra": 2849,
      "ĠKe": 2850,
      "ĠInternational": 2851,
      "Ġcle": 2852,
      "off": 2853,
      "Ġterms": 2854,
      "Ġknowledge": 2855,
      "Ġactivities": 2856,
      "Ġability": 2857,
      "order": 2858,
      "Ġappeared": 2859,
      "Ġyet": 2860,
      "ico": 2861,
      "izing": 2862,
      "ĠAc": 2863,
      "ĠIm": 2864,
      "Ġminutes": 2865,
      "Ġhon": 2866,
      "Ġbring": 2867,
      "Ġflow": 2868,
      "Ġcompleted": 2869,
      "ww": 2870,
      "Ġinn": 2871,
      "Ġvo": 2872,
      "ĠCalifornia": 2873,
      "urricane": 2874,
      "ĠIr": 2875,
      "Ġcomplete": 2876,
      "den": 2877,
      "Ġfish": 2878,
      "What": 2879,
      "ĠWashington": 2880,
      "Ġpurp": 2881,
      "Ġaward": 2882,
      "Ġdraw": 2883,
      "Ġmm": 2884,
      "ĠMet": 2885,
      "Ġjob": 2886,
      "ĠFirst": 2887,
      "Ġdeg": 2888,
      "ises": 2889,
      "ground": 2890,
      "Ġelements": 2891,
      "mon": 2892,
      "ibr": 2893,
      "ĠGreat": 2894,
      "onse": 2895,
      "osing": 2896,
      "aled": 2897,
      "Ġcivil": 2898,
      "ption": 2899,
      "Ġbeginning": 2900,
      "Ġmedical": 2901,
      "atives": 2902,
      "oul": 2903,
      "chan": 2904,
      "Ġpractice": 2905,
      "ĠFrom": 2906,
      "Ġways": 2907,
      "wh": 2908,
      "ables": 2909,
      "Ġdrug": 2910,
      "hood": 2911,
      "Ġ188": 2912,
      "asons": 2913,
      "Ġcommer": 2914,
      "Ġconsum": 2915,
      "Ġactually": 2916,
      "Ġwhose": 2917,
      "ĠRoad": 2918,
      "Ġprincip": 2919,
      "bon": 2920,
      "yr": 2921,
      "hold": 2922,
      "ĠPal": 2923,
      "Ġtropical": 2924,
      "Ġren": 2925,
      "oses": 2926,
      "eum": 2927,
      "Ġincludes": 2928,
      "ĠJew": 2929,
      "Ġtelevision": 2930,
      "oke": 2931,
      "ĠStreet": 2932,
      "imum": 2933,
      "wood": 2934,
      "Ġopportun": 2935,
      "mar": 2936,
      "ament": 2937,
      "Ġeconomic": 2938,
      "aval": 2939,
      "Ġexec": 2940,
      "antic": 2941,
      "Ġrank": 2942,
      "Ġannounced": 2943,
      "Ġadditional": 2944,
      "imin": 2945,
      "Ġdeal": 2946,
      "Ġearlier": 2947,
      "Ġsil": 2948,
      "Ġcompan": 2949,
      "If": 2950,
      "ĠColle": 2951,
      "Ġpaper": 2952,
      "ety": 2953,
      "Ġcred": 2954,
      "ĠChurch": 2955,
      "Ġsequ": 2956,
      "ĠMany": 2957,
      "rate": 2958,
      "Ġshown": 2959,
      "Ġinsp": 2960,
      "unt": 2961,
      "Ġisland": 2962,
      "iences": 2963,
      "Ġbrain": 2964,
      "ios": 2965,
      "Ġmovement": 2966,
      "Ġsus": 2967,
      "atively": 2968,
      "Ġnar": 2969,
      "ĠIndia": 2970,
      "Ġcomment": 2971,
      "Ġvalue": 2972,
      "Ġhous": 2973,
      "ĠCour": 2974,
      "Ġbelieved": 2975,
      "amin": 2976,
      "Ġschools": 2977,
      "Ġ2004": 2978,
      "Ġquickly": 2979,
      "cies": 2980,
      "ĠBill": 2981,
      "Ġsea": 2982,
      "odes": 2983,
      "Ġproduce": 2984,
      "Ġlarger": 2985,
      "Ġanimals": 2986,
      "ĠPort": 2987,
      "aily": 2988,
      "ĠNor": 2989,
      "Ġchurch": 2990,
      "Ġplaying": 2991,
      "ĠRed": 2992,
      "Ġbrother": 2993,
      "Ġ2000": 2994,
      "Ġarticle": 2995,
      "Ġreb": 2996,
      "ĠCont": 2997,
      "Ġoffice": 2998,
      "Ġcannot": 2999,
      "Ġ2015": 3000,
      "lex": 3001,
      "Ġparty": 3002,
      "ĠDivision": 3003,
      "11": 3004,
      "rison": 3005,
      "rast": 3006,
      "Ġslow": 3007,
      "inese": 3008,
      "ĠHenry": 3009,
      "rial": 3010,
      "board": 3011,
      "olic": 3012,
      "Ġcontract": 3013,
      "ĠChina": 3014,
      "Ġcomplet": 3015,
      "ym": 3016,
      "Ġparents": 3017,
      "anish": 3018,
      "Ġoriginally": 3019,
      "ulf": 3020,
      "Ġopened": 3021,
      "ĠMost": 3022,
      "We": 3023,
      "Ġroute": 3024,
      "Ġindustry": 3025,
      "ĠAustralian": 3026,
      "uth": 3027,
      "Ġvisit": 3028,
      "Ġprobably": 3029,
      "like": 3030,
      "Ġaffect": 3031,
      "30": 3032,
      "ceed": 3033,
      "Ġdistrib": 3034,
      "iter": 3035,
      "back": 3036,
      "de": 3037,
      "Ġweight": 3038,
      "ĠAssoci": 3039,
      "Ġsection": 3040,
      "ests": 3041,
      "asion": 3042,
      "Ġsubsequ": 3043,
      "Ġtold": 3044,
      "ĠRoyal": 3045,
      "Ġstandard": 3046,
      "Ġbur": 3047,
      "ampionship": 3048,
      "Ġlink": 3049,
      "Ġinvestig": 3050,
      "Ġmach": 3051,
      "Ġrain": 3052,
      "Ġcenter": 3053,
      "ply": 3054,
      "ords": 3055,
      "Ġwanted": 3056,
      "Ġpath": 3057,
      "itation": 3058,
      "Ġcat": 3059,
      "ĠMad": 3060,
      "Ġface": 3061,
      "ĠâĢĻ": 3062,
      "Ġlimited": 3063,
      "Ġsymptoms": 3064,
      "Ġdecision": 3065,
      "ully": 3066,
      "ĠArt": 3067,
      "ivity": 3068,
      "Ġrace": 3069,
      "Ġcrew": 3070,
      "ĠVal": 3071,
      "Ġhighest": 3072,
      "Ġcou": 3073,
      "Ġlines": 3074,
      "Ġsouthern": 3075,
      "Ġtarget": 3076,
      "ror": 3077,
      "ension": 3078,
      "Ġappoint": 3079,
      "Ġfif": 3080,
      "erve": 3081,
      "Ġstudent": 3082,
      "Ġdog": 3083,
      "Ġresponse": 3084,
      "aught": 3085,
      "Ġcollect": 3086,
      "Ġpeak": 3087,
      "Ġgreen": 3088,
      "leep": 3089,
      "Ġcontact": 3090,
      "Ġapproach": 3091,
      "Ġprior": 3092,
      "Ġsense": 3093,
      "Ġsubst": 3094,
      "Ġcompared": 3095,
      "Ġ187": 3096,
      "itude": 3097,
      "Ġwife": 3098,
      "aches": 3099,
      "Ġthus": 3100,
      "ĠChinese": 3101,
      "Ġwide": 3102,
      "Ġturned": 3103,
      "airs": 3104,
      "ault": 3105,
      "itar": 3106,
      "isl": 3107,
      "ville": 3108,
      "Ġresearc": 3109,
      "Ġmeaning": 3110,
      "Ġasked": 3111,
      "ĠGovern": 3112,
      "ha": 3113,
      "bert": 3114,
      "ĠDay": 3115,
      "Ġclimate": 3116,
      "ports": 3117,
      "ĠRec": 3118,
      "Ġpassed": 3119,
      "Ġlo": 3120,
      "Ġproducts": 3121,
      "earch": 3122,
      "use": 3123,
      "Ġnetwork": 3124,
      "Ġ31": 3125,
      "Ġremain": 3126,
      "Ġcondition": 3127,
      "Ġprote": 3128,
      "aint": 3129,
      "eration": 3130,
      "Ġrecent": 3131,
      "Ġsoft": 3132,
      "iles": 3133,
      "aters": 3134,
      "oud": 3135,
      "Ġresources": 3136,
      "uments": 3137,
      "Ġprec": 3138,
      "inct": 3139,
      "Ġavoid": 3140,
      "Ġbeg": 3141,
      "ography": 3142,
      "Ġpresident": 3143,
      "Ġcommercial": 3144,
      "isions": 3145,
      "Ġnumbers": 3146,
      "ago": 3147,
      "ĠDo": 3148,
      "Ġcomes": 3149,
      "Ġexcept": 3150,
      "Ġarmy": 3151,
      "Ġdiet": 3152,
      "Ġnorthern": 3153,
      "ander": 3154,
      "Ġ60": 3155,
      "Ġtalk": 3156,
      "ils": 3157,
      "Ġsummer": 3158,
      "Ġder": 3159,
      "Ġjud": 3160,
      "ulations": 3161,
      "Ġseem": 3162,
      "acter": 3163,
      "inn": 3164,
      "ĠMex": 3165,
      "Ġut": 3166,
      "Ġreduce": 3167,
      "Ġstay": 3168,
      "ĠRobert": 3169,
      "oles": 3170,
      "ĠWil": 3171,
      "uff": 3172,
      "ĠMichael": 3173,
      "Ġsure": 3174,
      "Ġinfluence": 3175,
      "Ġattention": 3176,
      "ĠQue": 3177,
      "ĠMal": 3178,
      "Ġbirth": 3179,
      "ĠCenter": 3180,
      "Ġcru": 3181,
      "amer": 3182,
      "ky": 3183,
      "light": 3184,
      "Ġvariety": 3185,
      "Ġnearly": 3186,
      "Ġserious": 3187,
      "ĠPaul": 3188,
      "ties": 3189,
      "Ġsurround": 3190,
      "ĠMount": 3191,
      "Ġforest": 3192,
      "ĠMary": 3193,
      "15": 3194,
      "fect": 3195,
      "ula": 3196,
      "Ġdark": 3197,
      "Ġapprox": 3198,
      "Ġspeed": 3199,
      "ĠJe": 3200,
      "Ġtroops": 3201,
      "Ġelectric": 3202,
      "Ġremains": 3203,
      "Ġcontinue": 3204,
      "Ġculture": 3205,
      "Ġconnect": 3206,
      "west": 3207,
      "Ġfriends": 3208,
      "Ġestablish": 3209,
      "Ġdro": 3210,
      "Ġtakes": 3211,
      "gar": 3212,
      "ĠVirgin": 3213,
      "Ġrap": 3214,
      "Ġmatter": 3215,
      "ĠWhite": 3216,
      "Ġfemale": 3217,
      "AS": 3218,
      "Ġgas": 3219,
      "rian": 3220,
      "Ġgold": 3221,
      "ĠLeague": 3222,
      "Ġsaying": 3223,
      "Ġtrue": 3224,
      "Ġprovides": 3225,
      "Ġprimary": 3226,
      "ĠLa": 3227,
      "Ġforms": 3228,
      "Ġscreen": 3229,
      "ĠDon": 3230,
      "itect": 3231,
      "Ġgreater": 3232,
      "Ġeffective": 3233,
      "Ġprivate": 3234,
      "16": 3235,
      "Ġoccup": 3236,
      "aker": 3237,
      "stitute": 3238,
      "ĠTwo": 3239,
      "Ġnecessary": 3240,
      "Ġ2003": 3241,
      "Ġsociety": 3242,
      "Ġspir": 3243,
      "alled": 3244,
      "astic": 3245,
      "As": 3246,
      "icient": 3247,
      "Ġnovel": 3248,
      "oly": 3249,
      "Ġtransport": 3250,
      "anned": 3251,
      "Ġindividuals": 3252,
      "fall": 3253,
      "rief": 3254,
      "Ġinteract": 3255,
      "Ġple": 3256,
      "Ġ500": 3257,
      "ancial": 3258,
      "Ġdate": 3259,
      "uries": 3260,
      "Ġtend": 3261,
      "Ġflu": 3262,
      "Ġpatients": 3263,
      "fl": 3264,
      "ĠIsland": 3265,
      "ĠMac": 3266,
      "Ġsimple": 3267,
      "Ġuses": 3268,
      "Ġcapital": 3269,
      "joy": 3270,
      "Ġriver": 3271,
      "Ġtransfer": 3272,
      "Ġforced": 3273,
      "There": 3274,
      "ips": 3275,
      "cean": 3276,
      "Ġpattern": 3277,
      "ronic": 3278,
      "ĠÃ": 3279,
      "Ġacqu": 3280,
      "Ġveh": 3281,
      "Ġshare": 3282,
      "ĠAngel": 3283,
      "Ġwild": 3284,
      "ĠStar": 3285,
      "ounds": 3286,
      "Ġglobal": 3287,
      "ĠCong": 3288,
      "ĠBel": 3289,
      "atin": 3290,
      "idents": 3291,
      "Ġbad": 3292,
      "Ġvoc": 3293,
      "ĠThomas": 3294,
      "ĠAtl": 3295,
      "ĠLou": 3296,
      "Ġpen": 3297,
      "aging": 3298,
      "Ġprep": 3299,
      "ĠGermany": 3300,
      "Ġunits": 3301,
      "enced": 3302,
      "utive": 3303,
      "rie": 3304,
      "Ġspread": 3305,
      "arter": 3306,
      "que": 3307,
      "Ġden": 3308,
      "Ġscene": 3309,
      "Ġmicro": 3310,
      "osis": 3311,
      "ĠDepartment": 3312,
      "Ġfourth": 3313,
      "aughter": 3314,
      "rol": 3315,
      "Ġcontent": 3316,
      "Ġcolon": 3317,
      "undred": 3318,
      "Ġjoined": 3319,
      "Ġcit": 3320,
      "Ġscen": 3321,
      "Ġpreviously": 3322,
      "azine": 3323,
      "Ġult": 3324,
      "ĠHealth": 3325,
      "Ġactive": 3326,
      "Ġ!": 3327,
      "Ġreplaced": 3328,
      "ĠSl": 3329,
      "ĠUnion": 3330,
      "Ġbooks": 3331,
      "Ġspent": 3332,
      "ĠSmith": 3333,
      "uge": 3334,
      "Ġcust": 3335,
      "ĠSqu": 3336,
      "How": 3337,
      "ĠMart": 3338,
      "Ġansw": 3339,
      "Ġrail": 3340,
      "Ġgirl": 3341,
      "Ġtraditional": 3342,
      "Ġexerc": 3343,
      "17": 3344,
      "Ġmanagement": 3345,
      "Ġintroduced": 3346,
      "Ġdemonst": 3347,
      "Ġlog": 3348,
      "irm": 3349,
      "Ġaltern": 3350,
      "vention": 3351,
      "Ġmeasure": 3352,
      "Ġsources": 3353,
      "ĠBra": 3354,
      "ulated": 3355,
      "Ġdead": 3356,
      "Ġcolor": 3357,
      "Ġmechan": 3358,
      "Ġdom": 3359,
      "ider": 3360,
      "ĠDespite": 3361,
      "Ġearth": 3362,
      "Ġopening": 3363,
      "Ġcritical": 3364,
      "ĠRepublic": 3365,
      "Ġquestions": 3366,
      "Ġsal": 3367,
      "ĠCoun": 3368,
      "Ġconstruct": 3369,
      "rect": 3370,
      "Ġskin": 3371,
      "Ġnuc": 3372,
      "Ġcomputer": 3373,
      "ĠAfrica": 3374,
      "tee": 3375,
      "ĠRichard": 3376,
      "Ġemot": 3377,
      "Ġskills": 3378,
      "Ġwhom": 3379,
      "Ġmom": 3380,
      "Ġflood": 3381,
      "can": 3382,
      "Ġcontain": 3383,
      "Ġanti": 3384,
      "Ġreligious": 3385,
      "ĠMore": 3386,
      "Ġfr": 3387,
      "ĠUK": 3388,
      "Ġlif": 3389,
      "Ġreach": 3390,
      "Ġguns": 3391,
      "elled": 3392,
      "Ġtrib": 3393,
      "mitted": 3394,
      "Ġgot": 3395,
      "Ġoverall": 3396,
      "rab": 3397,
      "ĠFollow": 3398,
      "Ġcontains": 3399,
      "Ġnut": 3400,
      "ims": 3401,
      "Ġcarry": 3402,
      "Ġdocument": 3403,
      "ĠCompany": 3404,
      "Ġpoll": 3405,
      "Ġsimply": 3406,
      "ĠHall": 3407,
      "Ġruns": 3408,
      "Ġcarried": 3409,
      "ĠWestern": 3410,
      "Ġir": 3411,
      "Ġmess": 3412,
      "Ġ2001": 3413,
      "Ġdirectly": 3414,
      "itz": 3415,
      "Ġlives": 3416,
      "Ġroom": 3417,
      "Ġimage": 3418,
      "ĠAfrican": 3419,
      "ĠOver": 3420,
      "Ġestimated": 3421,
      "ĠCollege": 3422,
      "leg": 3423,
      "Ġterrit": 3424,
      "ij": 3425,
      "ying": 3426,
      "Ġhighly": 3427,
      "ĠBer": 3428,
      "200": 3429,
      "Ġprint": 3430,
      "oo": 3431,
      "Ġdirector": 3432,
      "eal": 3433,
      "Ġâ": 3434,
      "Ġenjoy": 3435,
      "Ġfat": 3436,
      "Ġpurch": 3437,
      "Ġadop": 3438,
      "ospital": 3439,
      "Ġwebs": 3440,
      "Ġcele": 3441,
      "Ġstaff": 3442,
      "Ġanalysis": 3443,
      "Ġbecoming": 3444,
      "ĠCharles": 3445,
      "Ġimprove": 3446,
      "Ġradio": 3447,
      "Ġcycl": 3448,
      "Ġessential": 3449,
      "ĠServ": 3450,
      "ricult": 3451,
      "Ġtheory": 3452,
      "ĠPlay": 3453,
      "Ġnation": 3454,
      "Ġbelieve": 3455,
      "Ġwoman": 3456,
      "Ġpict": 3457,
      "ida": 3458,
      "Ġunivers": 3459,
      "ĠSam": 3460,
      "BC": 3461,
      "II": 3462,
      "ously": 3463,
      "Ġhot": 3464,
      "ufact": 3465,
      "lied": 3466,
      "change": 3467,
      "nes": 3468,
      "Ġblock": 3469,
      "ĠBattle": 3470,
      "ĠCourt": 3471,
      "Ġdespite": 3472,
      "Ġnormal": 3473,
      "ĠCons": 3474,
      "Ġfinished": 3475,
      "ĠInter": 3476,
      "ĠAssociation": 3477,
      "Ġsett": 3478,
      "Ġthing": 3479,
      "porary": 3480,
      "enth": 3481,
      "Ġdoing": 3482,
      "Ġresearchers": 3483,
      "ĠHol": 3484,
      "Ġcompanies": 3485,
      "Ġfit": 3486,
      "Ġrunning": 3487,
      "Ġpsych": 3488,
      "iant": 3489,
      "Ġ35": 3490,
      "Ġ2002": 3491,
      "hy": 3492,
      "put": 3493,
      "Ġsust": 3494,
      "ste": 3495,
      "Ġchanged": 3496,
      "Ġinside": 3497,
      "Ġtrade": 3498,
      "Ġmaterials": 3499,
      "ken": 3500,
      "Ġcritics": 3501,
      "ancy": 3502,
      "Ġresist": 3503,
      "Ġhop": 3504,
      "Ġenem": 3505,
      "ams": 3506,
      "Ġfast": 3507,
      "orial": 3508,
      "Ġonline": 3509,
      "Ġshot": 3510,
      "Ġproposed": 3511,
      "Ġsmaller": 3512,
      "Ġfinancial": 3513,
      "Ġsch": 3514,
      "ĠEv": 3515,
      "ĠSince": 3516,
      "ĠNot": 3517,
      "Ġang": 3518,
      "Ġadapt": 3519,
      "An": 3520,
      "Ġtemperature": 3521,
      "Ġfort": 3522,
      "rong": 3523,
      "heast": 3524,
      "edy": 3525,
      "Ġhyd": 3526,
      "ĠPat": 3527,
      "Ġharm": 3528,
      "Ġinteg": 3529,
      "Ġunc": 3530,
      "ros": 3531,
      "Ġappearance": 3532,
      "ĠBritain": 3533,
      "Ġvia": 3534,
      "Ġminor": 3535,
      "Ġlocation": 3536,
      "uit": 3537,
      "Ġextra": 3538,
      "Ġdiscovered": 3539,
      "Ġadminist": 3540,
      "Ġmi": 3541,
      "Ġast": 3542,
      "ĠBo": 3543,
      "Ġconcent": 3544,
      "umn": 3545,
      "Ġfeatured": 3546,
      "Ġforward": 3547,
      "ĠJust": 3548,
      "14": 3549,
      "enty": 3550,
      "Ġwalk": 3551,
      "Ġfru": 3552,
      "Ġleave": 3553,
      "Ġinitially": 3554,
      "Ġthous": 3555,
      "reme": 3556,
      "Ġgrowing": 3557,
      "uing": 3558,
      "Ġfailed": 3559,
      "ession": 3560,
      "lled": 3561,
      "omer": 3562,
      "Ġoperations": 3563,
      "Ġheav": 3564,
      "ĠFollowing": 3565,
      "ĠBay": 3566,
      "ĠSen": 3567,
      "ervation": 3568,
      "Ġapproximately": 3569,
      "Ġaddress": 3570,
      "ER": 3571,
      "illed": 3572,
      "Ġmedic": 3573,
      "Ġox": 3574,
      "Ġunderstanding": 3575,
      "Ġhundred": 3576,
      "acc": 3577,
      "Ġ80": 3578,
      "Ġpolicy": 3579,
      "Ġ1990": 3580,
      "istics": 3581,
      "For": 3582,
      "Ġended": 3583,
      "Ġhelped": 3584,
      "Ġprograms": 3585,
      "Ġwestern": 3586,
      "Ġhar": 3587,
      "Ġrecover": 3588,
      "ĠSing": 3589,
      "Ġassess": 3590,
      "Ġfactors": 3591,
      "Ġfavor": 3592,
      "//": 3593,
      "Ġi": 3594,
      "Ġmention": 3595,
      "Ġprofessional": 3596,
      "Ġstatus": 3597,
      "Ġsem": 3598,
      "sec": 3599,
      "Ġmagn": 3600,
      "Ġbehavior": 3601,
      "iring": 3602,
      "ĠBest": 3603,
      "Ġmajority": 3604,
      "ocr": 3605,
      "Ġwrite": 3606,
      "Ġmax": 3607,
      "ria": 3608,
      "13": 3609,
      "Ġchemical": 3610,
      "iable": 3611,
      "ĠApp": 3612,
      "Ġefforts": 3613,
      "Ġboard": 3614,
      "Ġexpected": 3615,
      "ees": 3616,
      "Ġinterview": 3617,
      "ĠCouncil": 3618,
      "ĠKingdom": 3619,
      "Ġinstit": 3620,
      "Ġvictory": 3621,
      "odies": 3622,
      "ĠGo": 3623,
      "Ġboy": 3624,
      "://": 3625,
      "Ġchalleng": 3626,
      "Ġmultiple": 3627,
      "Ġinstr": 3628,
      "Ġconflic": 3629,
      "Ġtherefore": 3630,
      "Ġheat": 3631,
      "adron": 3632,
      "Ġobt": 3633,
      "Ġrapid": 3634,
      "Ġinterp": 3635,
      "Ġintended": 3636,
      "Ġdang": 3637,
      "ĠMark": 3638,
      "Ġrare": 3639,
      "ĠChe": 3640,
      "Ġbuildings": 3641,
      "40": 3642,
      "Ġdefin": 3643,
      "urt": 3644,
      "haps": 3645,
      "Ġreading": 3646,
      "ropri": 3647,
      "ĠGame": 3648,
      "Ġexpand": 3649,
      "vert": 3650,
      "ranch": 3651,
      "Ġordered": 3652,
      "Ġarchitect": 3653,
      "Ġneigh": 3654,
      "ĠGreen": 3655,
      "Ġimmediately": 3656,
      "Ġlegal": 3657,
      "ech": 3658,
      "ĠLaw": 3659,
      "Ġbrief": 3660,
      "Ġideas": 3661,
      "ĠOld": 3662,
      "Ġscored": 3663,
      "Ġconstit": 3664,
      "60": 3665,
      "ĠGold": 3666,
      "âĢ¦": 3667,
      "Ġund": 3668,
      "Ġplans": 3669,
      "Ġsafety": 3670,
      "Ġdiss": 3671,
      "Ġmanufact": 3672,
      "Ġmoving": 3673,
      "Ġprem": 3674,
      "Ġsuggested": 3675,
      "Ġprogress": 3676,
      "Ġbecomes": 3677,
      "ĠPeter": 3678,
      "ĠArch": 3679,
      "Ġmiddle": 3680,
      "Ġtrees": 3681,
      "Ġsigned": 3682,
      "bit": 3683,
      "nding": 3684,
      "ĠVirginia": 3685,
      "ĠResearch": 3686,
      "Ġaspect": 3687,
      "ki": 3688,
      "Ġproperty": 3689,
      "Ġeye": 3690,
      "AT": 3691,
      "ĠDan": 3692,
      "Ġlatter": 3693,
      "ibly": 3694,
      "Ġmostly": 3695,
      "Ġlooking": 3696,
      "berg": 3697,
      "Ġappears": 3698,
      "Ġnine": 3699,
      "Ġdeveloping": 3700,
      "Ġcauses": 3701,
      "Ġattract": 3702,
      "ĠMil": 3703,
      "unk": 3704,
      "Ġuns": 3705,
      "Ġresponsible": 3706,
      "ĠRock": 3707,
      "Ġsituation": 3708,
      "Ġdemand": 3709,
      "gypt": 3710,
      "Ġpark": 3711,
      "mission": 3712,
      "Ġenvironmental": 3713,
      "vement": 3714,
      "ĠPac": 3715,
      "ĠAlex": 3716,
      "Ġstra": 3717,
      "ĠMcC": 3718,
      "ĠSpanish": 3719,
      "ĠSpe": 3720,
      "ĠMill": 3721,
      "Ġdirected": 3722,
      "Ġlived": 3723,
      "ĠUp": 3724,
      "Ġ=": 3725,
      "ears": 3726,
      "ĠVict": 3727,
      "ĠSun": 3728,
      "ES": 3729,
      "Ġsupported": 3730,
      "Ġprison": 3731,
      "aling": 3732,
      "irection": 3733,
      "Ġincor": 3734,
      "ĠNY": 3735,
      "Ġ70": 3736,
      "Ġpil": 3737,
      "Ġur": 3738,
      "Ġsleep": 3739,
      "Ġdram": 3740,
      "Ġbit": 3741,
      "ĠLord": 3742,
      "Ġhighway": 3743,
      "ania": 3744,
      "ston": 3745,
      "ĠUnder": 3746,
      "istry": 3747,
      "inary": 3748,
      "Ġsymb": 3749,
      "ĠMr": 3750,
      "Ġpage": 3751,
      "liam": 3752,
      "Ġbridge": 3753,
      "____": 3754,
      "ID": 3755,
      "Ġ45": 3756,
      "Ġbal": 3757,
      "Ġsearch": 3758,
      "Ġtree": 3759,
      "ĠIts": 3760,
      "Ġmission": 3761,
      "Ġmph": 3762,
      "house": 3763,
      "Ġleaving": 3764,
      "wide": 3765,
      "Ġeastern": 3766,
      "ĠNavy": 3767,
      "Ġarrived": 3768,
      "Ġrespond": 3769,
      "Ġhands": 3770,
      "Ġhabit": 3771,
      "ĠTrans": 3772,
      "ĠHam": 3773,
      "iated": 3774,
      "Ġgiving": 3775,
      "ĠMont": 3776,
      "ĠInstitute": 3777,
      "):": 3778,
      "Ġleaves": 3779,
      "Ġsecurity": 3780,
      "Ġgrant": 3781,
      "Ġhealthy": 3782,
      "ĠBrown": 3783,
      "Ġkil": 3784,
      "Ġscientific": 3785,
      "Ġmeeting": 3786,
      "Ġfamilies": 3787,
      "ĠÂ°": 3788,
      "Ġanimal": 3789,
      "arden": 3790,
      "Ġdepression": 3791,
      "Ġeat": 3792,
      "Ġinitial": 3793,
      "Ġdiagn": 3794,
      "Ġsn": 3795,
      "hens": 3796,
      "ares": 3797,
      "Ġpolice": 3798,
      "Ġreduced": 3799,
      "Ġclean": 3800,
      "duc": 3801,
      "Ġgetting": 3802,
      "Ġcompletely": 3803,
      "nown": 3804,
      "Ġquite": 3805,
      "Ġwinds": 3806,
      "ĠTur": 3807,
      "ested": 3808,
      "Ġclaimed": 3809,
      "Ġslight": 3810,
      "ari": 3811,
      "Ġdaily": 3812,
      "rael": 3813,
      "ĠEgypt": 3814,
      "ĠMusic": 3815,
      "Ġconclud": 3816,
      "Ġdestroyed": 3817,
      "Ġcitiz": 3818,
      "Ġnumerous": 3819,
      "icated": 3820,
      "Ġremaining": 3821,
      "ĠTer": 3822,
      "Ġrepe": 3823,
      "Ġimplement": 3824,
      "Ġolder": 3825,
      "liament": 3826,
      "Ġhurricane": 3827,
      "Ġ1980": 3828,
      "Ġelse": 3829,
      "Ġscientists": 3830,
      "Ġburn": 3831,
      "Ġmethods": 3832,
      "Ġstress": 3833,
      "Ġunit": 3834,
      "ĠMiss": 3835,
      "lymp": 3836,
      "rupt": 3837,
      "ĠJes": 3838,
      "ellig": 3839,
      "Ġsupply": 3840,
      "Ġseparate": 3841,
      "roup": 3842,
      "ĠDu": 3843,
      "Ġcapac": 3844,
      "Ġfederal": 3845,
      "ingu": 3846,
      "Ġsoil": 3847,
      "ĠBur": 3848,
      "Ġupper": 3849,
      "Ġbow": 3850,
      "ĠChic": 3851,
      "Ġqual": 3852,
      "ĠSal": 3853,
      "antry": 3854,
      "Ġlaws": 3855,
      "Ġbasic": 3856,
      "Ġancient": 3857,
      "Ġdry": 3858,
      "room": 3859,
      "fully": 3860,
      "Ġnames": 3861,
      "Ġpack": 3862,
      "Ġdomin": 3863,
      "ĠOlymp": 3864,
      "Ġlegisl": 3865,
      "Ġtow": 3866,
      "Ġstars": 3867,
      "ensity": 3868,
      "Ġeasy": 3869,
      "fort": 3870,
      "ĠÂ£": 3871,
      "iest": 3872,
      "Ġcheck": 3873,
      "udd": 3874,
      "When": 3875,
      "ĠIre": 3876,
      "Ġdisplay": 3877,
      "well": 3878,
      "Ġscore": 3879,
      "lor": 3880,
      "Ġeth": 3881,
      "ĠBec": 3882,
      "AR": 3883,
      "Ġmale": 3884,
      "Ġstrength": 3885,
      "Ġshowed": 3886,
      "olar": 3887,
      "ĠTom": 3888,
      "\".": 3889,
      "ĠLake": 3890,
      "Ġhom": 3891,
      "aby": 3892,
      "Ġnegative": 3893,
      "ĠLouis": 3894,
      "astern": 3895,
      "Ġcompon": 3896,
      "Ġ185": 3897,
      "Ġdecre": 3898,
      "Ġ2016": 3899,
      "Ġvoice": 3900,
      "Ġgoals": 3901,
      "iot": 3902,
      "Ġcollection": 3903,
      "Ġadj": 3904,
      "Ġbirds": 3905,
      "ĠScott": 3906,
      "ĠAmericans": 3907,
      "ĠTex": 3908,
      "Ġstories": 3909,
      "Ġremoved": 3910,
      "ĠTimes": 3911,
      "Ġworkers": 3912,
      "ĠPacific": 3913,
      "Ġhumans": 3914,
      "Ġwinter": 3915,
      "25": 3916,
      "Ġweap": 3917,
      "Ġattend": 3918,
      "Ġlabor": 3919,
      "ĠCanadian": 3920,
      "ĠUs": 3921,
      "Ġbank": 3922,
      "ait": 3923,
      "Ġrat": 3924,
      "lection": 3925,
      "ĠScience": 3926,
      "Ġrule": 3927,
      "Ġbul": 3928,
      "Ġago": 3929,
      "ĠBen": 3930,
      "Ġwriter": 3931,
      "Ġcounter": 3932,
      "Ġweather": 3933,
      "Ġmis": 3934,
      "Ġscale": 3935,
      "Ġallows": 3936,
      "ĠCast": 3937,
      "ĠBoth": 3938,
      "riage": 3939,
      "Ġfinally": 3940,
      "Ġpiece": 3941,
      "Ġaware": 3942,
      "abet": 3943,
      "aped": 3944,
      "nel": 3945,
      "olk": 3946,
      "ĠHill": 3947,
      "Ġreferred": 3948,
      "igan": 3949,
      "Ġarrang": 3950,
      "Ġtypically": 3951,
      "rack": 3952,
      "Ġraised": 3953,
      "Ġentered": 3954,
      "Ġunique": 3955,
      "Ġeasily": 3956,
      "Ġbasis": 3957,
      "Ġgrand": 3958,
      "oration": 3959,
      "Ġpromot": 3960,
      "ĠRob": 3961,
      "Ġensure": 3962,
      "Ġphil": 3963,
      "ÃŃ": 3964,
      "force": 3965,
      "imb": 3966,
      "Ġcand": 3967,
      "Ġspirit": 3968,
      "Ġpraised": 3969,
      "Ġice": 3970,
      "Ġpan": 3971,
      "ipment": 3972,
      "gn": 3973,
      "ĠHum": 3974,
      "ĠPre": 3975,
      "Ġcommission": 3976,
      "ĠIsrael": 3977,
      "Ġhour": 3978,
      "Ġrecords": 3979,
      "Ġ1970": 3980,
      "ĠFlor": 3981,
      "Ġfigure": 3982,
      "Ġdaughter": 3983,
      "band": 3984,
      "Ġdirection": 3985,
      "ĠTheir": 3986,
      "ship": 3987,
      "ĠFrank": 3988,
      "icip": 3989,
      "Ġpowerful": 3990,
      "ĠSociety": 3991,
      "Ch": 3992,
      "zz": 3993,
      "Ġsomeone": 3994,
      "Ġ1999": 3995,
      "inks": 3996,
      "Ġactions": 3997,
      "Ġsexual": 3998,
      "Ġrelatively": 3999,
      "Ġidentify": 4000,
      "Ġpresence": 4001,
      "Ġtouch": 4002,
      "enge": 4003,
      "Ġmusical": 4004,
      "ĠBecause": 4005,
      "Ġpresented": 4006,
      "ĠSecond": 4007,
      "Ġstrugg": 4008,
      "Ġthr": 4009,
      "ĠMag": 4010,
      "rim": 4011,
      "ĠAp": 4012,
      "Ġdivision": 4013,
      "ĠDem": 4014,
      "Ġwatch": 4015,
      "aded": 4016,
      "ĠTy": 4017,
      "resh": 4018,
      "ĠCongress": 4019,
      "ĠRev": 4020,
      "ĠMars": 4021,
      "Ġec": 4022,
      "Ġ1960": 4023,
      "ĠNet": 4024,
      "Ġoffered": 4025,
      "ĠFin": 4026,
      "Ġannual": 4027,
      "Ġreviews": 4028,
      "Ġagreed": 4029,
      "ado": 4030,
      "down": 4031,
      "Ġencoura": 4032,
      "Ġbey": 4033,
      "Ġalone": 4034,
      "Ġseems": 4035,
      "Ġleader": 4036,
      "Ġbomb": 4037,
      "Ġmeant": 4038,
      "Ġaffected": 4039,
      "ulate": 4040,
      "ĠDis": 4041,
      "Ġletter": 4042,
      "Ġbeyond": 4043,
      "Ġpeace": 4044,
      "Ġorganization": 4045,
      "erg": 4046,
      "Ġlargely": 4047,
      "Ġstudio": 4048,
      "Ġtransl": 4049,
      "Ġcoming": 4050,
      "Ġoperation": 4051,
      "ĠGrand": 4052,
      "izes": 4053,
      "Ġcorn": 4054,
      "ĠForce": 4055,
      "Ġ90": 4056,
      "Ġwebsite": 4057,
      "Ġbox": 4058,
      "Ġoccurred": 4059,
      "Ġpurpose": 4060,
      "Al": 4061,
      "Ġfell": 4062,
      "ocks": 4063,
      "Ġcarbon": 4064,
      "och": 4065,
      "Ã¼": 4066,
      "uated": 4067,
      "bre": 4068,
      "ĠIreland": 4069,
      "isation": 4070,
      "Ġgar": 4071,
      "Ġhtt": 4072,
      "ĠSea": 4073,
      "Ġtrying": 4074,
      "ĠAdd": 4075,
      "urban": 4076,
      "Ġexperien": 4077,
      "Ġsevere": 4078,
      "Ġblue": 4079,
      "ĠCommun": 4080,
      "where": 4081,
      "Ġtherap": 4082,
      "AA": 4083,
      "Ġnothing": 4084,
      "--": 4085,
      "Ġbound": 4086,
      "ĠMass": 4087,
      "ero": 4088,
      "ĠAnother": 4089,
      "Ġcold": 4090,
      "Ġvillage": 4091,
      "ĠOff": 4092,
      "Ġcreating": 4093,
      "Ġobserved": 4094,
      "Ġsoldiers": 4095,
      "Ġfootball": 4096,
      "ĠJackson": 4097,
      "Ġtoward": 4098,
      "owers": 4099,
      "Ġfa": 4100,
      "Ġattacks": 4101,
      "22": 4102,
      "Ġpick": 4103,
      "iance": 4104,
      "cher": 4105,
      "load": 4106,
      "Ġcovered": 4107,
      "Ġeyes": 4108,
      "Ġsail": 4109,
      "Ġbeaut": 4110,
      "Ġdistance": 4111,
      "Ġ300": 4112,
      "Ġmarried": 4113,
      "ĠChicago": 4114,
      "ĠCarol": 4115,
      "erate": 4116,
      "Ġcollege": 4117,
      "ibrary": 4118,
      "tered": 4119,
      "ĠSur": 4120,
      "Ġplaces": 4121,
      "Ġprotection": 4122,
      "rics": 4123,
      "atur": 4124,
      "Ġetc": 4125,
      "ception": 4126,
      "Ġfuel": 4127,
      "ĠEmp": 4128,
      "Ġsolar": 4129,
      "ĠChild": 4130,
      "Ġjournal": 4131,
      "Ġplanet": 4132,
      "mir": 4133,
      "Ġforeign": 4134,
      ".)": 4135,
      "ĠFranc": 4136,
      "Ġsecret": 4137,
      "Ġexhib": 4138,
      "ĠInf": 4139,
      "Ġcollabor": 4140,
      "Ġcommunities": 4141,
      "teen": 4142,
      "Ġsubs": 4143,
      "Ġfully": 4144,
      "Ġbenefits": 4145,
      "eed": 4146,
      "Ġextended": 4147,
      "Ġimag": 4148,
      "Ġissued": 4149,
      "ĠVictor": 4150,
      "icted": 4151,
      "Ġimpl": 4152,
      "ĠFore": 4153,
      "isms": 4154,
      "iate": 4155,
      "Ġbacter": 4156,
      "Ġcontem": 4157,
      "rey": 4158,
      "ny": 4159,
      "Ġ1998": 4160,
      "Ġegg": 4161,
      "Ġseek": 4162,
      "inter": 4163,
      "Ġvisual": 4164,
      "ĠKh": 4165,
      "Ġdegree": 4166,
      "ĠOut": 4167,
      "Ġgives": 4168,
      "Ġreceive": 4169,
      "inking": 4170,
      "80": 4171,
      "phas": 4172,
      "ĠBC": 4173,
      "Ġrecording": 4174,
      "ĠBu": 4175,
      "Ġrecently": 4176,
      "Ġidentified": 4177,
      "Ġdra": 4178,
      "rane": 4179,
      "Ġequipment": 4180,
      "Ġdifference": 4181,
      "ĠMexico": 4182,
      "ĠCath": 4183,
      "Ġdetermine": 4184,
      "Ġcontrast": 4185,
      "Ġexact": 4186,
      "Ġappointed": 4187,
      "rd": 4188,
      "Ġcateg": 4189,
      "olf": 4190,
      "ĠWood": 4191,
      "Ġstarting": 4192,
      "Ġload": 4193,
      "known": 4194,
      "Ġcelebr": 4195,
      "Ġmur": 4196,
      "itable": 4197,
      "Ġteams": 4198,
      "Ġmixed": 4199,
      "come": 4200,
      "Ġones": 4201,
      "usion": 4202,
      "road": 4203,
      "Ġdamaged": 4204,
      "Ġfilms": 4205,
      "To": 4206,
      "ĠRussian": 4207,
      "Ġdefeated": 4208,
      "imal": 4209,
      "ĠNort": 4210,
      "ĠLos": 4211,
      "Ġcompl": 4212,
      "Ġ?": 4213,
      "ĠBook": 4214,
      "Ġselected": 4215,
      "Ġcorrect": 4216,
      "Ġconducted": 4217,
      "Ġhelps": 4218,
      "Ġsafe": 4219,
      "Ġmagazine": 4220,
      "Ġelection": 4221,
      "iny": 4222,
      "Ġquarter": 4223,
      "Ġwear": 4224,
      "alion": 4225,
      "Ġadvant": 4226,
      "mosp": 4227,
      "Ġresulting": 4228,
      "Ġhistorical": 4229,
      "ĠDist": 4230,
      "ĠPenn": 4231,
      "Ġscript": 4232,
      "Ġveget": 4233,
      "iques": 4234,
      "Ġtons": 4235,
      "ena": 4236,
      "Ġcard": 4237,
      "ĠTor": 4238,
      "cription": 4239,
      "onic": 4240,
      "estic": 4241,
      "izations": 4242,
      "Ġappropri": 4243,
      "osure": 4244,
      "Ġfair": 4245,
      "Ġaccomp": 4246,
      "MS": 4247,
      "Ġran": 4248,
      "utch": 4249,
      "Ġdoesn": 4250,
      "Ġbillion": 4251,
      "water": 4252,
      "ĠHel": 4253,
      "Ġplat": 4254,
      "Ġshoot": 4255,
      "ĠSk": 4256,
      "ĠFort": 4257,
      "Ġcaptured": 4258,
      "ĠSuper": 4259,
      "Ġmel": 4260,
      "Ġextrem": 4261,
      "ĠAtlantic": 4262,
      "Ġreplace": 4263,
      "Ġacid": 4264,
      "Ġdistinct": 4265,
      "Ġsites": 4266,
      "ipped": 4267,
      "Ġmental": 4268,
      "Ġexpress": 4269,
      "Ġsen": 4270,
      "vin": 4271,
      "orks": 4272,
      "ĠJesus": 4273,
      "Ġproviding": 4274,
      "oviet": 4275,
      "Ġrevealed": 4276,
      "Ġcities": 4277,
      "Ġagricult": 4278,
      "Ġnotes": 4279,
      "Ġ32": 4280,
      "Ġsettle": 4281,
      "ĠCentral": 4282,
      "On": 4283,
      "Ġpet": 4284,
      "uous": 4285,
      "iar": 4286,
      "Ġenter": 4287,
      "Ġshall": 4288,
      "Ġswe": 4289,
      "rad": 4290,
      "Ġflight": 4291,
      "You": 4292,
      "gl": 4293,
      "ux": 4294,
      "uate": 4295,
      "rical": 4296,
      "cles": 4297,
      "Ġphilos": 4298,
      "Ġincorpor": 4299,
      "Ġwithd": 4300,
      "Ġx": 4301,
      "acing": 4302,
      "ĠAward": 4303,
      "ĠPet": 4304,
      "agon": 4305,
      "Ġclosed": 4306,
      "ĠSystem": 4307,
      "Ġawarded": 4308,
      "Ġplanned": 4309,
      "based": 4310,
      "clusion": 4311,
      "Ġcapacity": 4312,
      "aly": 4313,
      "ĠCup": 4314,
      "Ġchief": 4315,
      "ĠYour": 4316,
      "Ġmob": 4317,
      "Ġanything": 4318,
      "Ġly": 4319,
      "ĠAlso": 4320,
      "Ġobjects": 4321,
      "Ġcool": 4322,
      "Ġbatter": 4323,
      "Ġmorning": 4324,
      "omy": 4325,
      "ĠFil": 4326,
      "ishing": 4327,
      "ĠViet": 4328,
      "Ġreflect": 4329,
      "Ġdu": 4330,
      "ĠPri": 4331,
      "ĠChampionship": 4332,
      "ĠParty": 4333,
      "ners": 4334,
      "Ġconvers": 4335,
      "Ġelement": 4336,
      "Ġtable": 4337,
      "za": 4338,
      "Ġ33": 4339,
      "Ġkept": 4340,
      "Ġdouble": 4341,
      "nam": 4342,
      "ĠMod": 4343,
      "ĠHot": 4344,
      "mark": 4345,
      "Ġindependent": 4346,
      "Ġleaders": 4347,
      "ona": 4348,
      "Ġbegins": 4349,
      "sen": 4350,
      "Ġcompar": 4351,
      "lies": 4352,
      "erem": 4353,
      "ĠKore": 4354,
      "lo": 4355,
      "21": 4356,
      "overs": 4357,
      "ĠCro": 4358,
      "Ġcultural": 4359,
      "ĠEduc": 4360,
      "Ġwidely": 4361,
      "Ġserve": 4362,
      "Ġcommonly": 4363,
      "ĠEdward": 4364,
      "Ġspeak": 4365,
      "Ġofficers": 4366,
      "alle": 4367,
      "Ġded": 4368,
      "ĠEven": 4369,
      "ĠGreek": 4370,
      "Ġkids": 4371,
      "ĠZeal": 4372,
      "Ġepisodes": 4373,
      "Ġsurpr": 4374,
      "Ġdoctor": 4375,
      "Ġ1997": 4376,
      "Ġconstant": 4377,
      "Ġadvance": 4378,
      "Ġcontinues": 4379,
      "la": 4380,
      "Ġbott": 4381,
      "ĠSoviet": 4382,
      "ĠScot": 4383,
      "Ġallowing": 4384,
      "Ġmoment": 4385,
      "Ġdefend": 4386,
      "ĠAcadem": 4387,
      "ĠInst": 4388,
      "Ġvess": 4389,
      "ĠJose": 4390,
      "Ġ|": 4391,
      "ih": 4392,
      "Ġimportance": 4393,
      "Ġtor": 4394,
      "igade": 4395,
      "resp": 4396,
      "Ġchoice": 4397,
      "ga": 4398,
      "Ġgod": 4399,
      "ĠHistory": 4400,
      "rative": 4401,
      "Ġsquare": 4402,
      "Ġmachine": 4403,
      "Ġperfect": 4404,
      "Ġsales": 4405,
      "Ġthick": 4406,
      "Ġassum": 4407,
      "ĠArab": 4408,
      "Ġflag": 4409,
      "Ġeconomy": 4410,
      "pro": 4411,
      "Ġvirus": 4412,
      "ĠTexas": 4413,
      "oty": 4414,
      "Ġdoub": 4415,
      "Ġiron": 4416,
      "edom": 4417,
      "Ġdigital": 4418,
      "ĠOl": 4419,
      "Ġtried": 4420,
      "ĠRet": 4421,
      "Ġaccur": 4422,
      "Ġ184": 4423,
      "Ġgoes": 4424,
      "ĠFlorida": 4425,
      "Ġlisted": 4426,
      "olved": 4427,
      "Ġ75": 4428,
      "Ġnuclear": 4429,
      "ka": 4430,
      "Ġreasons": 4431,
      "Ġgraph": 4432,
      "Ġillust": 4433,
      "Ġadults": 4434,
      "coh": 4435,
      "Ġ36": 4436,
      "Ġdeliver": 4437,
      "Ġ37": 4438,
      "ĠZealand": 4439,
      "gram": 4440,
      "Ġrein": 4441,
      "Ġmetal": 4442,
      "nds": 4443,
      "ĠBet": 4444,
      "Ġdidn": 4445,
      "Ġstrateg": 4446,
      "Ġreports": 4447,
      "Ã¶": 4448,
      "Ġbroadcast": 4449,
      "IS": 4450,
      "ĠOf": 4451,
      "Ġrules": 4452,
      "lam": 4453,
      "Ġsuffered": 4454,
      "ĠItalian": 4455,
      "Ġfeed": 4456,
      "ĠIrish": 4457,
      "Ġpurs": 4458,
      "Ġreference": 4459,
      "Ġleague": 4460,
      "rig": 4461,
      "Ġaccepted": 4462,
      "Ġlaunched": 4463,
      "arian": 4464,
      "Ġcopies": 4465,
      "Ġhydro": 4466,
      "ĠAut": 4467,
      "Ġprojects": 4468,
      "ĠTest": 4469,
      "Ġacadem": 4470,
      "Ġcausing": 4471,
      "org": 4472,
      "ĠAre": 4473,
      "ĠRad": 4474,
      "osen": 4475,
      "ĠMuseum": 4476,
      "venue": 4477,
      "90": 4478,
      "more": 4479,
      "itt": 4480,
      "Ġprotein": 4481,
      "Ġrecommend": 4482,
      "book": 4483,
      "ext": 4484,
      "Ġcm": 4485,
      "unction": 4486,
      "Ġspect": 4487,
      "Ġpatient": 4488,
      "Ġeverything": 4489,
      "Ġnative": 4490,
      "Ġhyp": 4491,
      "Ġmaintain": 4492,
      "Ġmaximum": 4493,
      "ya": 4494,
      "ĠPress": 4495,
      "ĠRout": 4496,
      "andon": 4497,
      "Ġwinning": 4498,
      "Ġhomes": 4499,
      "Ġspot": 4500,
      "Ġcurrently": 4501,
      "ĠCO": 4502,
      "Ġshape": 4503,
      "Ġthinking": 4504,
      "Ġdepart": 4505,
      "Ġimages": 4506,
      "Ġopportunity": 4507,
      "Ġemphas": 4508,
      "Ġrise": 4509,
      "ĠSever": 4510,
      "Ġresulted": 4511,
      "Ġassigned": 4512,
      "Ġdoll": 4513,
      "ĠEach": 4514,
      "ĠHere": 4515,
      "uls": 4516,
      "Ġunable": 4517,
      "ĠDel": 4518,
      "ĠWater": 4519,
      "Ġagg": 4520,
      "ĠCamp": 4521,
      "Ġpit": 4522,
      "Ġinspired": 4523,
      "formation": 4524,
      "cel": 4525,
      "Ġcitizens": 4526,
      "Ġsides": 4527,
      "ĠMo": 4528,
      "ĠBig": 4529,
      "Ġsetting": 4530,
      "Ġfleet": 4531,
      "Ġautom": 4532,
      "ĠLong": 4533,
      "Ġdut": 4534,
      "ĠOtt": 4535,
      "Ġ180": 4536,
      "iat": 4537,
      "Ġtrial": 4538,
      "ogen": 4539,
      "ube": 4540,
      "Ġaudience": 4541,
      "Ġrespectively": 4542,
      "Ġspl": 4543,
      "Ġproced": 4544,
      "Ã³": 4545,
      "Ġprimarily": 4546,
      "ĠNews": 4547,
      "Ġcharge": 4548,
      "Ġnewsp": 4549,
      "ĠSouthern": 4550,
      "Ġfrequently": 4551,
      "bour": 4552,
      "ications": 4553,
      "ĠMur": 4554,
      "Ġquant": 4555,
      "hips": 4556,
      "Ġtur": 4557,
      "pass": 4558,
      "Ġfighting": 4559,
      "ĠMa": 4560,
      "Ġworth": 4561,
      "right": 4562,
      "ĠCommission": 4563,
      "Ġspring": 4564,
      "ĠLater": 4565,
      "burg": 4566,
      "Ġopin": 4567,
      "Ġexisting": 4568,
      "inent": 4569,
      "Ġreject": 4570,
      "Ġpun": 4571,
      "Ġmodels": 4572,
      "ĠLatin": 4573,
      "Ġperhaps": 4574,
      "Ġamb": 4575,
      "Ġsort": 4576,
      "Ġonto": 4577,
      "Ġfifth": 4578,
      "Ġconsequ": 4579,
      "cers": 4580,
      "Ġwaters": 4581,
      "ĠConst": 4582,
      "ĠAv": 4583,
      "Ġsuggests": 4584,
      "Ġdefined": 4585,
      "set": 4586,
      "oma": 4587,
      "Ġatmosp": 4588,
      "gal": 4589,
      "ĠOper": 4590,
      "ĠSong": 4591,
      "ighter": 4592,
      "ologist": 4593,
      "ĠCam": 4594,
      "ĠGroup": 4595,
      "Ġattrib": 4596,
      "Ġtask": 4597,
      "ĠVol": 4598,
      "add": 4599,
      "bed": 4600,
      "ĠTV": 4601,
      "Äģ": 4602,
      "Ġinches": 4603,
      "ĠTod": 4604,
      "Ġ1950": 4605,
      "Ġmainly": 4606,
      "Ġprefer": 4607,
      "Ġdyn": 4608,
      "Ġrough": 4609,
      "Ġtail": 4610,
      "Ġtests": 4611,
      "Ġvit": 4612,
      "Ġrang": 4613,
      "Ġgreatest": 4614,
      "Ġhouses": 4615,
      "Ġfamous": 4616,
      "bridge": 4617,
      "ĠAnn": 4618,
      "Ġhospital": 4619,
      "Ġtraffic": 4620,
      "Ġvirt": 4621,
      "Ġfix": 4622,
      "ady": 4623,
      "ogue": 4624,
      "Ġbelief": 4625,
      "ĠTown": 4626,
      "Ġtrain": 4627,
      "ĠProt": 4628,
      "Ġpal": 4629,
      "ici": 4630,
      "ĠSir": 4631,
      "Ġdebut": 4632,
      "Ġcomposed": 4633,
      "Ġfoods": 4634,
      "sect": 4635,
      "Ġfounded": 4636,
      "Ġcompetition": 4637,
      "ĠGra": 4638,
      "Ġbackground": 4639,
      "ĠClub": 4640,
      "Ġhorse": 4641,
      "Ġpoly": 4642,
      "Ġconver": 4643,
      "Ġemp": 4644,
      "PA": 4645,
      "ansion": 4646,
      "Ġdeclared": 4647,
      "Ġhope": 4648,
      "Ġportion": 4649,
      "Ġmanaged": 4650,
      "ĠFrancis": 4651,
      "Ġplot": 4652,
      "apter": 4653,
      "Ġvalues": 4654,
      "ĠEnter": 4655,
      "estival": 4656,
      "Ġjoint": 4657,
      "Ġapplication": 4658,
      "Ġaim": 4659,
      "Ġpieces": 4660,
      "ani": 4661,
      "osh": 4662,
      "ĠEr": 4663,
      "Ġdrive": 4664,
      "ĠJewish": 4665,
      "Ġartist": 4666,
      "Ġtesting": 4667,
      "Ġcosts": 4668,
      "rier": 4669,
      "win": 4670,
      "Ġpaid": 4671,
      "Ġfresh": 4672,
      "ĠMel": 4673,
      "Ġteachers": 4674,
      "ugh": 4675,
      "stitution": 4676,
      "Ġinstruct": 4677,
      "Ġoccurs": 4678,
      "Ġcombat": 4679,
      "Ġscenes": 4680,
      "Ġslightly": 4681,
      "Ġmouth": 4682,
      "Ġexercise": 4683,
      "arters": 4684,
      "Ġmemory": 4685,
      "asy": 4686,
      "apers": 4687,
      "orders": 4688,
      "ĠMartin": 4689,
      "Ġmole": 4690,
      "ĠIII": 4691,
      "ading": 4692,
      "Ġtechniques": 4693,
      "Ġabandon": 4694,
      "ĠMer": 4695,
      "ĠHy": 4696,
      "Ġminute": 4697,
      "Ġconflict": 4698,
      "ĠHaw": 4699,
      "Ġsoftware": 4700,
      "ĠPan": 4701,
      "Ġcommunication": 4702,
      "Ġinjury": 4703,
      "Ġtim": 4704,
      "chester": 4705,
      "Ġdivided": 4706,
      "Ġ+": 4707,
      "Ġweak": 4708,
      "ĠEmpire": 4709,
      "Ġapplied": 4710,
      "Ġevolution": 4711,
      "Ġinfection": 4712,
      "Ġregions": 4713,
      "abetes": 4714,
      "ĠSum": 4715,
      "ĠDirect": 4716,
      "ĠLand": 4717,
      "Ġcentre": 4718,
      "Ġanaly": 4719,
      "isher": 4720,
      "vest": 4721,
      "ĠQueen": 4722,
      "Ġconstructed": 4723,
      "ĠPeople": 4724,
      "wise": 4725,
      "yal": 4726,
      "Ġtools": 4727,
      "Ġmarriage": 4728,
      "ĠDevelop": 4729,
      "Ġlimit": 4730,
      "Ġcombined": 4731,
      "Ġovers": 4732,
      "Ġnote": 4733,
      "Ġrob": 4734,
      "ĠCorps": 4735,
      "Ġofficer": 4736,
      "Ġbodies": 4737,
      "Ġclin": 4738,
      "Ġcert": 4739,
      "iser": 4740,
      "olid": 4741,
      "ĠJournal": 4742,
      "ĠJim": 4743,
      "Ġintellig": 4744,
      "anes": 4745,
      "Ġremember": 4746,
      "Ġsche": 4747,
      "ĠService": 4748,
      "Ġsac": 4749,
      "ĠFle": 4750,
      "imens": 4751,
      "Ġnearby": 4752,
      "Ġmut": 4753,
      "Ġpregn": 4754,
      "Ġdevice": 4755,
      "onder": 4756,
      "Ġtwenty": 4757,
      "time": 4758,
      "Ġtheme": 4759,
      "ias": 4760,
      "ãĥ": 4761,
      "Ġofficials": 4762,
      "Ġinters": 4763,
      "ĠYear": 4764,
      "Ġtracks": 4765,
      "Ġstructures": 4766,
      "Ġtiss": 4767,
      "erse": 4768,
      "agement": 4769,
      "Ġprepar": 4770,
      "icate": 4771,
      "Ġ1995": 4772,
      "Ġ1996": 4773,
      "Ġsubsequently": 4774,
      "Ġteaching": 4775,
      "Ġpair": 4776,
      "Ġmanager": 4777,
      "Ġurban": 4778,
      "ĠOx": 4779,
      "ressive": 4780,
      "Ġplatform": 4781,
      "Ġcode": 4782,
      "omers": 4783,
      "Ġheard": 4784,
      "osa": 4785,
      "Ġsuc": 4786,
      "ĠRo": 4787,
      "But": 4788,
      "Ġliber": 4789,
      "iful": 4790,
      "Ġuseful": 4791,
      "Ġelected": 4792,
      "ĠColumb": 4793,
      "Ġhus": 4794,
      "Ġstore": 4795,
      "ĠMichigan": 4796,
      "ev": 4797,
      "Ġenemy": 4798,
      "ĠStep": 4799,
      "issions": 4800,
      "umber": 4801,
      "ifically": 4802,
      "23": 4803,
      "Ġbenefit": 4804,
      "Ġcoal": 4805,
      "Ġcounty": 4806,
      "gest": 4807,
      "mas": 4808,
      "ĠBre": 4809,
      "ĠAngeles": 4810,
      "Ġgain": 4811,
      "Ġlett": 4812,
      "Ġ38": 4813,
      "ĠMinister": 4814,
      "cohol": 4815,
      "Ġconfir": 4816,
      "Ġindustrial": 4817,
      "ĠTre": 4818,
      "Ġunf": 4819,
      "Ġwaste": 4820,
      "Ġspeech": 4821,
      "Ġexamples": 4822,
      "Ġeveryone": 4823,
      "iced": 4824,
      "Ġ00": 4825,
      "Ġadvanced": 4826,
      "Ġconnected": 4827,
      "Ġrich": 4828,
      "ĠUN": 4829,
      "Ġchance": 4830,
      "Ġmarked": 4831,
      "ounded": 4832,
      "ĠCommit": 4833,
      "Ġfear": 4834,
      "Ġcore": 4835,
      "igr": 4836,
      "Ġkilomet": 4837,
      "ĠKn": 4838,
      "ĠNorm": 4839,
      "Ġeval": 4840,
      "IN": 4841,
      "Ġtrou": 4842,
      "ĠBatt": 4843,
      "ĠRoute": 4844,
      "oston": 4845,
      "Ġliterature": 4846,
      "ĠGovernment": 4847,
      "iments": 4848,
      "Ġanswer": 4849,
      "Ġvot": 4850,
      "Ġattempted": 4851,
      "claim": 4852,
      "Ġpositions": 4853,
      "Ġlearned": 4854,
      "Ġhun": 4855,
      "Ġcreation": 4856,
      "Ġdiseases": 4857,
      "Ġrates": 4858,
      "Ġfailure": 4859,
      "...": 4860,
      "ĠTime": 4861,
      "ĠRail": 4862,
      "Ġbehavi": 4863,
      "Ġfruit": 4864,
      "Ġsurvey": 4865,
      "Ġinh": 4866,
      "Ġhousehold": 4867,
      "Ġpoet": 4868,
      "Ġbra": 4869,
      "Ġcandid": 4870,
      "Ġdetails": 4871,
      "life": 4872,
      "ologies": 4873,
      "ĠLife": 4874,
      "thlet": 4875,
      "ĠDi": 4876,
      "Ġequal": 4877,
      "stein": 4878,
      "ican": 4879,
      "ĠCle": 4880,
      "pective": 4881,
      "Ġclaims": 4882,
      "enant": 4883,
      "Ġdraft": 4884,
      "ĠSocial": 4885,
      "ĠAcademy": 4886,
      "Ġwalls": 4887,
      "lers": 4888,
      "Ġ34": 4889,
      "Ġexplained": 4890,
      "Ġwit": 4891,
      "olars": 4892,
      "Ġstone": 4893,
      "Ġresidents": 4894,
      "ĠInt": 4895,
      "ita": 4896,
      "Ġ1940": 4897,
      "Ġoffers": 4898,
      "Ġbelong": 4899,
      "stone": 4900,
      "Ġsignificantly": 4901,
      "Ġcouple": 4902,
      "ĠWind": 4903,
      "ĠTour": 4904,
      "awn": 4905,
      "Ġranked": 4906,
      "hors": 4907,
      "Ġemerg": 4908,
      "ĠCatholic": 4909,
      "Ġwriters": 4910,
      "Ġreform": 4911,
      "ĠOp": 4912,
      "Ġsand": 4913,
      "isted": 4914,
      "Ġgenetic": 4915,
      "Ġdecades": 4916,
      "ophy": 4917,
      "ĠWal": 4918,
      "ĠPublic": 4919,
      "Ġextend": 4920,
      "ordin": 4921,
      "ancing": 4922,
      "ĠCross": 4923,
      "Ġrequires": 4924,
      "Ġdetermined": 4925,
      "ping": 4926,
      "Ġguitar": 4927,
      "ĠSub": 4928,
      "Ġyards": 4929,
      "Ġcry": 4930,
      "ells": 4931,
      "ĠClass": 4932,
      "ographic": 4933,
      "Ġextremely": 4934,
      "ĠGood": 4935,
      "Ġsam": 4936,
      "ĠKenn": 4937,
      "inet": 4938,
      "oper": 4939,
      "ceeded": 4940,
      "cious": 4941,
      "Ġarrest": 4942,
      "ĠTem": 4943,
      "Ġproducer": 4944,
      "Ġ1994": 4945,
      "een": 4946,
      "equ": 4947,
      "ĠCapt": 4948,
      "Ġjour": 4949,
      "ĠTechn": 4950,
      "ĠNorthern": 4951,
      "ĠBoston": 4952,
      "ĠLu": 4953,
      "Ġteeth": 4954,
      "ented": 4955,
      "Ġmist": 4956,
      "Ġbattles": 4957,
      "Ġselect": 4958,
      "vant": 4959,
      "Ġartists": 4960,
      "Ġera": 4961,
      "respond": 4962,
      "ĠCivil": 4963,
      "ĠDou": 4964,
      "ĠItaly": 4965,
      "Ġultimately": 4966,
      "ylv": 4967,
      "rid": 4968,
      "ĠIS": 4969,
      "ĠAsia": 4970,
      "Ġ1930": 4971,
      "Ġpopulations": 4972,
      "Ġsurrounding": 4973,
      "ada": 4974,
      "ii": 4975,
      "Ġformation": 4976,
      "Ġattacked": 4977,
      "Ġcamer": 4978,
      "Ġexperienced": 4979,
      "Ġmaster": 4980,
      "peror": 4981,
      "Ġdifferences": 4982,
      "Ġfigures": 4983,
      "cend": 4984,
      "ĠCare": 4985,
      "Ġmentioned": 4986,
      "Ġnomin": 4987,
      "Ġauthority": 4988,
      "while": 4989,
      "AN": 4990,
      "ifying": 4991,
      "ĠEducation": 4992,
      "Ġinfl": 4993,
      "Ġ183": 4994,
      "Ġagreement": 4995,
      "Ġaid": 4996,
      "Ġapparent": 4997,
      "ota": 4998,
      "70": 4999,
      "Ġhair": 5000,
      "Ġexpressed": 5001,
      "dd": 5002,
      "Ġyard": 5003,
      "ĠLike": 5004,
      "Ġdevices": 5005,
      "igen": 5006,
      "Ġperman": 5007,
      "hetic": 5008,
      "ĠSeveral": 5009,
      "ĠBoy": 5010,
      "Ġrefused": 5011,
      "ĠKent": 5012,
      "ayer": 5013,
      "Ġfans": 5014,
      "Ġbrown": 5015,
      "Ġstandards": 5016,
      "Ġitems": 5017,
      "Ġ400": 5018,
      "ĠCommittee": 5019,
      "Ġ1992": 5020,
      "rec": 5021,
      "Ġbud": 5022,
      "ĠAwards": 5023,
      "ĠMatt": 5024,
      "erved": 5025,
      "Ġsister": 5026,
      "Ġprice": 5027,
      "ĠMiddle": 5028,
      "ĠDNA": 5029,
      "Ġproperties": 5030,
      "Ġsought": 5031,
      "ĠKar": 5032,
      "Ġplanning": 5033,
      "Ġkid": 5034,
      "Ġdistribution": 5035,
      "Ġstraight": 5036,
      "Ġsave": 5037,
      "Ġwing": 5038,
      "ĠFre": 5039,
      "Ġincome": 5040,
      "Ġdism": 5041,
      "ette": 5042,
      "inson": 5043,
      "Ġsustain": 5044,
      "ĠInc": 5045,
      "Ġ--": 5046,
      "Ġisol": 5047,
      "Ġcenturies": 5048,
      "Ġfile": 5049,
      "range": 5050,
      "key": 5051,
      "Ġterritory": 5052,
      "ĠDutch": 5053,
      "Ġappropriate": 5054,
      "Ġfloor": 5055,
      "itan": 5056,
      "Ġattempts": 5057,
      "Ġcook": 5058,
      "illing": 5059,
      "ĠThrough": 5060,
      "ĠParis": 5061,
      "omew": 5062,
      "ĠGames": 5063,
      "Ġinteresting": 5064,
      "Ġmovie": 5065,
      "Ġchallenge": 5066,
      "iled": 5067,
      "ĠNow": 5068,
      "Ġeating": 5069,
      "Ġhero": 5070,
      "onna": 5071,
      "Ġcalcul": 5072,
      "Ġearned": 5073,
      "Ġviolence": 5074,
      "Ġteacher": 5075,
      "ĠJoseph": 5076,
      "Ġvehicles": 5077,
      "ĠTen": 5078,
      "Ġlic": 5079,
      "Ġregarding": 5080,
      "ĠCap": 5081,
      "Ġvision": 5082,
      "lines": 5083,
      "orter": 5084,
      "ĠOnce": 5085,
      "onn": 5086,
      "ĠLove": 5087,
      "ĠOh": 5088,
      "Ġending": 5089,
      "ĠDef": 5090,
      "bl": 5091,
      "ĠWild": 5092,
      "Ġletters": 5093,
      "Ġpractices": 5094,
      "Ġign": 5095,
      "Ġcontrovers": 5096,
      "Ġmeasures": 5097,
      "ĠProf": 5098,
      "Ġnegot": 5099,
      "24": 5100,
      "Ġtun": 5101,
      "Ġbreat": 5102,
      "ĠBillboard": 5103,
      "Ġthousands": 5104,
      "Ġfollows": 5105,
      "ĠHistor": 5106,
      "Ġnarrow": 5107,
      "Ġheight": 5108,
      "Ġseg": 5109,
      "ĠJohnson": 5110,
      "iders": 5111,
      "Ġpros": 5112,
      "ĠHighway": 5113,
      "EC": 5114,
      "Ġvolume": 5115,
      "perial": 5116,
      "ishop": 5117,
      "IC": 5118,
      "Ġalt": 5119,
      "ĠVer": 5120,
      "annel": 5121,
      "Ġlov": 5122,
      "ĠConf": 5123,
      "ĠManchester": 5124,
      "Ġedition": 5125,
      "Ġaspects": 5126,
      "IV": 5127,
      "Ġlyrics": 5128,
      "itis": 5129,
      "ĠDen": 5130,
      "Ġattended": 5131,
      "ĠGre": 5132,
      "Ġcolumn": 5133,
      "ĠBow": 5134,
      "orage": 5135,
      "Ġcombination": 5136,
      "Ġnor": 5137,
      "etts": 5138,
      "Ġshar": 5139,
      "Ġjoin": 5140,
      "Ġplays": 5141,
      "ĠThree": 5142,
      "Ġresistance": 5143,
      "Ġactual": 5144,
      "Ġdrugs": 5145,
      "OR": 5146,
      "Ġenh": 5147,
      "Ġidentity": 5148,
      "encies": 5149,
      "Ġpaint": 5150,
      "ĠThen": 5151,
      "Ġsevent": 5152,
      "Ġroyal": 5153,
      "Ġbed": 5154,
      "Ġvacc": 5155,
      "Ġvari": 5156,
      "ĠSant": 5157,
      "Ġadvantage": 5158,
      "ĠBefore": 5159,
      "unte": 5160,
      "Ġchoose": 5161,
      "Ġcompos": 5162,
      "Ġimproved": 5163,
      "Ġconnection": 5164,
      "Ġdefeat": 5165,
      "ĠBat": 5166,
      "Ġelimin": 5167,
      "Ġtal": 5168,
      "roll": 5169,
      "ĠWales": 5170,
      "Ġalternative": 5171,
      "Åį": 5172,
      "Ġ1993": 5173,
      "Ġsolution": 5174,
      "Ġcorrespond": 5175,
      "ĠSil": 5176,
      "othes": 5177,
      "ĠSar": 5178,
      "ĠFurther": 5179,
      "Ġvary": 5180,
      "Ġfaith": 5181,
      "Ġyellow": 5182,
      "Ġcro": 5183,
      "Ġinsect": 5184,
      "Ġ49": 5185,
      "Ġgeneration": 5186,
      "Ġtells": 5187,
      "Ġpossibly": 5188,
      "Ġmetres": 5189,
      "Ġborder": 5190,
      "ĠFour": 5191,
      "ras": 5192,
      "ĠPlan": 5193,
      "ĠPop": 5194,
      "ĠGal": 5195,
      "Ġtrust": 5196,
      "Ġfactor": 5197,
      "VD": 5198,
      "Ġprepared": 5199,
      "Ġinstance": 5200,
      "writ": 5201,
      "ĠOur": 5202,
      "Ġrepresented": 5203,
      "Ġfirm": 5204,
      "ĠDar": 5205,
      "ĠBas": 5206,
      "Ġyouth": 5207,
      "ittle": 5208,
      "idel": 5209,
      "Ġrot": 5210,
      "Ġmo": 5211,
      "ĠSaint": 5212,
      "Ġtransferred": 5213,
      "pring": 5214,
      "Ġcerem": 5215,
      "ager": 5216,
      "gery": 5217,
      "Ġrecommended": 5218,
      "osaur": 5219,
      "Ġcontrolled": 5220,
      "Ġpicture": 5221,
      "Ġshared": 5222,
      "Ġillness": 5223,
      "Ġportray": 5224,
      "One": 5225,
      "rich": 5226,
      "vis": 5227,
      "ĠWall": 5228,
      "ĠForm": 5229,
      "ĠJud": 5230,
      "ini": 5231,
      "Ġfinding": 5232,
      "ĠWilliams": 5233,
      "Ġworldwide": 5234,
      "Ġconcluded": 5235,
      "Ġinfluenced": 5236,
      "hemat": 5237,
      "Ġsyn": 5238,
      "Ġhusband": 5239,
      "Ġusers": 5240,
      "Ġlabel": 5241,
      "ishes": 5242,
      "met": 5243,
      "Ġinfect": 5244,
      "Ġpassing": 5245,
      "ĠRel": 5246,
      "place": 5247,
      "standing": 5248,
      "Ġachieve": 5249,
      "Ar": 5250,
      "aste": 5251,
      "Ġmotor": 5252,
      "Ġbacteria": 5253,
      "Ġwealth": 5254,
      "Ġfacilities": 5255,
      "Ġadopted": 5256,
      "Ġweb": 5257,
      "Ġoccasion": 5258,
      "Ġdial": 5259,
      "ternal": 5260,
      "ĠSecret": 5261,
      "Ġreligion": 5262,
      "rates": 5263,
      "Ġwrong": 5264,
      "ĠValley": 5265,
      "ĠScotland": 5266,
      "Ġreality": 5267,
      "ĠPost": 5268,
      "Ġbeat": 5269,
      "aine": 5270,
      "Ġbaby": 5271,
      "igg": 5272,
      "Ġsynt": 5273,
      "Ġexped": 5274,
      "ĠProgram": 5275,
      "Ġlands": 5276,
      "embly": 5277,
      "Ġinternal": 5278,
      "adium": 5279,
      "ĠIll": 5280,
      "ocratic": 5281,
      "rowd": 5282,
      "Ġcommander": 5283,
      "ĠRussia": 5284,
      "orses": 5285,
      "Ġachieved": 5286,
      "ĠJeff": 5287,
      "AC": 5288,
      "Ġprotected": 5289,
      "Ġmessage": 5290,
      "ĠPers": 5291,
      "Ġ179": 5292,
      "Ġsequence": 5293,
      "Ġextensive": 5294,
      "ON": 5295,
      "ĠGar": 5296,
      "char": 5297,
      "aven": 5298,
      "Ġfram": 5299,
      "Ġthir": 5300,
      "Ġlat": 5301,
      "Ġdepth": 5302,
      "lim": 5303,
      "Ġgrew": 5304,
      "ĠCommon": 5305,
      "Ġabsor": 5306,
      "Ġsubsequent": 5307,
      "osal": 5308,
      "Ġcas": 5309,
      "Ġdropped": 5310,
      "Ġcommented": 5311,
      "rows": 5312,
      "ĠLee": 5313,
      "Ġapplications": 5314,
      "urance": 5315,
      "bury": 5316,
      "Ġdance": 5317,
      "ĠWrit": 5318,
      "Ġcontaining": 5319,
      "Ġcalls": 5320,
      "Ġelev": 5321,
      "AL": 5322,
      "ola": 5323,
      "Ġ150": 5324,
      "Ġmotion": 5325,
      "Ġclosely": 5326,
      "ograp": 5327,
      "Ġexcess": 5328,
      "Ġsteps": 5329,
      "Ġtwice": 5330,
      "Ġwarm": 5331,
      "Ġsets": 5332,
      "ĠCarolina": 5333,
      "Ġstatement": 5334,
      "Ġweapons": 5335,
      "oured": 5336,
      "aming": 5337,
      "ĠCD": 5338,
      "Ġshell": 5339,
      "ĠFe": 5340,
      "IT": 5341,
      "rees": 5342,
      "Ġreaching": 5343,
      "Ġgrass": 5344,
      "Ġunknown": 5345,
      "Ġrecognized": 5346,
      "Ġtherapy": 5347,
      "Ġbottom": 5348,
      "war": 5349,
      "ĠMat": 5350,
      "Ġsugar": 5351,
      "Ġsolid": 5352,
      "Ġ48": 5353,
      "Ġfields": 5354,
      "Ġcomplic": 5355,
      "ĠThus": 5356,
      "Ġroof": 5357,
      "edia": 5358,
      "Ġprocesses": 5359,
      "icks": 5360,
      "Ġstating": 5361,
      "Ġexperiences": 5362,
      "www": 5363,
      "tical": 5364,
      "Ġauthors": 5365,
      "ĠWork": 5366,
      "Ġfreedom": 5367,
      "Ġdiam": 5368,
      "Ġclasses": 5369,
      "ĠTim": 5370,
      "Ġarms": 5371,
      "Ġexposure": 5372,
      "Ġorganized": 5373,
      "Ġowned": 5374,
      "adel": 5375,
      "otic": 5376,
      "Ġfocused": 5377,
      "Ġgained": 5378,
      "osy": 5379,
      "Ġpasseng": 5380,
      "ĠElect": 5381,
      "atre": 5382,
      "ĠOb": 5383,
      "Ġtransform": 5384,
      "ns": 5385,
      "ĠOcean": 5386,
      "kin": 5387,
      "Ġhall": 5388,
      "Ġtruth": 5389,
      "Ġproved": 5390,
      "ĠGeorg": 5391,
      "Ġcontext": 5392,
      "Ġcontemporary": 5393,
      "iciency": 5394,
      "Ġconsists": 5395,
      "sp": 5396,
      "Ġacting": 5397,
      "Ġtemperatures": 5398,
      "Ġchosen": 5399,
      "ĠSquadron": 5400,
      "thur": 5401,
      "Ġsports": 5402,
      "Ġ1991": 5403,
      "Ġencoun": 5404,
      "ĠThough": 5405,
      "Ġpul": 5406,
      "OS": 5407,
      "Ġhuge": 5408,
      "Ġcalling": 5409,
      "Ġready": 5410,
      "Ġselling": 5411,
      "itors": 5412,
      "Ġdistrict": 5413,
      "Ġdescribes": 5414,
      "ipe": 5415,
      "akers": 5416,
      "Ġcircum": 5417,
      "Ġdivers": 5418,
      "miral": 5419,
      "istan": 5420,
      "Ġconfirmed": 5421,
      "Ġ55": 5422,
      "rehens": 5423,
      "ĠDun": 5424,
      "raction": 5425,
      "ching": 5426,
      "Ġmap": 5427,
      "Ġhear": 5428,
      "Ġalcohol": 5429,
      "Ġaccident": 5430,
      "ĠParliament": 5431,
      "Ġfeeling": 5432,
      "Ġcapture": 5433,
      "ĠFar": 5434,
      "ĠExp": 5435,
      "edd": 5436,
      "under": 5437,
      "onds": 5438,
      "Ġfeat": 5439,
      "ygen": 5440,
      "Ġmountain": 5441,
      "Ġauthorities": 5442,
      "Ġcontained": 5443,
      "Ġbroken": 5444,
      "ĠLear": 5445,
      "Ġincreases": 5446,
      "Ġ39": 5447,
      "Ġtreated": 5448,
      "Ġrepeated": 5449,
      "zy": 5450,
      "ĠHor": 5451,
      "ĠRom": 5452,
      "ician": 5453,
      "Ġreaction": 5454,
      "Ġcloud": 5455,
      "ĠYoung": 5456,
      "ylvania": 5457,
      "Ġbudget": 5458,
      "Ġinterested": 5459,
      "Ġheavily": 5460,
      "atched": 5461,
      "ala": 5462,
      "Ġorganizations": 5463,
      "uration": 5464,
      "Ġanyone": 5465,
      "Ġseconds": 5466,
      "Ġexperiment": 5467,
      "Ġtox": 5468,
      "26": 5469,
      "ato": 5470,
      "Ġleadership": 5471,
      "Ġwa": 5472,
      "Ġviews": 5473,
      "ĠOxford": 5474,
      "âĢ¢": 5475,
      "Ġdoct": 5476,
      "Ġshowing": 5477,
      "illery": 5478,
      "Ġparalle": 5479,
      "Ġadministration": 5480,
      "Ġinterpret": 5481,
      "term": 5482,
      "ushed": 5483,
      "Ġhearing": 5484,
      "Ġdiabetes": 5485,
      "Ġteach": 5486,
      "Ġsigns": 5487,
      "Ġble": 5488,
      "ĠMajor": 5489,
      "Ġring": 5490,
      "iling": 5491,
      "ieut": 5492,
      "Ġinstall": 5493,
      "Ġgarden": 5494,
      "ĠFam": 5495,
      "Ġ65": 5496,
      "Ġfunctions": 5497,
      "rete": 5498,
      "ĠBrad": 5499,
      "aved": 5500,
      "AF": 5501,
      "Ġprompt": 5502,
      "ĠCaptain": 5503,
      "And": 5504,
      "Ġdetect": 5505,
      "Ġresc": 5506,
      "Ġexistence": 5507,
      "Ġutil": 5508,
      "Ġahead": 5509,
      "Ġgets": 5510,
      "Ġglass": 5511,
      "27": 5512,
      "ĠGil": 5513,
      "Ġsufficient": 5514,
      "rence": 5515,
      "Ġbuy": 5516,
      "rog": 5517,
      "Ġdistingu": 5518,
      "part": 5519,
      "works": 5520,
      "ĠChristmas": 5521,
      "isters": 5522,
      "Ġmanner": 5523,
      "Ġsuccessfully": 5524,
      "Ġdefense": 5525,
      "Ġexplain": 5526,
      "ĠMem": 5527,
      "Ġcastle": 5528,
      "Ġstruck": 5529,
      "ĠLight": 5530,
      "Ġsecondary": 5531,
      "Ġincreasingly": 5532,
      "Ġfoss": 5533,
      "Ġmatches": 5534,
      "Ġprominent": 5535,
      "ĠâĢ¦": 5536,
      "Ġphen": 5537,
      "rum": 5538,
      "essions": 5539,
      "Ġserving": 5540,
      "Ġtermin": 5541,
      "ĠJer": 5542,
      "Ġ1920": 5543,
      "Ġopportunities": 5544,
      "Ġmuseum": 5545,
      "ructure": 5546,
      "bo": 5547,
      "Ġuser": 5548,
      "Ġends": 5549,
      "ĠJo": 5550,
      "illa": 5551,
      "Ġinnov": 5552,
      "cont": 5553,
      "Ġentirely": 5554,
      "ashion": 5555,
      "Ġsinger": 5556,
      "ĠVan": 5557,
      "ĠCarl": 5558,
      "Ġsubstant": 5559,
      "ĠCur": 5560,
      "Ġ43": 5561,
      "Ġ47": 5562,
      "ĠProject": 5563,
      "Ġdelay": 5564,
      "Ġeffectively": 5565,
      "apes": 5566,
      "Ġlaid": 5567,
      "He": 5568,
      "Ġfine": 5569,
      "Ġ#": 5570,
      "Ġversions": 5571,
      "Ġflying": 5572,
      "Ġtool": 5573,
      "ava": 5574,
      "Ġvote": 5575,
      "Ġsomew": 5576,
      "ĠTri": 5577,
      "ĠDet": 5578,
      "CC": 5579,
      "kes": 5580,
      "Ġpromote": 5581,
      "Ġhttp": 5582,
      "Ġmaintained": 5583,
      "Ġrapidly": 5584,
      "bur": 5585,
      "ĠDVD": 5586,
      "ĠEll": 5587,
      "appe": 5588,
      "Ġsymbol": 5589,
      "ĠJac": 5590,
      "gu": 5591,
      "ĠLuc": 5592,
      "So": 5593,
      "ĠAD": 5594,
      "Ġisn": 5595,
      "Ġeggs": 5596,
      "heim": 5597,
      "Ġrow": 5598,
      "Ġ44": 5599,
      "Ġweaken": 5600,
      "ensus": 5601,
      "Ġintroduction": 5602,
      "Ġadding": 5603,
      "rome": 5604,
      "Ġ1945": 5605,
      "ĠCorn": 5606,
      "Ġrelative": 5607,
      "Ġargued": 5608,
      "ĠLittle": 5609,
      "ĠSee": 5610,
      "Ġpatterns": 5611,
      "Ġinch": 5612,
      "Ġuniversity": 5613,
      "ĠSpace": 5614,
      "Ġescape": 5615,
      "ĠDevelopment": 5616,
      "rations": 5617,
      "Ġhonor": 5618,
      "ĠStan": 5619,
      "ĠSol": 5620,
      "Ġdangerous": 5621,
      "ĠPenns": 5622,
      "upp": 5623,
      "ologists": 5624,
      "cular": 5625,
      "ĠBus": 5626,
      "Ġsenior": 5627,
      "pson": 5628,
      "ocked": 5629,
      "Ġopposed": 5630,
      "Ġconcerns": 5631,
      "Ġknew": 5632,
      "Ġmeat": 5633,
      "Ġocean": 5634,
      "stream": 5635,
      "Ġcollected": 5636,
      "Ġstanding": 5637,
      "Ġbreast": 5638,
      "Ġbalance": 5639,
      "anna": 5640,
      "ĠÎ": 5641,
      "Ġexpansion": 5642,
      "ĠAddition": 5643,
      "icians": 5644,
      "Ġcycle": 5645,
      "ĠChief": 5646,
      "ĠBi": 5647,
      "Ġstrate": 5648,
      "hew": 5649,
      "roph": 5650,
      "Ġoperating": 5651,
      "Ġrelationships": 5652,
      "Ġelectricity": 5653,
      "Ġstrategy": 5654,
      "inity": 5655,
      "atically": 5656,
      "king": 5657,
      "hedul": 5658,
      "Ġspecifically": 5659,
      "Ġstations": 5660,
      "ĠPrince": 5661,
      "ceived": 5662,
      "Ġislands": 5663,
      "Ġbroke": 5664,
      "Ġdrop": 5665,
      "Ġpredict": 5666,
      "Ġban": 5667,
      "Ġleads": 5668,
      "Ġalongside": 5669,
      "ĠCy": 5670,
      "Ġdie": 5671,
      "Ġstret": 5672,
      "Ġtypical": 5673,
      "ora": 5674,
      "igation": 5675,
      "Ġselection": 5676,
      "Ġconsult": 5677,
      "Ġtechnical": 5678,
      "Ġhorses": 5679,
      "pping": 5680,
      "ĠToday": 5681,
      "ĠFound": 5682,
      "Ġeditor": 5683,
      "Ġclearly": 5684,
      "Ġacademic": 5685,
      "orough": 5686,
      "ĠInternet": 5687,
      "ĠCr": 5688,
      "ieutenant": 5689,
      "Ġfert": 5690,
      "oln": 5691,
      "Ġefficient": 5692,
      "ĠMean": 5693,
      "amber": 5694,
      "âĢĿ.": 5695,
      "pes": 5696,
      "state": 5697,
      "ĠCreek": 5698,
      "Ġlocations": 5699,
      "Ġyounger": 5700,
      "Ġpilot": 5701,
      "rm": 5702,
      "tain": 5703,
      "ĠEastern": 5704,
      "Ġinvasion": 5705,
      "ĠArm": 5706,
      "29": 5707,
      "rance": 5708,
      "Ġremark": 5709,
      "Ġsteel": 5710,
      "ĠSwed": 5711,
      "Ġfaced": 5712,
      "Ġanx": 5713,
      "ĠRome": 5714,
      "Ġturns": 5715,
      "Ġaccompan": 5716,
      "ario": 5717,
      "ĠBob": 5718,
      "ĠOnly": 5719,
      "ĠStand": 5720,
      "Ġdesignated": 5721,
      "ĠOffice": 5722,
      "Ġcris": 5723,
      "Ġeducational": 5724,
      "Ġunus": 5725,
      "Ġcredit": 5726,
      "ĠDam": 5727,
      "ĠWomen": 5728,
      "Ġstudied": 5729,
      "rons": 5730,
      "ĠDev": 5731,
      "ĠIslam": 5732,
      "Ġ1944": 5733,
      "Ġstorage": 5734,
      "ĠBoard": 5735,
      "Ġvisited": 5736,
      "Äĩ": 5737,
      "ĠEnd": 5738,
      "Ġaw": 5739,
      "ĠDistrict": 5740,
      "Ġneut": 5741,
      "Ġemotional": 5742,
      "abilities": 5743,
      "Ġlinked": 5744,
      "ao": 5745,
      "Ġphase": 5746,
      "ĠWilson": 5747,
      "ĠStone": 5748,
      "Ġsplit": 5749,
      "ĠTop": 5750,
      "Ġdedicated": 5751,
      "Ġopinion": 5752,
      "Ġcrowd": 5753,
      "ighth": 5754,
      "Ġsecure": 5755,
      "Ġfrag": 5756,
      "eller": 5757,
      "Ġmyth": 5758,
      "ĠStephen": 5759,
      "ĠLet": 5760,
      "Ġparties": 5761,
      "EN": 5762,
      "Ġtechnique": 5763,
      "eless": 5764,
      "Ġchanging": 5765,
      "ĠMax": 5766,
      "azz": 5767,
      "ĠHome": 5768,
      "Ġsupporting": 5769,
      "Ġgirls": 5770,
      "Ġcoach": 5771,
      "ĠGall": 5772,
      "ĠAtt": 5773,
      "Ã¤": 5774,
      "Ġrural": 5775,
      "quarters": 5776,
      "Ġrequest": 5777,
      "Ġboat": 5778,
      "ĠInstead": 5779,
      "Ġemergency": 5780,
      "Ġsatis": 5781,
      "ĠFox": 5782,
      "Ġexchange": 5783,
      "Ġupd": 5784,
      "Ġsout": 5785,
      "ĠRem": 5786,
      "ĠFoot": 5787,
      "28": 5788,
      "Ġmurder": 5789,
      "ĠEvery": 5790,
      "ĠReview": 5791,
      "Ġrevolution": 5792,
      "rat": 5793,
      "uations": 5794,
      "Ġscholars": 5795,
      "Ġoxygen": 5796,
      "ters": 5797,
      "ĠOrgan": 5798,
      "Ġvocal": 5799,
      "Ġatmosphere": 5800,
      "Ġtom": 5801,
      "Ġunp": 5802,
      "ĠEp": 5803,
      "outs": 5804,
      "ĠBridge": 5805,
      "Ġexecutive": 5806,
      "ĠPennsylvania": 5807,
      "Ġsport": 5808,
      "ĠJul": 5809,
      "BA": 5810,
      "ĠMD": 5811,
      "Ġremove": 5812,
      "Ġnob": 5813,
      "eld": 5814,
      "Ġdin": 5815,
      "Ġparallel": 5816,
      "era": 5817,
      "Ġwave": 5818,
      "Ġtall": 5819,
      "ĠSpain": 5820,
      "ĠPen": 5821,
      "Ġreprodu": 5822,
      "Ġschedul": 5823,
      "Ġdomestic": 5824,
      "elve": 5825,
      "Ġvent": 5826,
      "ĠLiber": 5827,
      "Ġnewly": 5828,
      "anda": 5829,
      "ĠAbout": 5830,
      "Ġflat": 5831,
      "Ġdrum": 5832,
      "Ġregarded": 5833,
      "umin": 5834,
      "Ġcomponents": 5835,
      "Ġyourself": 5836,
      "Ġlandsc": 5837,
      "Ġgranted": 5838,
      "ĠEarly": 5839,
      "SA": 5840,
      "ta": 5841,
      "ffect": 5842,
      "Ġkilling": 5843,
      "Ġlosing": 5844,
      "omic": 5845,
      "ĠWay": 5846,
      "hire": 5847,
      "ĠBell": 5848,
      "Ġadvoc": 5849,
      "Ġbom": 5850,
      "Ġpowers": 5851,
      "Ġrating": 5852,
      "Ġproducing": 5853,
      "ĠColon": 5854,
      "Ġpolicies": 5855,
      "Ġdegrees": 5856,
      "Ġconstitution": 5857,
      "Ġ1942": 5858,
      "Ġroll": 5859,
      "agues": 5860,
      "Ġguard": 5861,
      "Ġtitled": 5862,
      "ĠRevolution": 5863,
      "Ġdecade": 5864,
      "ĠHuman": 5865,
      "atab": 5866,
      "'re": 5867,
      "Ġnaval": 5868,
      ");": 5869,
      "inger": 5870,
      "Ġbone": 5871,
      "Ġsounds": 5872,
      "Re": 5873,
      "ye": 5874,
      "Ġcharacteristics": 5875,
      "va": 5876,
      "going": 5877,
      "Ġbright": 5878,
      "Ġvehicle": 5879,
      "Ġorders": 5880,
      "ilding": 5881,
      "Ġroads": 5882,
      "ĠBank": 5883,
      "ĠBudd": 5884,
      "Ġcars": 5885,
      "Ġvul": 5886,
      "Ġedge": 5887,
      "ĠTreat": 5888,
      "Ġshut": 5889,
      "ĠHung": 5890,
      "Ġjourney": 5891,
      "Ġcatch": 5892,
      "Ġdriving": 5893,
      "ĠHit": 5894,
      "iveness": 5895,
      "Ġdiscovery": 5896,
      "uses": 5897,
      "ĠFred": 5898,
      "Ġofficially": 5899,
      "ED": 5900,
      "ua": 5901,
      "iform": 5902,
      "Ġsnow": 5903,
      "Ġstem": 5904,
      "Ġoverl": 5905,
      "Ġguide": 5906,
      "rieved": 5907,
      "iano": 5908,
      "ĠMen": 5909,
      "Ġchallenges": 5910,
      "Ġhappen": 5911,
      "Ġexcell": 5912,
      "RA": 5913,
      "Ġdecisions": 5914,
      "Ġsurgery": 5915,
      "Ġcapable": 5916,
      "Ġreturning": 5917,
      "ĠWeb": 5918,
      "ĠAdmiral": 5919,
      "ucky": 5920,
      "ĠRecords": 5921,
      "uting": 5922,
      "ĠField": 5923,
      "Ġexposed": 5924,
      "hat": 5925,
      "nic": 5926,
      "Ġherself": 5927,
      "Ġmedicine": 5928,
      "Ġdisorder": 5929,
      "Ġpromoted": 5930,
      "ingly": 5931,
      "ĠLy": 5932,
      "Ġdescribe": 5933,
      "Ġantib": 5934,
      "ano": 5935,
      "Ġwitness": 5936,
      "Ġpig": 5937,
      "Ġdeploy": 5938,
      "Ġ64": 5939,
      "eline": 5940,
      "Ġotherwise": 5941,
      "Ġoption": 5942,
      "Ġroles": 5943,
      "idden": 5944,
      "Ġresponsibility": 5945,
      "incoln": 5946,
      "kins": 5947,
      "Ġliqu": 5948,
      "Ġchose": 5949,
      "Ġsurre": 5950,
      "Ġapart": 5951,
      "Ġperformances": 5952,
      "ĠColumbia": 5953,
      "Ġequival": 5954,
      "Ġstrike": 5955,
      "At": 5956,
      "icy": 5957,
      "ĠJones": 5958,
      "Ġgrade": 5959,
      "Ġoperated": 5960,
      "Ġacquired": 5961,
      "Ġdeaths": 5962,
      "awa": 5963,
      "ĠConn": 5964,
      "Ġstarts": 5965,
      "Ġshel": 5966,
      "Ġsilver": 5967,
      "Ġcart": 5968,
      "Ġbranch": 5969,
      "ework": 5970,
      "ĠTeam": 5971,
      "Ġrenew": 5972,
      "Ġoptions": 5973,
      "Ġtower": 5974,
      "zil": 5975,
      "obe": 5976,
      "ĠCrit": 5977,
      "Ġshortly": 5978,
      "enses": 5979,
      "Ġpure": 5980,
      "ĠChris": 5981,
      "ĠProv": 5982,
      "antine": 5983,
      "Ġ1941": 5984,
      "Ġopposition": 5985,
      "Ġtorped": 5986,
      "78": 5987,
      "Ġreign": 5988,
      "Ġ600": 5989,
      "Ġinterests": 5990,
      "ĠJews": 5991,
      "Ġtourn": 5992,
      "Ġ46": 5993,
      "ossible": 5994,
      "bar": 5995,
      "Ġstages": 5996,
      "related": 5997,
      "ĠBrigade": 5998,
      "ĠEngine": 5999,
      "Ġpric": 6000,
      "Ġchampionship": 6001,
      "ĠHead": 6002,
      "Ġregister": 6003,
      "ĠCat": 6004,
      "Ġpasses": 6005,
      "Ġexplos": 6006,
      "Ġengaged": 6007,
      "ipping": 6008,
      "ricket": 6009,
      "Ġregional": 6010,
      "Ġincident": 6011,
      "Ġstreet": 6012,
      "ipl": 6013,
      "roke": 6014,
      "abeth": 6015,
      "asty": 6016,
      "Ġlanding": 6017,
      "Ġholding": 6018,
      "Ġcaught": 6019,
      "ĠCard": 6020,
      "ĠUl": 6021,
      "Ġapply": 6022,
      "ĠGuard": 6023,
      "icit": 6024,
      "Ġconvent": 6025,
      "These": 6026,
      "ĠWeek": 6027,
      "othing": 6028,
      "Ġconcerned": 6029,
      "ĠBru": 6030,
      "Ġpossibility": 6031,
      "ĠEliz": 6032,
      "ĠPower": 6033,
      "Ġtopic": 6034,
      "Ġhistorian": 6035,
      "Ġdogs": 6036,
      "Ġmort": 6037,
      "ĠSa": 6038,
      "Ġsupplies": 6039,
      "Ġextreme": 6040,
      "ĠEnvironment": 6041,
      "Ġdepending": 6042,
      "Ġathlet": 6043,
      "ĠFer": 6044,
      "Ġundert": 6045,
      "Ġlooked": 6046,
      "ĠNin": 6047,
      "Ġrainfall": 6048,
      "Ġseasons": 6049,
      "ocal": 6050,
      "ĠBattalion": 6051,
      "pected": 6052,
      "Ġextent": 6053,
      "Ġnewspaper": 6054,
      "ima": 6055,
      "ĠOrig": 6056,
      "year": 6057,
      "ĠAmong": 6058,
      "Ġnest": 6059,
      "una": 6060,
      "Ġpeaked": 6061,
      "ĠSand": 6062,
      "Ġfilled": 6063,
      "Ġtaught": 6064,
      "itage": 6065,
      "Ġfly": 6066,
      "Ġstim": 6067,
      "ĠLincoln": 6068,
      "antly": 6069,
      "osite": 6070,
      "Ġreceiving": 6071,
      "Ġexpanded": 6072,
      "iÄĩ": 6073,
      "Ġfashion": 6074,
      "Ġmal": 6075,
      "essor": 6076,
      "ersey": 6077,
      "Ġbeautiful": 6078,
      "Ġtank": 6079,
      "ĠSund": 6080,
      "Ġchronic": 6081,
      "eway": 6082,
      "ĠHa": 6083,
      "Ġacts": 6084,
      "Ġdetailed": 6085,
      "Ġcyclone": 6086,
      "zer": 6087,
      "Ġpoem": 6088,
      "Ġgall": 6089,
      "ĠNations": 6090,
      "ĠCoast": 6091,
      "Ġviewers": 6092,
      "zen": 6093,
      "Ġnom": 6094,
      "ĠGree": 6095,
      "ĠInfantry": 6096,
      "Ġconcert": 6097,
      "Ġbrand": 6098,
      "antasy": 6099,
      "Ġadvert": 6100,
      "Ġexactly": 6101,
      "umes": 6102,
      "Ġadvice": 6103,
      "Ġdrawn": 6104,
      "Ġseed": 6105,
      "Ġscoring": 6106,
      "Ġrequirements": 6107,
      "Ġstock": 6108,
      "abil": 6109,
      "ieties": 6110,
      "Ġfellow": 6111,
      "achus": 6112,
      "Ġpermanent": 6113,
      "Ġformal": 6114,
      "Ġnortheast": 6115,
      "ĠChildren": 6116,
      "Ġmathemat": 6117,
      "Ġ1989": 6118,
      "Ġconsec": 6119,
      "Ġsend": 6120,
      "Ġconference": 6121,
      "ĠGovernor": 6122,
      "Ġobtained": 6123,
      "Ġiniti": 6124,
      "Ġcouncil": 6125,
      "Ġmovements": 6126,
      "Ġconcer": 6127,
      "Ġcontributed": 6128,
      "Ġslowly": 6129,
      "eper": 6130,
      "Ġindicate": 6131,
      "mun": 6132,
      "ĠLab": 6133,
      "Ġrelief": 6134,
      "Ġinstitutions": 6135,
      "then": 6136,
      "Ġrom": 6137,
      "ompl": 6138,
      "Ġ95": 6139,
      "Ġapproved": 6140,
      "Ġessay": 6141,
      "Ġhelping": 6142,
      "ĠCharl": 6143,
      "Ġmeters": 6144,
      "break": 6145,
      "Ġintelligence": 6146,
      "Ġmilk": 6147,
      "ĠDuke": 6148,
      "Ġabandoned": 6149,
      "TC": 6150,
      "ĠBlue": 6151,
      "Ġexpression": 6152,
      "Ġemployed": 6153,
      "Ġfeaturing": 6154,
      "Ġseat": 6155,
      "Ġresident": 6156,
      "Ġraise": 6157,
      "ione": 6158,
      "Ġchair": 6159,
      "Ġtissue": 6160,
      "igenous": 6161,
      "iro": 6162,
      "organ": 6163,
      "Ġcomfort": 6164,
      "Ġeasier": 6165,
      "Ġhundreds": 6166,
      "TV": 6167,
      "Ġroughly": 6168,
      "imental": 6169,
      "Ġcaptain": 6170,
      "Ġlayer": 6171,
      "Ġassault": 6172,
      "Ġfindings": 6173,
      "Ġdecline": 6174,
      "oking": 6175,
      "Ġnorthwest": 6176,
      "Ġfunding": 6177,
      "ĠHay": 6178,
      "Ġtechnologies": 6179,
      "Ġparticipated": 6180,
      "ads": 6181,
      "Ġdiscussion": 6182,
      "oral": 6183,
      "ĠPot": 6184,
      "see": 6185,
      "ĠId": 6186,
      "Ġfinds": 6187,
      "Ġregularly": 6188,
      "ĠBrazil": 6189,
      "Ġtransition": 6190,
      "ĠIslands": 6191,
      "Ġlaunch": 6192,
      "Is": 6193,
      "lets": 6194,
      "Ġspiritual": 6195,
      "ignment": 6196,
      "Ġuniverse": 6197,
      "Pro": 6198,
      "vements": 6199,
      "Ġgovernor": 6200,
      "inem": 6201,
      "Ġsoul": 6202,
      "Ġhappened": 6203,
      "pread": 6204,
      "ĠAlb": 6205,
      "Ġpages": 6206,
      "Ġintensity": 6207,
      "Ġartillery": 6208,
      "Ġsud": 6209,
      "Ġspeaking": 6210,
      "Ġvolunte": 6211,
      "ooth": 6212,
      "Ġfought": 6213,
      "Ġancest": 6214,
      "Ġinnings": 6215,
      "oli": 6216,
      "Ġenl": 6217,
      "ĠSenate": 6218,
      "Ġfiction": 6219,
      "Ġbreeding": 6220,
      "Ġsixth": 6221,
      "Ġconsumption": 6222,
      "ushing": 6223,
      "igration": 6224,
      "33": 6225,
      "ĠShort": 6226,
      "Ġgender": 6227,
      "Ġsed": 6228,
      "ĠSpecial": 6229,
      "Ġsupposed": 6230,
      "Ġprofessor": 6231,
      "Ġconsisted": 6232,
      "ĠNever": 6233,
      "DA": 6234,
      "ĠMu": 6235,
      "Ġproducers": 6236,
      "Ġobl": 6237,
      "Ġexpert": 6238,
      "Ġflowers": 6239,
      "Ġdream": 6240,
      "Ġobvious": 6241,
      "Ġmissing": 6242,
      "Ġpurposes": 6243,
      "Ġbattery": 6244,
      "ĠSeries": 6245,
      "ãĤ": 6246,
      "Ġdownload": 6247,
      "onym": 6248,
      "Ġassistance": 6249,
      "ĠLew": 6250,
      "Ġpainting": 6251,
      "Ġmassive": 6252,
      "Ġastron": 6253,
      "Ġing": 6254,
      "achusetts": 6255,
      "Ġeld": 6256,
      "Ġadvent": 6257,
      "ĠColor": 6258,
      "ĠSus": 6259,
      "ĠUpon": 6260,
      "Ġexpedition": 6261,
      "Ġtooth": 6262,
      "nergy": 6263,
      "ĠFilm": 6264,
      "ĠGulf": 6265,
      "199": 6266,
      "lik": 6267,
      "Ġ1987": 6268,
      "Ġrefers": 6269,
      "Ġpublication": 6270,
      "Ġsample": 6271,
      "Ġfired": 6272,
      "Ġamounts": 6273,
      "Ġpremi": 6274,
      "Ġped": 6275,
      "Ġaccompl": 6276,
      "Ġparticipants": 6277,
      "Ġaer": 6278,
      "ĠAge": 6279,
      "Ġdesire": 6280,
      "idespread": 6281,
      "Ġvessels": 6282,
      "Ġgreatly": 6283,
      "ĠLar": 6284,
      "Ġideal": 6285,
      "Ġreducing": 6286,
      "oster": 6287,
      "Ġroot": 6288,
      "Ġ1986": 6289,
      "Ġlosses": 6290,
      "ĠPo": 6291,
      "Ġalle": 6292,
      "Ġmuscle": 6293,
      "Ġkeeping": 6294,
      "ĠDie": 6295,
      "Ġven": 6296,
      "ĠBrook": 6297,
      "Ġarmed": 6298,
      "Ġpolitics": 6299,
      "ĠKen": 6300,
      "Ġcomprehens": 6301,
      "ifications": 6302,
      "Ġdiscip": 6303,
      "Ġmile": 6304,
      "unch": 6305,
      "ĠFederal": 6306,
      "Ġmamm": 6307,
      "ura": 6308,
      "Ġ85": 6309,
      "Ġdepict": 6310,
      "Ġsuffering": 6311,
      "Ġdiscussed": 6312,
      "Ġneighbor": 6313,
      "iana": 6314,
      "Ġjump": 6315,
      "Ġdoor": 6316,
      "ĠVictoria": 6317,
      "ĠBurn": 6318,
      "ĠJon": 6319,
      "Ġarrival": 6320,
      "ĠUse": 6321,
      "Ġzone": 6322,
      "Ġengineering": 6323,
      "Ġhabitat": 6324,
      "Ġperiods": 6325,
      "Ġfunds": 6326,
      "Ex": 6327,
      "asure": 6328,
      "ĠBush": 6329,
      "Ġnotice": 6330,
      "ĠMassachusetts": 6331,
      "Ġsell": 6332,
      "aria": 6333,
      "Ġminimum": 6334,
      "Ġfemales": 6335,
      "Ġju": 6336,
      "Ġvolcan": 6337,
      "Ġlanguages": 6338,
      "ĠNH": 6339,
      "Ġactor": 6340,
      "Ġhighlight": 6341,
      "rep": 6342,
      "asks": 6343,
      "utation": 6344,
      "Ġdesigns": 6345,
      "Ġcorpor": 6346,
      "ĠScient": 6347,
      "Ġdefinition": 6348,
      "ĠHard": 6349,
      "ĠOhio": 6350,
      "Ġsudden": 6351,
      "ĠMov": 6352,
      "ĠBBC": 6353,
      "Ġgoods": 6354,
      "Ġvisible": 6355,
      "Ġgrown": 6356,
      "do": 6357,
      "ĠHomer": 6358,
      "Ġtowns": 6359,
      "Ġcab": 6360,
      "ĠDue": 6361,
      "nce": 6362,
      "Ġ120": 6363,
      "ulum": 6364,
      "ĠHal": 6365,
      "ĠFinal": 6366,
      "ocol": 6367,
      "itled": 6368,
      "Ġ1988": 6369,
      "ĠAlexander": 6370,
      "Ġagricultural": 6371,
      "ĠVen": 6372,
      "pan": 6373,
      "Ġinner": 6374,
      "iration": 6375,
      "Ġviewed": 6376,
      "Ġkg": 6377,
      "Ġearliest": 6378,
      "Ġsession": 6379,
      "ĠMah": 6380,
      "Ġdisturb": 6381,
      "ĠHurricane": 6382,
      "ĠIV": 6383,
      "Ġturning": 6384,
      "ĠCastle": 6385,
      "35": 6386,
      "Ġabsol": 6387,
      "Ġgradually": 6388,
      "Ġsettlement": 6389,
      "Ġphenomen": 6390,
      "75": 6391,
      "Ġtrip": 6392,
      "ĠRy": 6393,
      "resents": 6394,
      "ĠJenn": 6395,
      "ĠAlbert": 6396,
      "Ġemissions": 6397,
      "Ġcrime": 6398,
      "Ġderived": 6399,
      "Ġwounded": 6400,
      "Ġsector": 6401,
      "theless": 6402,
      "Ġindicated": 6403,
      "Ġarticles": 6404,
      "Ġmales": 6405,
      "icide": 6406,
      "Ġsalt": 6407,
      "Ġprofession": 6408,
      "Ġpurchase": 6409,
      "Ġaccompanied": 6410,
      "iox": 6411,
      "Ġbreed": 6412,
      "Ġcamera": 6413,
      "Ġ800": 6414,
      "mann": 6415,
      "oir": 6416,
      "Ġlose": 6417,
      "Ġgene": 6418,
      "à¸": 6419,
      "Ġrejected": 6420,
      "ba": 6421,
      "ĠTay": 6422,
      "Ġacres": 6423,
      "Ġcriticized": 6424,
      "ĠMiller": 6425,
      "ĠGro": 6426,
      "Ġoutput": 6427,
      "Ġguest": 6428,
      "Ġradiation": 6429,
      "ĠCambridge": 6430,
      "ĠHeart": 6431,
      "point": 6432,
      "ĠRog": 6433,
      "Ġimmune": 6434,
      "ĠSup": 6435,
      "Ġconservation": 6436,
      "Ġattached": 6437,
      "gian": 6438,
      "Ġrecru": 6439,
      "Ġperspective": 6440,
      "Ġwet": 6441,
      "Ġsections": 6442,
      "ĠShow": 6443,
      "Ġindependence": 6444,
      "Ã¨": 6445,
      "While": 6446,
      "Ġdifficulty": 6447,
      "Ġcarrying": 6448,
      "Ġrival": 6449,
      "Ġemployees": 6450,
      "mond": 6451,
      "uzz": 6452,
      "icon": 6453,
      "Ġprinciples": 6454,
      "Ġpret": 6455,
      "Ġlooks": 6456,
      "ĠOs": 6457,
      "\",": 6458,
      "uable": 6459,
      "Ġvitamin": 6460,
      "rams": 6461,
      "chest": 6462,
      "ĠBul": 6463,
      "ĠSecretary": 6464,
      "Ġclinical": 6465,
      "adelph": 6466,
      "Ġsan": 6467,
      "aga": 6468,
      "Ġtwelve": 6469,
      "Ġnutri": 6470,
      "Ġwidespread": 6471,
      "Ġmit": 6472,
      "ĠConference": 6473,
      "ĠIndust": 6474,
      "Ġproport": 6475,
      "Ġmonit": 6476,
      "ĠDaniel": 6477,
      "ctic": 6478,
      "ĠConstitution": 6479,
      "Ġexclus": 6480,
      "Ġcomposition": 6481,
      "Ġopposite": 6482,
      "ĠSS": 6483,
      "Ġperforming": 6484,
      "Ġrailway": 6485,
      "arant": 6486,
      "Ġnations": 6487,
      "ĠElizabeth": 6488,
      "By": 6489,
      "Ġ1943": 6490,
      "rition": 6491,
      "cknow": 6492,
      "Ġswim": 6493,
      "ĠEntertain": 6494,
      "Ġmerch": 6495,
      "Ġcolour": 6496,
      "Ġfan": 6497,
      "ĠCub": 6498,
      "ĠLabor": 6499,
      "Ġflooding": 6500,
      "BS": 6501,
      "With": 6502,
      "Ġfal": 6503,
      "ĠRh": 6504,
      "Ġentry": 6505,
      "hered": 6506,
      "ĠLine": 6507,
      "active": 6508,
      "ĠOlympic": 6509,
      "track": 6510,
      "Ġfaster": 6511,
      "ĠGirl": 6512,
      "ĠMedic": 6513,
      "Ġunderst": 6514,
      "ĠRegiment": 6515,
      "Ġequivalent": 6516,
      "Ġfamiliar": 6517,
      "Ġcrisis": 6518,
      "care": 6519,
      "Ġagree": 6520,
      "Ġdebate": 6521,
      "Ġ42": 6522,
      "Ġdepos": 6523,
      "ĠPolish": 6524,
      "Ġwithdraw": 6525,
      "bal": 6526,
      "onia": 6527,
      "ĠCa": 6528,
      "ether": 6529,
      "Ġexplore": 6530,
      "Ġcrossing": 6531,
      "Ġrear": 6532,
      "ella": 6533,
      "Ġinjuries": 6534,
      "Ġsemi": 6535,
      "Ġgenus": 6536,
      "atters": 6537,
      "Ġsurrender": 6538,
      "Ġaccounts": 6539,
      "Ġjobs": 6540,
      "Ġvulner": 6541,
      "Ġgather": 6542,
      "Ġsole": 6543,
      "hyth": 6544,
      "ĠMarsh": 6545,
      "Ġdismiss": 6546,
      "Ġvast": 6547,
      "Ġexplains": 6548,
      "Ġdocuments": 6549,
      "ĠFair": 6550,
      "Ġshaped": 6551,
      "Ġcommittee": 6552,
      "Ġdynam": 6553,
      "ĠAllied": 6554,
      "Ġheads": 6555,
      "Ġthin": 6556,
      "Ġstands": 6557,
      "Ġrepresents": 6558,
      "Ġdrinking": 6559,
      "45": 6560,
      "Ġtum": 6561,
      "Ġchain": 6562,
      "ĠVar": 6563,
      "Ġhang": 6564,
      "Ġgal": 6565,
      "Ġmedium": 6566,
      "Ġnav": 6567,
      "Ġdisorders": 6568,
      "adelphia": 6569,
      "ĠAst": 6570,
      "Ġflo": 6571,
      "Ġelectrical": 6572,
      "Ġfeelings": 6573,
      "Ġsubjects": 6574,
      "ĠPoint": 6575,
      "bi": 6576,
      "ellect": 6577,
      "ĠRam": 6578,
      "ĠVietnam": 6579,
      "Ġteen": 6580,
      "Ġphotograph": 6581,
      "Ġdisappe": 6582,
      "Ġorganic": 6583,
      "Ġinvolving": 6584,
      "Ġconsiderable": 6585,
      "itud": 6586,
      "Ġmode": 6587,
      "Ġstrategies": 6588,
      "Ġcasual": 6589,
      "ĠPrime": 6590,
      "Ġspend": 6591,
      "Ġcommitted": 6592,
      "Ġadjust": 6593,
      "ĠRetrieved": 6594,
      "ca": 6595,
      "ibl": 6596,
      "Ġpersons": 6597,
      "Ġdestruction": 6598,
      "ĠBart": 6599,
      "Ġinvolves": 6600,
      "ĠFrancisco": 6601,
      "Ġcraft": 6602,
      "ilit": 6603,
      "Ġnit": 6604,
      "ĠCop": 6605,
      "Ġintens": 6606,
      "unicip": 6607,
      "Ġfavour": 6608,
      "Ġimmediate": 6609,
      "rine": 6610,
      "Ġwonder": 6611,
      "Ġshif": 6612,
      "nership": 6613,
      "eler": 6614,
      "alls": 6615,
      "Ġacknow": 6616,
      "Ġha": 6617,
      "ĠLes": 6618,
      "ĠAvenue": 6619,
      "ĠPak": 6620,
      "Ġagent": 6621,
      "ĠHolly": 6622,
      "Ġarchitecture": 6623,
      "Ġreserv": 6624,
      "roid": 6625,
      "amental": 6626,
      "irt": 6627,
      "Ġsynd": 6628,
      "Ġseeing": 6629,
      "Ġbiggest": 6630,
      "Ġcoastal": 6631,
      "Ġtrav": 6632,
      "Ġsurf": 6633,
      "Ġoppon": 6634,
      "ĠDark": 6635,
      "Ġchildhood": 6636,
      "Ġnominated": 6637,
      "ĠEntertainment": 6638,
      "ĠMos": 6639,
      "yles": 6640,
      "ĠWhy": 6641,
      "ĠRoll": 6642,
      "Ġshop": 6643,
      "Ġfinish": 6644,
      "Ġexplan": 6645,
      "tenance": 6646,
      "Ġprincipal": 6647,
      "RE": 6648,
      "ĠLind": 6649,
      "ĠSupp": 6650,
      "Ġfrequency": 6651,
      "Ġneuro": 6652,
      "wing": 6653,
      "ĠWars": 6654,
      "ĠNAS": 6655,
      "Ġinstalled": 6656,
      "Ġcontroll": 6657,
      "pton": 6658,
      "ampion": 6659,
      "ĠHarrison": 6660,
      "ĠPhiladelphia": 6661,
      "Ġclimb": 6662,
      "Ġthemes": 6663,
      "ĠCroat": 6664,
      "Ġpp": 6665,
      "ĠRay": 6666,
      "Ġlung": 6667,
      "abled": 6668,
      "Ġnormally": 6669,
      "ĠMeanwhile": 6670,
      "Ġbriefly": 6671,
      "Ġyield": 6672,
      "agan": 6673,
      "Ġlibrary": 6674,
      "ĠAri": 6675,
      "aked": 6676,
      "overty": 6677,
      "Ġwrites": 6678,
      "Ġowners": 6679,
      "Ġpitch": 6680,
      "Ġconqu": 6681,
      "inth": 6682,
      "Ġevac": 6683,
      "Ġimpossible": 6684,
      "Ġexpensive": 6685,
      "ĠHarry": 6686,
      "Ġlegislation": 6687,
      "ĠMoon": 6688,
      "Ġ1985": 6689,
      "Ġreduction": 6690,
      "Ġexcellent": 6691,
      "Ġmeasured": 6692,
      "TS": 6693,
      "ĠSpring": 6694,
      "ivation": 6695,
      "ulating": 6696,
      "ogle": 6697,
      "Ġrestrict": 6698,
      "Ġburied": 6699,
      "Ġcircumst": 6700,
      "ĠCommand": 6701,
      "idges": 6702,
      "ĠWhe": 6703,
      "ĠAndrew": 6704,
      "Ġpurchased": 6705,
      "etime": 6706,
      "ulpt": 6707,
      "Ġoccas": 6708,
      "Ġrecognition": 6709,
      "col": 6710,
      "Ġ66": 6711,
      "ivered": 6712,
      "ĠImp": 6713,
      "Ġmanage": 6714,
      "Ġ41": 6715,
      "ses": 6716,
      "Ġoccupied": 6717,
      "ĠForest": 6718,
      "okes": 6719,
      "Ġgenes": 6720,
      "Ġdepartment": 6721,
      "ĠSix": 6722,
      "ĠWho": 6723,
      "ogy": 6724,
      "ĠIndones": 6725,
      "Ġstopped": 6726,
      "ĠDirector": 6727,
      "ĠNaz": 6728,
      "Ġsimpl": 6729,
      "ĠEmperor": 6730,
      "friend": 6731,
      "Ġresource": 6732,
      "Ġconverted": 6733,
      "PS": 6734,
      "Ġdescription": 6735,
      "Ġtoxic": 6736,
      "iy": 6737,
      "Ġpossess": 6738,
      "Ġvital": 6739,
      "Ġ56": 6740,
      "Ġplate": 6741,
      "Ġtele": 6742,
      "pool": 6743,
      "ĠMot": 6744,
      "Ġpractical": 6745,
      "orous": 6746,
      "Ġneither": 6747,
      "Ġenjoyed": 6748,
      "Ġsin": 6749,
      "ĠMid": 6750,
      "ĠPC": 6751,
      "Ġru": 6752,
      "pert": 6753,
      "ĠPhys": 6754,
      "no": 6755,
      "ĠLo": 6756,
      "Ġjustice": 6757,
      "ĠMedical": 6758,
      "Ġphone": 6759,
      "Ġassociation": 6760,
      "body": 6761,
      "aser": 6762,
      "ĠTurn": 6763,
      "OC": 6764,
      "Ġprocessing": 6765,
      "Ġargument": 6766,
      "Ġton": 6767,
      "Ġpreced": 6768,
      "Ġproperly": 6769,
      "IA": 6770,
      "ĠColl": 6771,
      "Ġcalc": 6772,
      "ĠGeorgia": 6773,
      "apore": 6774,
      "Ġretired": 6775,
      "Ġille": 6776,
      "Ġphr": 6777,
      "Ġaired": 6778,
      "isa": 6779,
      "ĠHun": 6780,
      "ĠEnergy": 6781,
      "Ġtrained": 6782,
      "box": 6783,
      "ĠSR": 6784,
      "iger": 6785,
      "Ġnone": 6786,
      "Ġbear": 6787,
      "Ġprovince": 6788,
      "Ġmyster": 6789,
      "Ġfacility": 6790,
      "ĠCre": 6791,
      "Ġtournament": 6792,
      "Ġthousand": 6793,
      "Ġstrongly": 6794,
      "Ġcloser": 6795,
      "Ġthreatened": 6796,
      "Ġdrawing": 6797,
      "Ġkick": 6798,
      "ificial": 6799,
      "Ġsky": 6800,
      "cribed": 6801,
      "Ġgenerated": 6802,
      "Ġtrials": 6803,
      "Ġhousing": 6804,
      "ĠFleet": 6805,
      "iac": 6806,
      "ails": 6807,
      "âĢĿ,": 6808,
      "Ġinstrument": 6809,
      "riers": 6810,
      "Ġ54": 6811,
      "Ġlies": 6812,
      "Ġsettled": 6813,
      "Ġgone": 6814,
      "ĠFood": 6815,
      "Ġrub": 6816,
      "Ġchapter": 6817,
      "Ġmoral": 6818,
      "Ġpull": 6819,
      "They": 6820,
      "Ġfoundation": 6821,
      "Ġ1984": 6822,
      "ĠTherefore": 6823,
      "ommod": 6824,
      "Ġcertainly": 6825,
      "aturally": 6826,
      "Ġcreative": 6827,
      "ĠFoundation": 6828,
      "orrow": 6829,
      "Ġ250": 6830,
      "Ġdelivered": 6831,
      "Ġwick": 6832,
      "uts": 6833,
      "Ġboats": 6834,
      "Ġcorner": 6835,
      "Ġsight": 6836,
      "ĠDisc": 6837,
      "ĠArg": 6838,
      "sey": 6839,
      "inding": 6840,
      "Ġconclusion": 6841,
      "Ġelectronic": 6842,
      "rav": 6843,
      "ĠPu": 6844,
      "Ġevening": 6845,
      "Ġarchae": 6846,
      "Ġplane": 6847,
      "Ġsusp": 6848,
      "chers": 6849,
      "Ġformat": 6850,
      "Ġspin": 6851,
      "Ġalbums": 6852,
      "Ġhappy": 6853,
      "Ġdescend": 6854,
      "ĠClark": 6855,
      "hi": 6856,
      "ieval": 6857,
      "ockey": 6858,
      "coming": 6859,
      "chang": 6860,
      "Ġplastic": 6861,
      "Ph": 6862,
      "Ġtitles": 6863,
      "osystem": 6864,
      "Ġdates": 6865,
      "Ġdispl": 6866,
      "Some": 6867,
      "inder": 6868,
      "ĠLeg": 6869,
      "Ġdecor": 6870,
      "rant": 6871,
      "ownt": 6872,
      "ĠUnivers": 6873,
      "Ġoldest": 6874,
      "Ġcrown": 6875,
      "rogen": 6876,
      "Ġcategory": 6877,
      "ĠSuch": 6878,
      "Ġcharged": 6879,
      "Ġsamples": 6880,
      "inations": 6881,
      "Ġrand": 6882,
      "Ġactors": 6883,
      "Ġclassroom": 6884,
      "Ġsomewhat": 6885,
      "Ġproteins": 6886,
      "HE": 6887,
      "ĠBey": 6888,
      "emic": 6889,
      "ĠOffic": 6890,
      "Ġgovernments": 6891,
      "Ġbusinesses": 6892,
      "ags": 6893,
      "Ġanxiety": 6894,
      "power": 6895,
      "Ġlin": 6896,
      "olt": 6897,
      "aka": 6898,
      "Ġapproaches": 6899,
      "Ġassessment": 6900,
      "Ġscheduled": 6901,
      "All": 6902,
      "Ġdeck": 6903,
      "ĠLow": 6904,
      "Ġapprec": 6905,
      "Ġtested": 6906,
      "itter": 6907,
      "weight": 6908,
      "Ġ2017": 6909,
      "36": 6910,
      "rating": 6911,
      "Ġthrow": 6912,
      "Ġexternal": 6913,
      "pir": 6914,
      "zing": 6915,
      "Ġmir": 6916,
      "Ġalg": 6917,
      "ĠOperation": 6918,
      "gend": 6919,
      "Ġpassage": 6920,
      "Ġsurvive": 6921,
      "Ġconsecutive": 6922,
      "Ġwants": 6923,
      "ĠUr": 6924,
      "Ġbringing": 6925,
      "fe": 6926,
      "ĠMir": 6927,
      "athy": 6928,
      "Ġsucceeded": 6929,
      "ĠWell": 6930,
      "Ġveter": 6931,
      "Ġroots": 6932,
      "Ġholds": 6933,
      "Ġstruggle": 6934,
      "Ġdatab": 6935,
      "Ġneck": 6936,
      "ĠSingapore": 6937,
      "ĠIndians": 6938,
      "Ġentertain": 6939,
      "Ġpotentially": 6940,
      "Ġseemed": 6941,
      "ĠAdditionally": 6942,
      "OT": 6943,
      "erted": 6944,
      "Ġfarmers": 6945,
      "ranean": 6946,
      "ĠKennedy": 6947,
      "Ġoperate": 6948,
      "Ġheadquarters": 6949,
      "Ġhappens": 6950,
      "ĠTaylor": 6951,
      "Ġdebuted": 6952,
      "Ġrandom": 6953,
      "Ġconscious": 6954,
      "Ġ1939": 6955,
      "Ġsquadron": 6956,
      "ĠJean": 6957,
      "Be": 6958,
      "Ġcoordin": 6959,
      "Ġsignal": 6960,
      "Ġcommissioned": 6961,
      "yer": 6962,
      "ĠLewis": 6963,
      "ĠAk": 6964,
      "Ġconcepts": 6965,
      "ĠMicro": 6966,
      "Ġupgr": 6967,
      "issance": 6968,
      "Ġparticipate": 6969,
      "ĠBetween": 6970,
      "ban": 6971,
      "Ġsuitable": 6972,
      "racy": 6973,
      "ĠLibrary": 6974,
      "ĠIndepend": 6975,
      "ĠGermans": 6976,
      "ĠSupreme": 6977,
      "Ġcited": 6978,
      "ĠAsh": 6979,
      "hus": 6980,
      "Ġax": 6981,
      "Ġearn": 6982,
      "Ġboys": 6983,
      "illy": 6984,
      "Ġinvestment": 6985,
      "yd": 6986,
      "Ġsatell": 6987,
      "Ġcomponent": 6988,
      "Ġunusual": 6989,
      "isp": 6990,
      "Ġprol": 6991,
      "ĠWW": 6992,
      "Ġforests": 6993,
      "Ġcrops": 6994,
      "aya": 6995,
      "Ġvac": 6996,
      "Ġintellect": 6997,
      "ĠJr": 6998,
      "Ġpump": 6999,
      "ortunately": 7000,
      "Ġfrequent": 7001,
      "Ġorient": 7002,
      "Ġflex": 7003,
      "MA": 7004,
      "Ġentitled": 7005,
      "ache": 7006,
      "ints": 7007,
      "grad": 7008,
      "orus": 7009,
      "ĠDig": 7010,
      "asters": 7011,
      "Ġpersonnel": 7012,
      "Ġ1914": 7013,
      "eenth": 7014,
      "Ġpip": 7015,
      "Ġwarning": 7016,
      "ĠBeat": 7017,
      "ĠScottish": 7018,
      "ĠMike": 7019,
      "Ġsculpt": 7020,
      "Ġrelevant": 7021,
      "Ġgrounds": 7022,
      "Ġvan": 7023,
      "rix": 7024,
      "Ġrisks": 7025,
      "Ġunion": 7026,
      "Ġouter": 7027,
      "Ġcogn": 7028,
      "Ġsinging": 7029,
      "opher": 7030,
      "Ġpopularity": 7031,
      "rans": 7032,
      "Ġlinks": 7033,
      "Ġlegs": 7034,
      "ĠFootball": 7035,
      "Ġexperts": 7036,
      "Ġrefuge": 7037,
      "Ġengines": 7038,
      "Ġment": 7039,
      "Ġfundamental": 7040,
      "oto": 7041,
      "Ġdrama": 7042,
      "Ġphilosophy": 7043,
      "Ġhaz": 7044,
      "ĠInit": 7045,
      "Ġinterchange": 7046,
      "Ġprepare": 7047,
      "uster": 7048,
      "Ġmaintenance": 7049,
      "emble": 7050,
      "Ġpartner": 7051,
      "Ġserves": 7052,
      "inction": 7053,
      "Ġgross": 7054,
      "Ġwhereas": 7055,
      "aver": 7056,
      "cell": 7057,
      "Ġvalid": 7058,
      "ĠBal": 7059,
      "ropol": 7060,
      "Ġsuperior": 7061,
      "Ġrebu": 7062,
      "ĠMaryland": 7063,
      "uter": 7064,
      "ĠRoss": 7065,
      "atever": 7066,
      "Ġsurvived": 7067,
      "ĠPhilipp": 7068,
      "Ġliterary": 7069,
      "Ġtalking": 7070,
      "isers": 7071,
      "ĠPle": 7072,
      "Ġcomments": 7073,
      "Ġcann": 7074,
      "Ġ53": 7075,
      "Ġentering": 7076,
      "Ġvictims": 7077,
      "ĠWalter": 7078,
      "pet": 7079,
      "Ġowner": 7080,
      "Ġinjured": 7081,
      "Ġencourage": 7082,
      "jo": 7083,
      "Ġsolutions": 7084,
      "eder": 7085,
      "osm": 7086,
      "rastructure": 7087,
      "ĠRepublican": 7088,
      "Ġtrail": 7089,
      "Ġconcrete": 7090,
      "ibilities": 7091,
      "Ġreputation": 7092,
      "Ġmulti": 7093,
      "ĠMedia": 7094,
      "Ġdistributed": 7095,
      "Sh": 7096,
      "Ġlake": 7097,
      "ĠJersey": 7098,
      "arsh": 7099,
      "Ġcrim": 7100,
      "Ġinvestigation": 7101,
      "iva": 7102,
      "Ġbiological": 7103,
      "Ġaccurate": 7104,
      "ĠSunday": 7105,
      "Ġaccommod": 7106,
      "Ġpictures": 7107,
      "acher": 7108,
      "Ġcolors": 7109,
      "ader": 7110,
      "Ġstable": 7111,
      "aph": 7112,
      "Ġ99": 7113,
      "Ġ178": 7114,
      "uct": 7115,
      "Ġlisten": 7116,
      "worth": 7117,
      "ĠBible": 7118,
      "ĠFestival": 7119,
      "aska": 7120,
      "ira": 7121,
      "Ġprices": 7122,
      "Ġbones": 7123,
      "ĠSat": 7124,
      "Ġstead": 7125,
      "ĠHan": 7126,
      "Ġceremony": 7127,
      "ador": 7128,
      "ĠBab": 7129,
      "iations": 7130,
      "ĠEarl": 7131,
      "Ġcriticism": 7132,
      "Ġwaves": 7133,
      "Ġbrothers": 7134,
      "Ġbegun": 7135,
      "ifies": 7136,
      "ocated": 7137,
      "Ġabund": 7138,
      "Ġworst": 7139,
      "Ġblog": 7140,
      "Ġinfections": 7141,
      "real": 7142,
      "Ġsingles": 7143,
      "Ġ1979": 7144,
      "ĠChart": 7145,
      "Ġappeal": 7146,
      "Ġparticles": 7147,
      "Ġmounted": 7148,
      "Ġassumed": 7149,
      "GN": 7150,
      "Ġfer": 7151,
      "ĠFree": 7152,
      "ĠUt": 7153,
      "apse": 7154,
      "Ġsolo": 7155,
      "Ġbehaviour": 7156,
      "Ġnotable": 7157,
      "sts": 7158,
      "Ġconcentration": 7159,
      "lick": 7160,
      "Ġobtain": 7161,
      "Un": 7162,
      "amil": 7163,
      "Ġplease": 7164,
      "Ġduty": 7165,
      "Ġtick": 7166,
      "Ġappearances": 7167,
      "Ġsurvival": 7168,
      "76": 7169,
      "orph": 7170,
      "Ġfavorite": 7171,
      "Ġinstruments": 7172,
      "After": 7173,
      "elly": 7174,
      "Ġ1964": 7175,
      "Ġseparated": 7176,
      "Ġawareness": 7177,
      "Ġbought": 7178,
      "Ġextension": 7179,
      "Ġ76": 7180,
      "Ġabuse": 7181,
      "Ġ1982": 7182,
      "Ġprocedure": 7183,
      "igure": 7184,
      "ĠLady": 7185,
      "Ġsituations": 7186,
      "Ġdrew": 7187,
      "Ġcoff": 7188,
      "Ġdeclined": 7189,
      "Ġsteam": 7190,
      "ĠBern": 7191,
      "Ġcontribute": 7192,
      "Ġinsects": 7193,
      "ĠNASA": 7194,
      "Ġtherm": 7195,
      "Ġentrance": 7196,
      "Station": 7197,
      "ĠHIV": 7198,
      "Ġlem": 7199,
      "Ġrising": 7200,
      "ĠBarb": 7201,
      "Ġcopy": 7202,
      "Ġdoubt": 7203,
      "AD": 7204,
      "ashed": 7205,
      "Ġhem": 7206,
      "Ġpretty": 7207,
      "spe": 7208,
      "Ġnick": 7209,
      "Ġcong": 7210,
      "ĠFire": 7211,
      "otype": 7212,
      "Ġtact": 7213,
      "Ġshift": 7214,
      "Ġoutbreak": 7215,
      "Ġdrink": 7216,
      "uccess": 7217,
      "ĠBack": 7218,
      "ĠPass": 7219,
      "ĠAsian": 7220,
      "Ġ160": 7221,
      "Ġtopics": 7222,
      "Ġtorpedo": 7223,
      "Ġ1918": 7224,
      "Ġcustom": 7225,
      "ĠFamily": 7226,
      "ĠHitler": 7227,
      "Ġfur": 7228,
      "Ġ1975": 7229,
      "Ġ1969": 7230,
      "Ġvisitors": 7231,
      "ĠOlympics": 7232,
      "Ġrecovery": 7233,
      "Ġseventh": 7234,
      "burgh": 7235,
      "Ġoffensive": 7236,
      "Ġprovin": 7237,
      "apping": 7238,
      "Ġ1967": 7239,
      "ĠColorado": 7240,
      "itual": 7241,
      "Ġseeds": 7242,
      "Ġengage": 7243,
      "ĠPortug": 7244,
      "Ġdollars": 7245,
      "car": 7246,
      "Ġrarely": 7247,
      "using": 7248,
      "Ġestate": 7249,
      "Ġcourts": 7250,
      "Ġwindow": 7251,
      "ET": 7252,
      "Ġreaders": 7253,
      "Ġ1971": 7254,
      "ht": 7255,
      "Ġrivers": 7256,
      "ogether": 7257,
      "ĠTech": 7258,
      "Ġhistoric": 7259,
      "aki": 7260,
      "ĠThose": 7261,
      "eor": 7262,
      "western": 7263,
      "Ġprohib": 7264,
      "Ġexception": 7265,
      "Ġroutes": 7266,
      "ĠSound": 7267,
      "ĠBroad": 7268,
      "ĠRhod": 7269,
      "opes": 7270,
      "Ġrose": 7271,
      "iterranean": 7272,
      "Ġfolk": 7273,
      "ĠBon": 7274,
      "Ġthoughts": 7275,
      "Ġcolleagues": 7276,
      "Ġ*": 7277,
      "ĠST": 7278,
      "Ġvon": 7279,
      "Ġmoves": 7280,
      "ĠWalk": 7281,
      "estyle": 7282,
      "Ġstrengthen": 7283,
      "ĠPlayStation": 7284,
      "Ġscheme": 7285,
      "38": 7286,
      "ilation": 7287,
      "aware": 7288,
      "Ġclassic": 7289,
      "ĠRights": 7290,
      "olve": 7291,
      "Ġgrav": 7292,
      "Ġdiagnosis": 7293,
      "Ġunderstood": 7294,
      "ele": 7295,
      "Ġ1968": 7296,
      "Ġproposal": 7297,
      "Ġkilometres": 7298,
      "Ġinformed": 7299,
      "Ġfacing": 7300,
      "Ġbaseball": 7301,
      "Ġprisoners": 7302,
      "ĠStat": 7303,
      "Ġflower": 7304,
      "Ġexplo": 7305,
      "Ġpercentage": 7306,
      "agle": 7307,
      "ĠKey": 7308,
      "Ġmilit": 7309,
      "Ġestablishment": 7310,
      "ĠKorea": 7311,
      "rot": 7312,
      "ĠStation": 7313,
      "phone": 7314,
      "Ġethnic": 7315,
      "Ġmoist": 7316,
      "uan": 7317,
      "ĠUSA": 7318,
      "Ġearthqu": 7319,
      "Ġmobile": 7320,
      "Ġliquid": 7321,
      "Ġwars": 7322,
      "shire": 7323,
      "ĠMic": 7324,
      "ĠNetwork": 7325,
      "ket": 7326,
      "Ġsick": 7327,
      "ati": 7328,
      "ĠLive": 7329,
      "ervative": 7330,
      "Ġtouchdown": 7331,
      "BN": 7332,
      "ĠAS": 7333,
      "owing": 7334,
      "Ġforming": 7335,
      "Ġdriven": 7336,
      "ĠNorway": 7337,
      "Ġisolated": 7338,
      "Ġlandscape": 7339,
      "ĠSummer": 7340,
      "chen": 7341,
      "Ġbot": 7342,
      "Ġmine": 7343,
      "Ġages": 7344,
      "aired": 7345,
      "cient": 7346,
      "ture": 7347,
      "insula": 7348,
      "Ġprinciple": 7349,
      "Ġnarrative": 7350,
      "Ġinher": 7351,
      "ela": 7352,
      "Ġlect": 7353,
      "Ġresolution": 7354,
      "Ġsoundtrack": 7355,
      "eles": 7356,
      "Ġagency": 7357,
      "ĠMediterranean": 7358,
      "Ġmoon": 7359,
      "ĠNight": 7360,
      "Ġconsisting": 7361,
      "Ġhip": 7362,
      "aret": 7363,
      "Ġcharts": 7364,
      "Ġencouraged": 7365,
      "Ġvocals": 7366,
      "Ġbelieves": 7367,
      "Ġwearing": 7368,
      "Ġmarine": 7369,
      "Ġcampus": 7370,
      "Ġobst": 7371,
      "elson": 7372,
      "Ġcomparison": 7373,
      "Ġconsequences": 7374,
      "avery": 7375,
      "lishing": 7376,
      "ĠTechnology": 7377,
      "ĠBond": 7378,
      "ĠKir": 7379,
      "ĠKnow": 7380,
      "idelines": 7381,
      "lan": 7382,
      "asp": 7383,
      "acent": 7384,
      "Ġintention": 7385,
      "Ġspending": 7386,
      "Ġenemies": 7387,
      "wall": 7388,
      "ordan": 7389,
      "tendo": 7390,
      "Ġtemporary": 7391,
      "Ġposted": 7392,
      "ĠSn": 7393,
      "ĠCirc": 7394,
      "ĠBan": 7395,
      "ĠNic": 7396,
      "erman": 7397,
      "ĠLiver": 7398,
      "iller": 7399,
      "indu": 7400,
      "Ġdress": 7401,
      "Ġ1983": 7402,
      "Ġchemicals": 7403,
      "ĠMedicine": 7404,
      "Ġpartnership": 7405,
      "Ġseeking": 7406,
      "ĠNintendo": 7407,
      "ivated": 7408,
      "Ġfossil": 7409,
      "Ġpollution": 7410,
      "Ġcircumstances": 7411,
      "Ġpoverty": 7412,
      "Ġcomedy": 7413,
      "ĠJun": 7414,
      "ĠKim": 7415,
      "ĠCE": 7416,
      "Ġfewer": 7417,
      "ĠGolden": 7418,
      "ĠTurk": 7419,
      "ĠDown": 7420,
      "iary": 7421,
      "Ġfold": 7422,
      "Ġnaturally": 7423,
      "Ġ1973": 7424,
      "ĠOrder": 7425,
      "Ġadopt": 7426,
      "Ġarranged": 7427,
      "ĠPsych": 7428,
      "Ġruled": 7429,
      "ĠArts": 7430,
      "ĠAdminist": 7431,
      "Ġvaluable": 7432,
      "Ġlimits": 7433,
      "ĠSyd": 7434,
      "Ġfib": 7435,
      "urches": 7436,
      "ĠIron": 7437,
      "Ġfixed": 7438,
      "Ġdisapp": 7439,
      "anger": 7440,
      "ĠGi": 7441,
      "ĠEs": 7442,
      "ĠAnth": 7443,
      "Ġextract": 7444,
      "ĠSimilar": 7445,
      "Ġcriminal": 7446,
      "dule": 7447,
      "Ġheaded": 7448,
      "Ġtub": 7449,
      "ester": 7450,
      "Ġerr": 7451,
      "37": 7452,
      "FL": 7453,
      "Ã¸": 7454,
      "Ġobservations": 7455,
      "Ġfalling": 7456,
      "Ġinflamm": 7457,
      "Ġunless": 7458,
      "Ġdisaster": 7459,
      "Ġclassified": 7460,
      "Ġ1972": 7461,
      "Ã¡n": 7462,
      "ito": 7463,
      "Ġstream": 7464,
      "Ġstored": 7465,
      "Ġeru": 7466,
      "Ġgiant": 7467,
      "apel": 7468,
      "irds": 7469,
      "ĠImperial": 7470,
      "ĠMexican": 7471,
      "Ġdemonstrated": 7472,
      "rets": 7473,
      "Ġpiano": 7474,
      "ĠHon": 7475,
      "Ġfacts": 7476,
      "inois": 7477,
      "ĠNether": 7478,
      "ĠProfessor": 7479,
      "Ġsons": 7480,
      "Ġcovers": 7481,
      "Ġmart": 7482,
      "Ġdecide": 7483,
      "Ġfalls": 7484,
      "ĠSteve": 7485,
      "Ġmand": 7486,
      "ules": 7487,
      "ĠPict": 7488,
      "osph": 7489,
      "ĠJane": 7490,
      "Ġtemple": 7491,
      "ĠGuide": 7492,
      "ĠMuslim": 7493,
      "Ġcricket": 7494,
      "ĠCape": 7495,
      "Ġ1948": 7496,
      "Ġwalking": 7497,
      "________": 7498,
      "Ġwasn": 7499,
      "Ġarts": 7500,
      "born": 7501,
      "fire": 7502,
      "Ġawards": 7503,
      "owed": 7504,
      "ĠPhilip": 7505,
      "Ġduties": 7506,
      "ĠHawai": 7507,
      "ographer": 7508,
      "Ġbass": 7509,
      "ĠAlab": 7510,
      "Ġinfantry": 7511,
      "Ġelectron": 7512,
      "ker": 7513,
      "ragon": 7514,
      "Ġoccasionally": 7515,
      "Ġprey": 7516,
      "ĠHMS": 7517,
      "ĠPy": 7518,
      "ĠBad": 7519,
      "ĠBalt": 7520,
      "ĠRod": 7521,
      "ects": 7522,
      "Ġintense": 7523,
      "ĠJoe": 7524,
      "Ġmuscles": 7525,
      "Ġjudge": 7526,
      "rimination": 7527,
      "after": 7528,
      "Ġmoderate": 7529,
      "cycl": 7530,
      "Ġdescribing": 7531,
      "Ġ1974": 7532,
      "Ġassistant": 7533,
      "Ġescort": 7534,
      "ideo": 7535,
      "avalry": 7536,
      "ĠKentucky": 7537,
      "Ġattributed": 7538,
      "Ġstood": 7539,
      "Ġstick": 7540,
      "aks": 7541,
      "Ġfluid": 7542,
      "Ġinstitution": 7543,
      "Ġsoutheast": 7544,
      "ĠHospital": 7545,
      "Ġ57": 7546,
      "ĠAuthor": 7547,
      "Ġresponded": 7548,
      "Ġsessions": 7549,
      "Ġclim": 7550,
      "oken": 7551,
      "Ġstreets": 7552,
      "Ġabsence": 7553,
      "ĠStudents": 7554,
      "ĠDougl": 7555,
      "Ġinput": 7556,
      "Ġdensity": 7557,
      "Ġnerv": 7558,
      "ĠBrian": 7559,
      "Ġrhyth": 7560,
      "Ġevil": 7561,
      "Ġ700": 7562,
      "Ġsmooth": 7563,
      "Ġguarant": 7564,
      "Ġasking": 7565,
      "Ġcrucial": 7566,
      "ĠMadonna": 7567,
      "Ġcolonial": 7568,
      "ĠPit": 7569,
      "ĠNature": 7570,
      "wan": 7571,
      "Ġsupplement": 7572,
      "Ġreturns": 7573,
      "ĠAnderson": 7574,
      "Ġsuffer": 7575,
      "Ġdecrease": 7576,
      "ĠOpen": 7577,
      "Ġneighborhood": 7578,
      "Ġbes": 7579,
      "Ġmodified": 7580,
      "Ġparliament": 7581,
      "ĠAlabama": 7582,
      "Ġtoler": 7583,
      "inton": 7584,
      "Ġkingdom": 7585,
      "Ġham": 7586,
      "ĠBall": 7587,
      "Ġdefence": 7588,
      "yright": 7589,
      "Ġefficiency": 7590,
      "Ġrepair": 7591,
      "ĠJustice": 7592,
      "Ġ58": 7593,
      "azing": 7594,
      "Ġtasks": 7595,
      "Ġdust": 7596,
      "athan": 7597,
      "Ġecosystem": 7598,
      "39": 7599,
      "Ġdiversity": 7600,
      "ĠAlbum": 7601,
      "Ġ1965": 7602,
      "Ġnucle": 7603,
      "ĠNorman": 7604,
      "pat": 7605,
      "ulture": 7606,
      "Ġ51": 7607,
      "Ġdefensive": 7608,
      "Ġpointed": 7609,
      "hedral": 7610,
      "ĠColonel": 7611,
      "Â°": 7612,
      "ĠDub": 7613,
      "Ġ1946": 7614,
      "ĠCentre": 7615,
      "Ġspons": 7616,
      "Ġinterior": 7617,
      "Ġ96": 7618,
      "ĠSym": 7619,
      "imet": 7620,
      "Ġsubmar": 7621,
      "Ġfilming": 7622,
      "Ġcollaboration": 7623,
      "Ġtanks": 7624,
      "Ġ59": 7625,
      "Ġminister": 7626,
      "alities": 7627,
      "uman": 7628,
      "ĠTemple": 7629,
      "Ġalter": 7630,
      "Ġwilling": 7631,
      "Ġinfrastructure": 7632,
      "ĠMaria": 7633,
      "Ġconsistent": 7634,
      "Ġconventional": 7635,
      "Ġhired": 7636,
      "ĠHoly": 7637,
      "ĠGet": 7638,
      "ĠLi": 7639,
      "Ġuniform": 7640,
      "Ġsacr": 7641,
      "ĠLieutenant": 7642,
      "ficial": 7643,
      "CO": 7644,
      "gers": 7645,
      "ĠTropical": 7646,
      "ami": 7647,
      "Ġ1976": 7648,
      "Ġsustained": 7649,
      "Ġliver": 7650,
      "ĠExt": 7651,
      "Ġbreaking": 7652,
      "borne": 7653,
      "Ġwooden": 7654,
      "andy": 7655,
      "Ġcontrols": 7656,
      "Ġindicates": 7657,
      "usal": 7658,
      "ĠMain": 7659,
      "ĠJordan": 7660,
      "Ġfacilit": 7661,
      "Ġsynthes": 7662,
      "Ġkinds": 7663,
      "ĠIllinois": 7664,
      "Ġsubstantial": 7665,
      "Ġwatched": 7666,
      "Ġbran": 7667,
      "Ġcrossed": 7668,
      "Ġcredited": 7669,
      "Ġfalse": 7670,
      "sm": 7671,
      "Ġmanufactur": 7672,
      "Ġinhabit": 7673,
      "Ġrender": 7674,
      "Ġcirculation": 7675,
      "Ġvegetables": 7676,
      "Ġagriculture": 7677,
      "Ġtex": 7678,
      "Ġpersu": 7679,
      "hist": 7680,
      "onc": 7681,
      "Ġreserve": 7682,
      "Ġrelie": 7683,
      "US": 7684,
      "xual": 7685,
      "Ġ52": 7686,
      "Ġmining": 7687,
      "ĠAdam": 7688,
      "Ġlasted": 7689,
      "ĠRadio": 7690,
      "ais": 7691,
      "bra": 7692,
      "ĠGreg": 7693,
      "Ġ1916": 7694,
      "Ġdiverse": 7695,
      "olph": 7696,
      "ailed": 7697,
      "ĠArthur": 7698,
      "Ġcurric": 7699,
      "Ġ1917": 7700,
      "Ġswitch": 7701,
      "umps": 7702,
      "ultane": 7703,
      "lav": 7704,
      "Ġaren": 7705,
      "ĠKong": 7706,
      "Ġcontest": 7707,
      "Ġfishing": 7708,
      "owntown": 7709,
      "ĠDog": 7710,
      "Ġpron": 7711,
      "ĠRhodes": 7712,
      "ĠByz": 7713,
      "Ġconvin": 7714,
      "ocracy": 7715,
      "Ġdifficulties": 7716,
      "Ġnurs": 7717,
      "Ġindeed": 7718,
      "ĠCorpor": 7719,
      "Ġhypothes": 7720,
      "norm": 7721,
      "Ġturb": 7722,
      "Ġwire": 7723,
      "ĠSomet": 7724,
      "Ġagents": 7725,
      "Ġaccum": 7726,
      "Ġsentence": 7727,
      "Ġemployment": 7728,
      "Ġhoriz": 7729,
      "Ġrenamed": 7730,
      "34": 7731,
      "ĠEconom": 7732,
      "Ġrig": 7733,
      "Ġafford": 7734,
      "Ġthirty": 7735,
      "ĠSydney": 7736,
      "Ġrated": 7737,
      "Ġshore": 7738,
      "Ġhill": 7739,
      "Ġspoke": 7740,
      "Ġmissions": 7741,
      "ĠKorean": 7742,
      "Ġreinforce": 7743,
      "Ġpounds": 7744,
      "Ġdipl": 7745,
      "Ġsensitive": 7746,
      "Ġuncertain": 7747,
      "Ġtransportation": 7748,
      "Ġhunting": 7749,
      "arks": 7750,
      "RO": 7751,
      "Ġgap": 7752,
      "Ġprove": 7753,
      "Ġcomic": 7754,
      "Ġcourses": 7755,
      "with": 7756,
      "Ġtorn": 7757,
      "Ġfasc": 7758,
      "Ġemerged": 7759,
      "mers": 7760,
      "cope": 7761,
      "Ġorganisms": 7762,
      "Ġcopper": 7763,
      "Ġshooting": 7764,
      "bound": 7765,
      "eman": 7766,
      "Ġintent": 7767,
      "Ġsouthwest": 7768,
      "Le": 7769,
      "inally": 7770,
      "Ġpermission": 7771,
      "ĠDec": 7772,
      "Ġprotest": 7773,
      "Ġcomprehensive": 7774,
      "bro": 7775,
      "ĠPub": 7776,
      "ĠHand": 7777,
      "ĠNative": 7778,
      "Ġworse": 7779,
      "Ġfilmed": 7780,
      "Ġapproached": 7781,
      "Ġ<": 7782,
      "Ġinvited": 7783,
      "Ġmountains": 7784,
      "emeter": 7785,
      "name": 7786,
      "umed": 7787,
      "Ġcompens": 7788,
      "Ġretire": 7789,
      "Ġtempor": 7790,
      "Ġunsuccess": 7791,
      "rin": 7792,
      "Ġsale": 7793,
      "Ġwish": 7794,
      "Ġequipped": 7795,
      "ĠSquare": 7796,
      "Ġpregnancy": 7797,
      "esis": 7798,
      "ĠNap": 7799,
      "ĠUnlike": 7800,
      "Ġcutting": 7801,
      "EM": 7802,
      "Ġhits": 7803,
      "Ġinvent": 7804,
      "comes": 7805,
      "Ġexisted": 7806,
      "However": 7807,
      "Ġreconst": 7808,
      "Ġdomain": 7809,
      "Ġcul": 7810,
      "Ġholid": 7811,
      "Ġforth": 7812,
      "aints": 7813,
      "Ġgameplay": 7814,
      "ĠControl": 7815,
      "Ġfill": 7816,
      "Ġindu": 7817,
      "izer": 7818,
      "Ġrooms": 7819,
      "Ġ1981": 7820,
      "ĠAdv": 7821,
      "ĠWithin": 7822,
      "Ġsweet": 7823,
      "itudes": 7824,
      "heastern": 7825,
      "Ġpup": 7826,
      "arr": 7827,
      "ĠSaf": 7828,
      "Ġsuit": 7829,
      "aud": 7830,
      "Ġcharacterized": 7831,
      "Ġprogramme": 7832,
      "Ġarrested": 7833,
      "Ġhorm": 7834,
      "ĠAN": 7835,
      "unc": 7836,
      "Ġkit": 7837,
      "aren": 7838,
      "Ġaged": 7839,
      "Ġspr": 7840,
      "Ġmetab": 7841,
      "Ġcandidate": 7842,
      "Ġusual": 7843,
      "Ġincorporated": 7844,
      "BI": 7845,
      "asive": 7846,
      "Ġspaces": 7847,
      "ĠReport": 7848,
      "regon": 7849,
      "Ġblocks": 7850,
      "Ġhydrogen": 7851,
      "Ġsustainable": 7852,
      "ĠLiverpool": 7853,
      "ĠBang": 7854,
      "ĠStorm": 7855,
      "Ġ1966": 7856,
      "Ġwindows": 7857,
      "ĠIra": 7858,
      "ansas": 7859,
      "Ġjur": 7860,
      "oys": 7861,
      "Ġerror": 7862,
      "Ġben": 7863,
      "ĠBol": 7864,
      "Ġcontinuing": 7865,
      "Ġ1915": 7866,
      "ĠDaily": 7867,
      "achel": 7868,
      "Ġcharges": 7869,
      "Ġpainted": 7870,
      "Ġtribes": 7871,
      "Ġpoetry": 7872,
      "ĠSher": 7873,
      "ĠNob": 7874,
      "ĠNatural": 7875,
      "ĠMarine": 7876,
      "ls": 7877,
      "Ġadmitted": 7878,
      "bell": 7879,
      "Ġoral": 7880,
      "itzer": 7881,
      "Ġreplacement": 7882,
      "Ġlatest": 7883,
      "ups": 7884,
      "Ġmatters": 7885,
      "ĠAC": 7886,
      "Ġdriver": 7887,
      "vironments": 7888,
      "ĠStudios": 7889,
      "ĠDemocratic": 7890,
      "Ġongoing": 7891,
      "ĠPed": 7892,
      "Ġresemb": 7893,
      "Ġframe": 7894,
      "Ġassemb": 7895,
      "ĠSel": 7896,
      "Ġgro": 7897,
      "Ġtreatments": 7898,
      "According": 7899,
      "Ġdated": 7900,
      "ĠAssembly": 7901,
      "ĠObs": 7902,
      "Ġstring": 7903,
      "ĠEgyptian": 7904,
      "FA": 7905,
      "Ġstrict": 7906,
      "Ġmonitoring": 7907,
      "Ġclassification": 7908,
      "ĠPalest": 7909,
      "Ġsubstance": 7910,
      "Ġmanufacturing": 7911,
      "ĠReal": 7912,
      "Ġfiles": 7913,
      "ourage": 7914,
      "ĠRailway": 7915,
      "Ġfict": 7916,
      "Ġpapers": 7917,
      "Ġrecip": 7918,
      "ĠUsing": 7919,
      "ãģ": 7920,
      "Ġmood": 7921,
      "Ġclick": 7922,
      "Ġpoison": 7923,
      "Ġobjective": 7924,
      "Ġaffects": 7925,
      "Ġmunicip": 7926,
      "cules": 7927,
      "ĠEst": 7928,
      "Ġadapted": 7929,
      "ĠJacob": 7930,
      "ĠBos": 7931,
      "erto": 7932,
      "Ġhandle": 7933,
      "Ġdenied": 7934,
      "aire": 7935,
      "Ġere": 7936,
      "igate": 7937,
      "ĠFord": 7938,
      "Ġgenre": 7939,
      "Ġmillions": 7940,
      "Ġcasualties": 7941,
      "Ġwings": 7942,
      "Ġinvolvement": 7943,
      "Ġinspiration": 7944,
      "Ġ1919": 7945,
      "ĠOk": 7946,
      "Ġ74": 7947,
      "Ġexperiments": 7948,
      "Ġ1947": 7949,
      "ja": 7950,
      "ĠNon": 7951,
      "Ġtea": 7952,
      "Ġsmoke": 7953,
      "rait": 7954,
      "Ġacknowled": 7955,
      "sole": 7956,
      "ĠVis": 7957,
      "Ġlessons": 7958,
      "ographical": 7959,
      "Ġarc": 7960,
      "claimed": 7961,
      "ĠDream": 7962,
      "ĠLeon": 7963,
      "Ġpregnant": 7964,
      "77": 7965,
      "Ġfestival": 7966,
      "Ġfeeding": 7967,
      "Ġ68": 7968,
      "Ġintellectual": 7969,
      "iology": 7970,
      "Ġaqu": 7971,
      "Ġmos": 7972,
      "agen": 7973,
      "Ġsup": 7974,
      "Ġdanger": 7975,
      "Ġpin": 7976,
      "urrent": 7977,
      "otton": 7978,
      "Ġanticip": 7979,
      "uther": 7980,
      "ishment": 7981,
      "Ġintervention": 7982,
      "ĠBase": 7983,
      "Ġsees": 7984,
      "Ġcomputers": 7985,
      "Ġpanel": 7986,
      "emed": 7987,
      "Ġ2020": 7988,
      "Ġweakened": 7989,
      "Ġwel": 7990,
      "lee": 7991,
      "Ġtruly": 7992,
      "Ġsatisf": 7993,
      "Ġbats": 7994,
      "ali": 7995,
      "Ġcontinu": 7996,
      "ĠPoland": 7997,
      "ĠOregon": 7998,
      "Ġsharing": 7999,
      "Ġproduces": 8000,
      "Ġmedieval": 8001,
      "Ġinternet": 8002,
      "ĠSanta": 8003,
      "Ġgard": 8004,
      "Ġretained": 8005,
      "Ġrestric": 8006,
      "AM": 8007,
      "à¤": 8008,
      "gi": 8009,
      "hent": 8010,
      "ĠHou": 8011,
      "Ġimpacts": 8012,
      "ĠMountain": 8013,
      "Ġinteraction": 8014,
      "orld": 8015,
      "ĠNC": 8016,
      "ĠLast": 8017,
      "Ġinfected": 8018,
      "Ġoffering": 8019,
      "encing": 8020,
      "ilton": 8021,
      "Ġash": 8022,
      "Ġstudying": 8023,
      "Ġnetworks": 8024,
      "Ġsharp": 8025,
      "Ġmac": 8026,
      "ĠBand": 8027,
      "Ġchannel": 8028,
      "Ġcompounds": 8029,
      "Ġ130": 8030,
      "ĠHollywood": 8031,
      "Ġtiny": 8032,
      "Ġlowest": 8033,
      "Ġlaboratory": 8034,
      "fit": 8035,
      "zed": 8036,
      "Ġtied": 8037,
      "Ġoutl": 8038,
      "Ġcryst": 8039,
      "Here": 8040,
      "Ġstadium": 8041,
      "ĠES": 8042,
      "Ġartificial": 8043,
      "ĠManagement": 8044,
      "Ġburning": 8045,
      "Ġfranch": 8046,
      "ĠLin": 8047,
      "Ġexists": 8048,
      "Ġprev": 8049,
      "Ġaudio": 8050,
      "tery": 8051,
      "Ġ1963": 8052,
      "ĠStudies": 8053,
      "Ġorchest": 8054,
      "ĠAirport": 8055,
      "Ġmaintaining": 8056,
      "Äĥ": 8057,
      "icious": 8058,
      "ĠAI": 8059,
      "aws": 8060,
      "Ġslavery": 8061,
      "ĠISBN": 8062,
      "Ġdating": 8063,
      "Ġoverw": 8064,
      "ĠFive": 8065,
      "ĠAny": 8066,
      "Ġbattalion": 8067,
      "Ġemotions": 8068,
      "Ġneighb": 8069,
      "ĠHo": 8070,
      "ĠAlf": 8071,
      "Ġsupports": 8072,
      "ĠIndiana": 8073,
      "night": 8074,
      "Ġfab": 8075,
      "ĠFantasy": 8076,
      "Ġdelivery": 8077,
      "Ġfertil": 8078,
      "ĠCook": 8079,
      "Ġlesson": 8080,
      "Ġcovering": 8081,
      "Ġrepresenting": 8082,
      "fficient": 8083,
      "ĠMS": 8084,
      "Ġcolony": 8085,
      "Ġrestaur": 8086,
      "Ġtight": 8087,
      "erior": 8088,
      "onald": 8089,
      "Ġdemands": 8090,
      "ĠAgency": 8091,
      "Ġtaste": 8092,
      "Ġbanks": 8093,
      "ĠAcc": 8094,
      "Ġabilities": 8095,
      "Ġ78": 8096,
      "Ġvideos": 8097,
      "Ġprocedures": 8098,
      "Ġtips": 8099,
      "cho": 8100,
      "Ġreferences": 8101,
      "Ġtrouble": 8102,
      "Sp": 8103,
      "Ġpersonality": 8104,
      "Ġvessel": 8105,
      "Ġenvironments": 8106,
      "iner": 8107,
      "ĠMul": 8108,
      "ĠPur": 8109,
      "Ġleaf": 8110,
      "ector": 8111,
      "achment": 8112,
      "Ġsurviv": 8113,
      "Ġstayed": 8114,
      "ĠOttoman": 8115,
      "Ġpreferred": 8116,
      "ĠMatthew": 8117,
      "Ġsyndrome": 8118,
      "That": 8119,
      "Ġimmun": 8120,
      "Ġwatching": 8121,
      "osaurus": 8122,
      "Ġdatabase": 8123,
      "Ġimprovement": 8124,
      "Ġpassengers": 8125,
      "AP": 8126,
      "Ġbond": 8127,
      "Ġhal": 8128,
      "apped": 8129,
      "ĠMcG": 8130,
      "Ġintersection": 8131,
      "ĠDE": 8132,
      "Ġplus": 8133,
      "Ġdischar": 8134,
      "Ġcontinuous": 8135,
      "ĠSimon": 8136,
      "Ġsurrounded": 8137,
      "Ġstores": 8138,
      "ycl": 8139,
      "uma": 8140,
      "Ġpartly": 8141,
      "Ġevolved": 8142,
      "Ġgenerate": 8143,
      "Ġmarks": 8144,
      "Ġattracted": 8145,
      "Ġcertified": 8146,
      "iege": 8147,
      "Ġ110": 8148,
      "Ġoptim": 8149,
      "ĠIns": 8150,
      "Ġnoting": 8151,
      "iability": 8152,
      "ĠData": 8153,
      "ĠBeach": 8154,
      "tra": 8155,
      "ĠHart": 8156,
      "Ġclassical": 8157,
      "Ġdepends": 8158,
      "Ġapparently": 8159,
      "Ġingred": 8160,
      "Ġvulnerable": 8161,
      "Cl": 8162,
      "iday": 8163,
      "Ġimproving": 8164,
      "Ġdiameter": 8165,
      "Ġsuicide": 8166,
      "Ġsurviving": 8167,
      "ĠMurray": 8168,
      "ĠNelson": 8169,
      "ĠKat": 8170,
      "burn": 8171,
      "ĠSecurity": 8172,
      "Ġloved": 8173,
      "Ã¢": 8174,
      "ilst": 8175,
      "ĠAbb": 8176,
      "otes": 8177,
      "ĠVill": 8178,
      "Ġaccused": 8179,
      "ĠGrant": 8180,
      "Ġalleged": 8181,
      "ĠHem": 8182,
      "'ll": 8183,
      "li": 8184,
      "ĠStew": 8185,
      "Ġdiff": 8186,
      "Ġelsewhere": 8187,
      "omach": 8188,
      "istent": 8189,
      "ĠStr": 8190,
      "oked": 8191,
      "Ġmedal": 8192,
      "Ġcompletion": 8193,
      "Ġratio": 8194,
      "ĠDC": 8195,
      "iversary": 8196,
      "Ġparticipation": 8197,
      "ĠGoogle": 8198,
      "Ġsegment": 8199,
      "itely": 8200,
      "ĠEth": 8201,
      "Ġ1956": 8202,
      "Ġcircle": 8203,
      "Ġremainder": 8204,
      "Ġtexts": 8205,
      "Ġinfer": 8206,
      "Ġattitude": 8207,
      "Ġsimultane": 8208,
      "Ġelections": 8209,
      "bean": 8210,
      "Ġmissed": 8211,
      "Ġreveals": 8212,
      "Ġdoctors": 8213,
      "Ġtelling": 8214,
      "ĠBh": 8215,
      "ĠHend": 8216,
      "Ġskill": 8217,
      "Ġschedule": 8218,
      "Ġneutral": 8219,
      "ĠNaval": 8220,
      "amps": 8221,
      "Ġminim": 8222,
      "Ġcircuit": 8223,
      "Ġrecognize": 8224,
      "Ġbat": 8225,
      "ivals": 8226,
      "ĠIran": 8227,
      "Ġempt": 8228,
      "Ġphysics": 8229,
      "Ġrecovered": 8230,
      "Ġinsurance": 8231,
      "Ġmechanical": 8232,
      "ĠâĪ": 8233,
      "Ġweapon": 8234,
      "enh": 8235,
      "Ġstyles": 8236,
      "ĠGib": 8237,
      "ĠHoward": 8238,
      "III": 8239,
      "Ġallerg": 8240,
      "Ġhistorians": 8241,
      "Res": 8242,
      "Ġnoise": 8243,
      "ĠNetherlands": 8244,
      "ĠFront": 8245,
      "Ġrice": 8246,
      "Ġaimed": 8247,
      "archy": 8248,
      "Ġtreaty": 8249,
      "Ġconnections": 8250,
      "omatic": 8251,
      "Ġ1978": 8252,
      "oga": 8253,
      "Ġflash": 8254,
      "Ġenthus": 8255,
      "Ġ1962": 8256,
      "ersed": 8257,
      "ĠGram": 8258,
      "Ġoffices": 8259,
      "Ġemail": 8260,
      "Ġinstruction": 8261,
      "Ġmechanism": 8262,
      "ĠDouglas": 8263,
      "rous": 8264,
      "ĠOd": 8265,
      "Ġ2018": 8266,
      "Ġrestoration": 8267,
      "ĠCab": 8268,
      "teenth": 8269,
      "wealth": 8270,
      "Ġmerely": 8271,
      "ĠStaff": 8272,
      "Ġagencies": 8273,
      "ĠAnne": 8274,
      "Ġ175": 8275,
      "Ġ1961": 8276,
      "ĠIraq": 8277,
      "aug": 8278,
      "Ġbeach": 8279,
      "Ġhttps": 8280,
      "Ã±": 8281,
      "asm": 8282,
      "ĠInformation": 8283,
      "44": 8284,
      "erals": 8285,
      "Ġtransmission": 8286,
      "Ġexperimental": 8287,
      "Ġ1958": 8288,
      "Ġengineer": 8289,
      "yo": 8290,
      "Ġtoll": 8291,
      "Ġbands": 8292,
      "ĠMit": 8293,
      "Ġinterpre": 8294,
      "ĠModern": 8295,
      "32": 8296,
      "Ġritual": 8297,
      "Ġclothing": 8298,
      "iley": 8299,
      "Ġstronger": 8300,
      "ĠAgain": 8301,
      "Ġpaintings": 8302,
      "ĠBatman": 8303,
      "ĠMemorial": 8304,
      "ederation": 8305,
      "Ġgate": 8306,
      "Ġorbit": 8307,
      "Ġreader": 8308,
      "Ġfruits": 8309,
      "Ġpreparation": 8310,
      "Ġmild": 8311,
      "ordon": 8312,
      "ĠMarg": 8313,
      "Ġ1936": 8314,
      "ĠNorwe": 8315,
      "ĠThroughout": 8316,
      "Ġcurriculum": 8317,
      "lements": 8318,
      "Ġjun": 8319,
      "ĠBruce": 8320,
      "66": 8321,
      "vens": 8322,
      "ĠRos": 8323,
      "Ġadequ": 8324,
      "Ġputting": 8325,
      "ĠDoctor": 8326,
      "isk": 8327,
      "Ġfled": 8328,
      "Ġconfidence": 8329,
      "Ġrestored": 8330,
      "Ġ1953": 8331,
      "rator": 8332,
      "uv": 8333,
      "rell": 8334,
      "ĠCra": 8335,
      "ĠMake": 8336,
      "Ġfulf": 8337,
      "ĠOm": 8338,
      "Ġstroke": 8339,
      "Ġpresentation": 8340,
      "ĠTrib": 8341,
      "Ġactress": 8342,
      "erald": 8343,
      "bec": 8344,
      "rary": 8345,
      "ĠTar": 8346,
      "Ġorb": 8347,
      "Ġmanip": 8348,
      "Ġchest": 8349,
      "CS": 8350,
      "Ġtheore": 8351,
      "ĠHeb": 8352,
      "Ġ1977": 8353,
      "Ġsitting": 8354,
      "ĠServices": 8355,
      "olished": 8356,
      "Ġusage": 8357,
      "ĠMinistry": 8358,
      "Ġtargets": 8359,
      "Ġcustomers": 8360,
      "Ġcup": 8361,
      "Ġlists": 8362,
      "Ġwarming": 8363,
      "ĠCarey": 8364,
      "ĠLearning": 8365,
      "Ġdigest": 8366,
      "Ġbutter": 8367,
      "Ġboost": 8368,
      "emetery": 8369,
      "oids": 8370,
      "Ġretreat": 8371,
      "agonist": 8372,
      "Ġranging": 8373,
      "Ġforg": 8374,
      "veland": 8375,
      "Ġprecip": 8376,
      "Ġrescue": 8377,
      "po": 8378,
      "ĠMach": 8379,
      "Ġwait": 8380,
      "Ġchurches": 8381,
      "Ġrelation": 8382,
      "Ġassass": 8383,
      "Ġcoin": 8384,
      "ĠFurthermore": 8385,
      "ureau": 8386,
      "eas": 8387,
      "Ġtheories": 8388,
      "heric": 8389,
      "Ġdebt": 8390,
      "ĠChristianity": 8391,
      "Ġknows": 8392,
      "Ġremoval": 8393,
      "Ġillegal": 8394,
      "yt": 8395,
      "urd": 8396,
      "ĠWhit": 8397,
      "Ġcreates": 8398,
      "Ġunlike": 8399,
      "Ġcoins": 8400,
      "Ġ1938": 8401,
      "Ġinfluences": 8402,
      "ĠDavis": 8403,
      "Ġhosted": 8404,
      "Ġpromotion": 8405,
      "ĠDiego": 8406,
      "Now": 8407,
      "ouri": 8408,
      "ĠConc": 8409,
      "Ġinfluential": 8410,
      "Ġtone": 8411,
      "ĠEric": 8412,
      "ronze": 8413,
      "Ġid": 8414,
      "ĠTok": 8415,
      "ĠEc": 8416,
      "Ġmath": 8417,
      "Ġcanal": 8418,
      "akespe": 8419,
      "Ġcoverage": 8420,
      "Ġjudg": 8421,
      "Ġdeleg": 8422,
      "abits": 8423,
      "Ġchoices": 8424,
      "Ġcash": 8425,
      "ĠRu": 8426,
      "Ġdramatic": 8427,
      "Ġdialogue": 8428,
      "ĠShortly": 8429,
      "Ġenforce": 8430,
      "Ġprime": 8431,
      "Ġslaves": 8432,
      "Ġvillages": 8433,
      "prise": 8434,
      "ĠMagazine": 8435,
      "ĠType": 8436,
      "Ġelder": 8437,
      "ĠEss": 8438,
      "opy": 8439,
      "Ġcrash": 8440,
      "Ġdominated": 8441,
      "acle": 8442,
      "ĠGh": 8443,
      "Ġmanif": 8444,
      "ĠRead": 8445,
      "Ġcontroversial": 8446,
      "ĠWhere": 8447,
      "ĠYet": 8448,
      "Ġrailroad": 8449,
      "Ġexplanation": 8450,
      "fish": 8451,
      "Ġodd": 8452,
      "Ġperceived": 8453,
      "Ġ1910": 8454,
      "Ġcolonies": 8455,
      "Ġsatellite": 8456,
      "Ġacids": 8457,
      "Ġrepresentative": 8458,
      "Ġ69": 8459,
      "Ã³n": 8460,
      "ĠWindows": 8461,
      "Ġnutrients": 8462,
      "lyn": 8463,
      "owder": 8464,
      "Ġ98": 8465,
      "Why": 8466,
      "throp": 8467,
      "ĠVideo": 8468,
      "ĠAllen": 8469,
      "Ġpy": 8470,
      "iffer": 8471,
      "Ġsmart": 8472,
      "Ġenhance": 8473,
      "acts": 8474,
      "Ġmarkets": 8475,
      "ĠMalays": 8476,
      "Ġpenal": 8477,
      "cluding": 8478,
      "Ġfreeway": 8479,
      "Ġstomach": 8480,
      "Ġpubl": 8481,
      "Ġestimates": 8482,
      "ĠEnvironmental": 8483,
      "low": 8484,
      "stic": 8485,
      "Ġradical": 8486,
      "ascular": 8487,
      "Ġframework": 8488,
      "ĠBa": 8489,
      "ĠPier": 8490,
      "Ġspan": 8491,
      "Ġtrains": 8492,
      "Ġstoryline": 8493,
      "Ġzero": 8494,
      "asts": 8495,
      "Ġ2019": 8496,
      "ĠZh": 8497,
      "ko": 8498,
      "Ġvoted": 8499,
      "Ġdisrupt": 8500,
      "Ġhoped": 8501,
      "hand": 8502,
      "Ġcrop": 8503,
      "ĠIGN": 8504,
      "Ġ67": 8505,
      "Ġreactions": 8506,
      "itarian": 8507,
      "isd": 8508,
      "Ġfault": 8509,
      "Ġdiscrimination": 8510,
      "rett": 8511,
      "Ġfunctional": 8512,
      "Although": 8513,
      "vy": 8514,
      "itals": 8515,
      "ĠFace": 8516,
      "ĠArmen": 8517,
      "ixon": 8518,
      "Ġprofit": 8519,
      "ĠDesign": 8520,
      "Ġgraphics": 8521,
      "igrants": 8522,
      "ĠIP": 8523,
      "overe": 8524,
      "Ġ94": 8525,
      "Ġlayers": 8526,
      "Ġathletes": 8527,
      "ĠPakistan": 8528,
      "rolled": 8529,
      "ĠDer": 8530,
      "Ġpraise": 8531,
      "arn": 8532,
      "Ġmaps": 8533,
      "Ġdies": 8534,
      "Ġcenters": 8535,
      "Ġhelpful": 8536,
      "ĠWorks": 8537,
      "Ġdepicted": 8538,
      "Ġvel": 8539,
      "Ġtrig": 8540,
      "ĠFreder": 8541,
      "Ġconvinced": 8542,
      "ĠFund": 8543,
      "Ġviolent": 8544,
      "ĠGreece": 8545,
      "Ġcards": 8546,
      "ĠRen": 8547,
      "ĠFA": 8548,
      "Ġchampion": 8549,
      "Ġforecast": 8550,
      "ĠTan": 8551,
      "uscript": 8552,
      "Ġdollar": 8553,
      "ĠPuerto": 8554,
      "bing": 8555,
      "Ġdesert": 8556,
      "Ġsurge": 8557,
      "Ġcognitive": 8558,
      "Ġwrest": 8559,
      "Ġhidden": 8560,
      "ĠTower": 8561,
      "ĠAh": 8562,
      "Ġalive": 8563,
      "oples": 8564,
      "Ġaboard": 8565,
      "aft": 8566,
      "ois": 8567,
      "Ġinject": 8568,
      "ĠCarib": 8569,
      "which": 8570,
      "ĠCleveland": 8571,
      "Ġ62": 8572,
      "Ġregulations": 8573,
      "ĠShakespe": 8574,
      "Ġtrend": 8575,
      "ĠPrior": 8576,
      "ĠBishop": 8577,
      "ĠRose": 8578,
      "operation": 8579,
      "Ġ1955": 8580,
      "Ġbranches": 8581,
      "incess": 8582,
      "Ġeighth": 8583,
      "ĠAM": 8584,
      "Ġconversation": 8585,
      "athered": 8586,
      "Ġpush": 8587,
      "ĠTal": 8588,
      "Ġhybr": 8589,
      "Our": 8590,
      "Ġtack": 8591,
      "Ġequally": 8592,
      "Ġangle": 8593,
      "Ġbeliefs": 8594,
      "Ġencounter": 8595,
      "Ġcinem": 8596,
      "apy": 8597,
      "Ġnecessarily": 8598,
      "Ġmagnetic": 8599,
      "Ġhouseholds": 8600,
      "64": 8601,
      "Ġlb": 8602,
      "uty": 8603,
      "ĠRow": 8604,
      "ĠThird": 8605,
      "Ġadvis": 8606,
      "ĠMcK": 8607,
      "Ġprevented": 8608,
      "Ġemphasis": 8609,
      "ĠAdministration": 8610,
      "Ġ^": 8611,
      "ĠEver": 8612,
      "Ġthrone": 8613,
      "ĠSciences": 8614,
      "Ġdivor": 8615,
      "orith": 8616,
      "Ġpione": 8617,
      "agh": 8618,
      "ĠMilitary": 8619,
      "ĠMissouri": 8620,
      "wen": 8621,
      "ĠPA": 8622,
      "ĠPM": 8623,
      "ĠNBA": 8624,
      "ĠEU": 8625,
      "Ġenable": 8626,
      "Ġrecalled": 8627,
      "Ġconsidering": 8628,
      "Ġimprovements": 8629,
      "Ġcultures": 8630,
      "Ġintegrated": 8631,
      "ĠMississ": 8632,
      "reated": 8633,
      "Ġconven": 8634,
      "ĠChron": 8635,
      "Ġmonitor": 8636,
      "Ġ1959": 8637,
      "Ġ1935": 8638,
      "Ġaccessible": 8639,
      "Ġerect": 8640,
      "ĠAP": 8641,
      "ĠAff": 8642,
      "ulin": 8643,
      "ĠHaving": 8644,
      "Ġ79": 8645,
      "ĠNHL": 8646,
      "Ġinhib": 8647,
      "Ġloyal": 8648,
      "Ġuncom": 8649,
      "Ġprinted": 8650,
      "Ġadjacent": 8651,
      "Ġfictional": 8652,
      "Ġengagement": 8653,
      "Ġweekend": 8654,
      "ĠCart": 8655,
      "Ġsquad": 8656,
      "Ġcra": 8657,
      "orney": 8658,
      "ĠHong": 8659,
      "ĠLim": 8660,
      "Ġsymp": 8661,
      "Ġcontribution": 8662,
      "ĠMoore": 8663,
      "iatric": 8664,
      "ĠTru": 8665,
      "Ġwhatever": 8666,
      "ĠDra": 8667,
      "ĠGard": 8668,
      "ĠâĢĿ": 8669,
      "ocking": 8670,
      "ĠConvention": 8671,
      "Ġstatements": 8672,
      "Many": 8673,
      "ĠAz": 8674,
      "ĠTheatre": 8675,
      "ĠRick": 8676,
      "quir": 8677,
      "Ġpartners": 8678,
      "'ve": 8679,
      "Ġcod": 8680,
      "owa": 8681,
      "Ġcontributions": 8682,
      "31": 8683,
      "ĠTro": 8684,
      "atty": 8685,
      "Ġvariable": 8686,
      "Ġbasket": 8687,
      "Ġfairly": 8688,
      "ĠAR": 8689,
      "Ġmeets": 8690,
      "Ġracial": 8691,
      "obile": 8692,
      "From": 8693,
      "Ġsav": 8694,
      "Ġchrom": 8695,
      "ĠCommonwealth": 8696,
      "ĠProp": 8697,
      "Ġalien": 8698,
      "ruption": 8699,
      "Ġsignificance": 8700,
      "Ġvertical": 8701,
      "Ġchallenging": 8702,
      "OL": 8703,
      "asant": 8704,
      "ĠAround": 8705,
      "Ġ1937": 8706,
      "Ġencountered": 8707,
      "Ġrum": 8708,
      "Ġ88": 8709,
      "Ġ1954": 8710,
      "Ġfriendly": 8711,
      "herent": 8712,
      "Ġbread": 8713,
      "olves": 8714,
      "ĠHug": 8715,
      "Ġride": 8716,
      "Ġdisplayed": 8717,
      "Ġinterpretation": 8718,
      "?âĢĿ": 8719,
      "ĠTs": 8720,
      "ĠWright": 8721,
      "Ġvice": 8722,
      "ocation": 8723,
      "Ġregiment": 8724,
      "Ġparam": 8725,
      "Ġdominant": 8726,
      "ĠFinally": 8727,
      "iens": 8728,
      "zona": 8729,
      "Ġrecept": 8730,
      "ĠRun": 8731,
      "Ġraw": 8732,
      "axy": 8733,
      "ĠRoy": 8734,
      "Ġ1900": 8735,
      "Ġpartially": 8736,
      "Ġunderground": 8737,
      "Ġsupporters": 8738,
      "Ġprogramming": 8739,
      "haust": 8740,
      "Ġcoffee": 8741,
      "alysis": 8742,
      "eli": 8743,
      "Ġminimal": 8744,
      "RI": 8745,
      "hma": 8746,
      "Ġreward": 8747,
      "ĠHans": 8748,
      "ova": 8749,
      "Ġdisag": 8750,
      "Ġtraditions": 8751,
      "Ġterror": 8752,
      "ĠPeace": 8753,
      "Ġmedications": 8754,
      "ĠNorwegian": 8755,
      "Ġfurn": 8756,
      "Ġpace": 8757,
      "race": 8758,
      "Ġsheet": 8759,
      "Ġlandfall": 8760,
      "Ġtraveled": 8761,
      "Ġwildlife": 8762,
      "Ġsurprise": 8763,
      "Ġinstructions": 8764,
      "inated": 8765,
      "aration": 8766,
      "ĠFarm": 8767,
      "Ġindex": 8768,
      "Ġfounder": 8769,
      "Ġcommunicate": 8770,
      "Ġcollapse": 8771,
      "Ġlifestyle": 8772,
      "Ġcategories": 8773,
      "Ġkidney": 8774,
      "Ġbab": 8775,
      "Ġthorough": 8776,
      "Ġproof": 8777,
      "ĠLess": 8778,
      "Ġcommem": 8779,
      "Ġdealing": 8780,
      "mes": 8781,
      "ĠWin": 8782,
      "Ġregistered": 8783,
      "Ġdisappoint": 8784,
      "itative": 8785,
      "ethe": 8786,
      "ĠDomin": 8787,
      "Ġestimate": 8788,
      "ĠSerb": 8789,
      "eria": 8790,
      "ĠCorporation": 8791,
      "100": 8792,
      "ifer": 8793,
      "phy": 8794,
      "Ġrelax": 8795,
      "Ġelectro": 8796,
      "ĠWinter": 8797,
      "Ġwinner": 8798,
      "ĠExpl": 8799,
      "Ġscholar": 8800,
      "ĠFather": 8801,
      "Ġlanded": 8802,
      "Ġuniversal": 8803,
      "noon": 8804,
      "Ġliv": 8805,
      "Ġsubt": 8806,
      "ĠPalace": 8807,
      "Ġterritories": 8808,
      "Ġimplemented": 8809,
      "ĠMP": 8810,
      "ĠPhill": 8811,
      "Ġcommanded": 8812,
      "ĠShakespeare": 8813,
      "Ġdowntown": 8814,
      "ĠRa": 8815,
      "Ġunex": 8816,
      "Ġknots": 8817,
      "Ġindigenous": 8818,
      "Ġslave": 8819,
      "Ġsuperv": 8820,
      "Ġbeauty": 8821,
      "wick": 8822,
      "ĠDick": 8823,
      "Ġfrust": 8824,
      "Americ": 8825,
      "DF": 8826,
      "ĠSign": 8827,
      "ĠIN": 8828,
      "Ġquiet": 8829,
      "Ġpool": 8830,
      "Ġownership": 8831,
      "ĠMarc": 8832,
      "bles": 8833,
      "Ġrid": 8834,
      "forced": 8835,
      "ĠCommunity": 8836,
      "ĠBowl": 8837,
      "Ġvaccine": 8838,
      "48": 8839,
      "fare": 8840,
      "Ġhat": 8841,
      "adder": 8842,
      "Ġsignals": 8843,
      "ĠBlood": 8844,
      "Ġresidential": 8845,
      "ĠNevertheless": 8846,
      "ĠEqu": 8847,
      "Ġexport": 8848,
      "ika": 8849,
      "Ġportrayed": 8850,
      "ĠConnect": 8851,
      "Ġrect": 8852,
      "Ġlob": 8853,
      "Ġcomprom": 8854,
      "Ġbrigade": 8855,
      "Ġapproval": 8856,
      "Ġmusicians": 8857,
      "Ġinvolve": 8858,
      "ĠTrust": 8859,
      "Ġreveal": 8860,
      "ĠAlong": 8861,
      "Ġcarefully": 8862,
      "ĠTurkish": 8863,
      "99": 8864,
      "ila": 8865,
      "terior": 8866,
      "ĠAdams": 8867,
      "Ġconstantly": 8868,
      "Ġcomposer": 8869,
      "Ġoverwhel": 8870,
      "ĠSab": 8871,
      "ĠSky": 8872,
      "ricts": 8873,
      "Ġ77": 8874,
      "ĠTransport": 8875,
      "Ġaccompany": 8876,
      "Ġfract": 8877,
      "Ġdrain": 8878,
      "Ġrocks": 8879,
      "Ġcontroversy": 8880,
      "rust": 8881,
      "ĠMTV": 8882,
      "Ġoutcomes": 8883,
      "Ġinteractions": 8884,
      "Ġstuff": 8885,
      "tha": 8886,
      "avor": 8887,
      "Ġreflected": 8888,
      "Ġpsychological": 8889,
      "onymous": 8890,
      "ivate": 8891,
      "Ġshots": 8892,
      "away": 8893,
      "Ġenters": 8894,
      "criptions": 8895,
      "Ġlabour": 8896,
      "names": 8897,
      "Ġ1952": 8898,
      "ĠArizona": 8899,
      "oen": 8900,
      "ori": 8901,
      "Ġdeemed": 8902,
      "Ġintake": 8903,
      "Ġdemonstrate": 8904,
      "Ġsailed": 8905,
      "Ġcomplicated": 8906,
      "Ġlots": 8907,
      "ĠBah": 8908,
      "Ġremote": 8909,
      "Ġserver": 8910,
      "ĠMississipp": 8911,
      "Å¡": 8912,
      "Ġraising": 8913,
      "Ġprede": 8914,
      "Ġseriously": 8915,
      "icing": 8916,
      "Ġdeliber": 8917,
      "Ġreaches": 8918,
      "umental": 8919,
      "ĠGarden": 8920,
      "Ġlongest": 8921,
      "ounced": 8922,
      "Ġessentially": 8923,
      "Ġfranchise": 8924,
      "ĠDise": 8925,
      "ĠGordon": 8926,
      "Ġattempting": 8927,
      "ĠRoberts": 8928,
      "Ġratings": 8929,
      "ĠLisa": 8930,
      "Ġmarketing": 8931,
      "Ġafterwards": 8932,
      "Ġfeels": 8933,
      "ĠGlobal": 8934,
      "Ġsuspend": 8935,
      "Ġoccupation": 8936,
      "ĠBerlin": 8937,
      "ĠSamuel": 8938,
      "ĠSongs": 8939,
      "Most": 8940,
      "ji": 8941,
      "Ġfro": 8942,
      "ĠSon": 8943,
      "ĠMinnes": 8944,
      "Ġbare": 8945,
      "Ġpushed": 8946,
      "Ġsecured": 8947,
      "gans": 8948,
      "Ġraces": 8949,
      "Ġ72": 8950,
      "Ġguidelines": 8951,
      "eness": 8952,
      "roit": 8953,
      "Ġgram": 8954,
      "ĠNich": 8955,
      "acks": 8956,
      "Ġrecycl": 8957,
      "eping": 8958,
      "Ġstructural": 8959,
      "Ġvictim": 8960,
      "mad": 8961,
      "omed": 8962,
      "Ġgent": 8963,
      "âĢĻ.": 8964,
      "Ġthanks": 8965,
      "Ġpreserved": 8966,
      "how": 8967,
      "yard": 8968,
      "Ġindustries": 8969,
      "ĠSweden": 8970,
      "rooms": 8971,
      "ĠAL": 8972,
      "ĠMeg": 8973,
      "Ġrequested": 8974,
      "Ġ1957": 8975,
      "Ġresponses": 8976,
      "edding": 8977,
      "Ġterminus": 8978,
      "ĠBusiness": 8979,
      "ds": 8980,
      "Ġvs": 8981,
      "ĠAnna": 8982,
      "ION": 8983,
      "auc": 8984,
      "Ġdimens": 8985,
      "ĠAud": 8986,
      "Ġarrangement": 8987,
      "Ġrhythm": 8988,
      "Ġtag": 8989,
      "ĠChem": 8990,
      "ĠPear": 8991,
      "oca": 8992,
      "ĠChannel": 8993,
      "Ġmanuscript": 8994,
      "Ġdependent": 8995,
      "Ġsettlers": 8996,
      "DP": 8997,
      "oz": 8998,
      "vard": 8999,
      "Ġexhibition": 9000,
      "Ġdelayed": 9001,
      "ĠMaster": 9002,
      "ĠJay": 9003,
      "Ġplain": 9004,
      "ennis": 9005,
      "ĠKu": 9006,
      "iah": 9007,
      "Ġtries": 9008,
      "Ġmachines": 9009,
      "Ġphrase": 9010,
      "ĠGer": 9011,
      "Ġplayoff": 9012,
      "Ġprovision": 9013,
      "elsh": 9014,
      "Ġstorms": 9015,
      "Ġexcav": 9016,
      "ĠArgent": 9017,
      "New": 9018,
      "ĠLook": 9019,
      "Ġbridges": 9020,
      "Ġ1933": 9021,
      "Ġclaiming": 9022,
      "Ġexecuted": 9023,
      "Ġadaptation": 9024,
      "Ġproportion": 9025,
      "net": 9026,
      "elle": 9027,
      "ĠBureau": 9028,
      "Ġshark": 9029,
      "psons": 9030,
      "Ġbrings": 9031,
      "Ġtaxes": 9032,
      "Ġmoments": 9033,
      "Ġpicked": 9034,
      "Ġmolecular": 9035,
      "ĠCarter": 9036,
      "Ġwider": 9037,
      "Ġtens": 9038,
      "Ġsurve": 9039,
      "ĠSimpsons": 9040,
      "Ġromantic": 9041,
      "ourag": 9042,
      "Ġgenerations": 9043,
      "ĠChristians": 9044,
      "Ġinhabitants": 9045,
      "reck": 9046,
      "Ġmature": 9047,
      "ĠHu": 9048,
      "opic": 9049,
      "occ": 9050,
      "Ġlegend": 9051,
      "Ġadm": 9052,
      "Ġregime": 9053,
      "Ġpolar": 9054,
      "anguage": 9055,
      "Ġthreats": 9056,
      "Ġinvestigate": 9057,
      "heimer": 9058,
      "Ġalgorith": 9059,
      "ĠâĪĴ": 9060,
      "ĠCaribbean": 9061,
      "idity": 9062,
      "Ġconvention": 9063,
      "anta": 9064,
      "earing": 9065,
      "iece": 9066,
      "Ġverse": 9067,
      "Ġpredecess": 9068,
      "CA": 9069,
      "hop": 9070,
      "Ġcattle": 9071,
      "Ġ1949": 9072,
      "Ġparas": 9073,
      "ĠHamilton": 9074,
      "Ġwaiting": 9075,
      "ropolitan": 9076,
      "Ġpatrol": 9077,
      "ĠPrem": 9078,
      "Ġsituated": 9079,
      "ĠBuilding": 9080,
      "Ġblind": 9081,
      "Ġanswers": 9082,
      "ĠArea": 9083,
      "Ġcalcium": 9084,
      "ĠMississippi": 9085,
      "jan": 9086,
      "ĠTake": 9087,
      "ums": 9088,
      "Ġunderlying": 9089,
      "ĠTreaty": 9090,
      "DS": 9091,
      "lie": 9092,
      "Ġoutcome": 9093,
      "Ġpredomin": 9094,
      "Ġflew": 9095,
      "Ġgrey": 9096,
      "ĠAntar": 9097,
      "65": 9098,
      "bes": 9099,
      "Ġcub": 9100,
      "ĠBir": 9101,
      "Ġchick": 9102,
      "Ġimplementation": 9103,
      "49": 9104,
      "mat": 9105,
      "Ġreception": 9106,
      "ĠSav": 9107,
      "ĠMas": 9108,
      "ĠKa": 9109,
      "aping": 9110,
      "Ġremind": 9111,
      "Ġ1912": 9112,
      "ĠAnglo": 9113,
      "utt": 9114,
      "Ġpreval": 9115,
      "rency": 9116,
      "ĠAndy": 9117,
      "Ġplanets": 9118,
      "ĠAnton": 9119,
      "Ġdeparture": 9120,
      "ĠLanc": 9121,
      ".;": 9122,
      "ĠSax": 9123,
      "ĠBor": 9124,
      "Ġextens": 9125,
      "attered": 9126,
      "ĠOrganization": 9127,
      "Ġrent": 9128,
      "Ġconj": 9129,
      "ĠLenn": 9130,
      "Ġadoles": 9131,
      "198": 9132,
      "Ġdissip": 9133,
      "Ġsubsid": 9134,
      "No": 9135,
      "Ġsod": 9136,
      "Ġunw": 9137,
      "ĠKevin": 9138,
      "EL": 9139,
      "Ġlie": 9140,
      "ĠStart": 9141,
      "ĠAlan": 9142,
      "Ġharmful": 9143,
      "Ġprofessionals": 9144,
      "yself": 9145,
      "Ġauthent": 9146,
      "Ġestablishing": 9147,
      "mouth": 9148,
      "orious": 9149,
      "amine": 9150,
      "ĠUTC": 9151,
      "Ġformally": 9152,
      "ĠContin": 9153,
      "Ġexercises": 9154,
      "Ġpel": 9155,
      "angle": 9156,
      "Ġorigins": 9157,
      "Ġstrategic": 9158,
      "Ġartistic": 9159,
      "Ġvalley": 9160,
      "Ġanniversary": 9161,
      "Ġcelebrated": 9162,
      "Ġnegotiations": 9163,
      "ivan": 9164,
      "otal": 9165,
      "ĠHub": 9166,
      "ĠWelsh": 9167,
      "ĠNick": 9168,
      "Ġmedication": 9169,
      "plete": 9170,
      "Ġexamination": 9171,
      "Ġaggressive": 9172,
      "Ġearthquake": 9173,
      "ĠPope": 9174,
      "ĠExper": 9175,
      "Ġbeneficial": 9176,
      "ĠThompson": 9177,
      "Ġliberal": 9178,
      "log": 9179,
      "Ġbath": 9180,
      "ĠSet": 9181,
      "Ġ140": 9182,
      "Ġconcerning": 9183,
      "ĠBrand": 9184,
      "Ġafternoon": 9185,
      "Ġpossession": 9186,
      "Ġhanded": 9187,
      "Ġprevention": 9188,
      "sters": 9189,
      "Ġgathered": 9190,
      "Ġprosec": 9191,
      "Ġcommunications": 9192,
      "ĠOrd": 9193,
      "ĠRoger": 9194,
      "idal": 9195,
      "ĠHindu": 9196,
      "Ġamongst": 9197,
      "ĠCall": 9198,
      "Ġcompris": 9199,
      "Ġflour": 9200,
      "Ġbelt": 9201,
      "79": 9202,
      "opl": 9203,
      "Ġabst": 9204,
      "Ġeleven": 9205,
      "Ġcharacteristic": 9206,
      "utor": 9207,
      "Ġexhaust": 9208,
      "Ġnotably": 9209,
      "Ġopera": 9210,
      "Ġmemorial": 9211,
      "ĠDisney": 9212,
      "wich": 9213,
      "Ġhole": 9214,
      "Ġdesigner": 9215,
      "ĠTony": 9216,
      "ĠArn": 9217,
      "ĠTenness": 9218,
      "cyclop": 9219,
      "oom": 9220,
      "adow": 9221,
      "Ġreverse": 9222,
      "ĠUlt": 9223,
      "ensed": 9224,
      "ĠDeath": 9225,
      "minister": 9226,
      "regation": 9227,
      "Ġmolecules": 9228,
      "Ġpassenger": 9229,
      "wa": 9230,
[...]
