{
  "version": "1.0",
  "truncation": null,
  "padding": null,
  "added_tokens": [
    {
      "id": 0,
      "content": "<pad>",
      "single_word": false,
      "lstrip": false,
      "rstrip": false,
      "normalized": false,
      "special": true
    },
    {
      "id": 1,
      "content": "<bos>",
      "single_word": false,
      "lstrip": false,
      "rstrip": false,
      "normalized": false,
      "special": true
    },
    {
      "id": 2,
      "content": "<eos>",
      "single_word": false,
      "lstrip": false,
      "rstrip": false,
      "normalized": false,
      "special": true
    },
    {
      "id": 3,
      "content": "<unk>",
      "single_word": false,
      "lstrip": false,
      "rstrip": false,
      "normalized": false,
      "special": true
    }
  ],
  "normalizer": null,
  "pre_tokenizer": {
    "type": "ByteLevel",
    "add_prefix_space": true,
    "trim_offsets": true,
    "use_regex": true
  },
  "post_processor": null,
  "decoder": {
    "type": "ByteLevel",
    "add_prefix_space": true,
    "trim_offsets": true,
    "use_regex": true
  },
  "model": {
    "type": "BPE",
    "dropout": null,
    "unk_token": "<unk>",
    "continuing_subword_prefix": null,
    "end_of_word_suffix": null,
    "fuse_unk": false,
    "byte_fallback": false,
    "ignore_merges": false,
    "vocab": {
      "<pad>": 0,
      "<bos>": 1,
      "<eos>": 2,
      "<unk>": 3,
      "!": 4,
      "\"": 5,
      "#": 6,
      "$": 7,
      "%": 8,
      "&": 9,
      "'": 10,
      "(": 11,
      ")": 12,
      "*": 13,
      "+": 14,
      ",": 15,
      "-": 16,
      ".": 17,
      "/": 18,
      "0": 19,
      "1": 20,
      "2": 21,
      "3": 22,
      "4": 23,
      "5": 24,
      "6": 25,
      "7": 26,
      "8": 27,
      "9": 28,
      ":": 29,
      ";": 30,
      "<": 31,
      "=": 32,
      ">": 33,
      "?": 34,
      "@": 35,
      "A": 36,
      "B": 37,
      "C": 38,
      "D": 39,
      "E": 40,
      "F": 41,
      "G": 42,
      "H": 43,
      "I": 44,
      "J": 45,
      "K": 46,
      "L": 47,
      "M": 48,
      "N": 49,
      "O": 50,
      "P": 51,
      "Q": 52,
      "R": 53,
      "S": 54,
      "T": 55,
      "U": 56,
      "V": 57,
      "W": 58,
      "X": 59,
      "Y": 60,
      "Z": 61,
      "[": 62,
      "\\": 63,
      "]": 64,
      "^": 65,
      "_": 66,
      "`": 67,
      "a": 68,
      "b": 69,
      "c": 70,
      "d": 71,
      "e": 72,
      "f": 73,
      "g": 74,
      "h": 75,
      "i": 76,
      "j": 77,
      "k": 78,
      "l": 79,
      "m": 80,
      "n": 81,
      "o": 82,
      "p": 83,
      "q": 84,
      "r": 85,
      "s": 86,
      "t": 87,
      "u": 88,
      "v": 89,
      "w": 90,
      "x": 91,
      "y": 92,
      "z": 93,
      "{": 94,
      "|": 95,
      "}": 96,
      "~": 97,
      "¡": 98,
      "¢": 99,
      "£": 100,
      "¤": 101,
      "¥": 102,
      "¦": 103,
      "§": 104,
      "¨": 105,
      "©": 106,
      "ª": 107,
      "«": 108,
      "¬": 109,
      "®": 110,
      "¯": 111,
      "°": 112,
      "±": 113,
      "²": 114,
      "³": 115,
      "´": 116,
      "µ": 117,
      "¶": 118,
      "·": 119,
      "¸": 120,
      "¹": 121,
      "º": 122,
      "»": 123,
      "¼": 124,
      "½": 125,
      "¾": 126,
      "¿": 127,
      "Â": 128,
      "Ã": 129,
      "Ä": 130,
      "Å": 131,
      "Æ": 132,
      "Ç": 133,
      "È": 134,
      "É": 135,
      "Ê": 136,
      "Ë": 137,
      "Ì": 138,
      "Í": 139,
      "Î": 140,
      "Ï": 141,
      "Ð": 142,
      "Ñ": 143,
      "Ó": 144,
      "Ô": 145,
      "Õ": 146,
      "Ö": 147,
      "×": 148,
      "Ø": 149,
      "Ù": 150,
      "Ú": 151,
      "Û": 152,
      "Ü": 153,
      "Ý": 154,
      "à": 155,
      "á": 156,
      "â": 157,
      "ã": 158,
      "ä": 159,
      "å": 160,
      "æ": 161,
      "ç": 162,
      "è": 163,
      "é": 164,
      "ê": 165,
      "ë": 166,
      "ì": 167,
      "í": 168,
      "ï": 169,
      "ð": 170,
      "Ċ": 171,
      "Ġ": 172,
      "Ģ": 173,
      "ģ": 174,
      "Ĥ": 175,
      "ĥ": 176,
      "Ħ": 177,
      "ħ": 178,
      "Ĩ": 179,
      "ĩ": 180,
      "Ī": 181,
      "ī": 182,
      "Ĭ": 183,
      "ĭ": 184,
      "Į": 185,
      "į": 186,
      "İ": 187,
      "ı": 188,
      "Ĳ": 189,
      "ĳ": 190,
      "Ĵ": 191,
      "ĵ": 192,
      "Ķ": 193,
      "ķ": 194,
      "ĸ": 195,
      "Ĺ": 196,
      "ĺ": 197,
      "Ļ": 198,
      "ļ": 199,
      "Ľ": 200,
      "ľ": 201,
      "Ŀ": 202,
      "ŀ": 203,
      "Ł": 204,
      "ł": 205,
      "Ń": 206,
      "Ġt": 207,
      "he": 208,
      "Ġa": 209,
      "in": 210,
      "Ġthe": 211,
      "er": 212,
      "on": 213,
      "re": 214,
      "Ġs": 215,
      "Ġo": 216,
      "at": 217,
      "Ġw": 218,
      "nd": 219,
      "ed": 220,
      "en": 221,
      "Ġc": 222,
      "es": 223,
      "or": 224,
      "it": 225,
      "is": 226,
      "Ġf": 227,
      "Ġb": 228,
      "Ġof": 229,
      "al": 230,
      "an": 231,
      "Ġp": 232,
      "ar": 233,
      "Ġin": 234,
      "Ġ,": 235,
      "ing": 236,
      "Ġand": 237,
      "Ġto": 238,
      "Ġm": 239,
      "ou": 240,
      "as": 241,
      "ic": 242,
      "Ġd": 243,
      "ion": 244,
      "Ġ.": 245,
      "le": 246,
      "Ġh": 247,
      "ro": 248,
      "ent": 249,
      "Ġth": 250,
      "Ġre": 251,
      "il": 252,
      "ĠT": 253,
      "Ġe": 254,
      "Ġl": 255,
      "st": 256,
      "om": 257,
      "ct": 258,
      "Ġn": 259,
      "el": 260,
      "ĠA": 261,
      "ĠS": 262,
      "Ġbe": 263,
      "am": 264,
      "ĠC": 265,
      "ol": 266,
      "Ġg": 267,
      "ly": 268,
      "ad": 269,
      "Ġ1": 270,
      "id": 271,
      "ur": 272,
      "im": 273,
      "Ġon": 274,
      "iv": 275,
      "et": 276,
      "ot": 277,
      "Ġfor": 278,
      "ce": 279,
      "ut": 280,
      "us": 281,
      "ig": 282,
      "ĠI": 283,
      "ch": 284,
      "ation": 285,
      "ow": 286,
      "ir": 287,
      "ĠM": 288,
      "Ġis": 289,
      "Ġ\"": 290,
      "Ġwas": 291,
      "ĠThe": 292,
      "Ġst": 293,
      "Ġthat": 294,
      "Ġas": 295,
      "ay": 296,
      "ĠB": 297,
      "ers": 298,
      "ith": 299,
      "her": 300,
      "ra": 301,
      "Ġwith": 302,
      "ver": 303,
      "Ġ@": 304,
      "ter": 305,
      "ul": 306,
      "ĠH": 307,
      "ĠP": 308,
      "âĢ": 309,
      "Ġwh": 310,
      "un": 311,
      "Ġcon": 312,
      "Ġal": 313,
      "em": 314,
      "Ġan": 315,
      "th": 316,
      "os": 317,
      "Ġit": 318,
      "Ġ(": 319,
      "Ġ2": 320,
      "Ġpro": 321,
      "Ġby": 322,
      "ĠD": 323,
      "ĠR": 324,
      "Ġ'": 325,
      "av": 326,
      "ĠW": 327,
      "Ġhe": 328,
      "est": 329,
      "Ġat": 330,
      "od": 331,
      "um": 332,
      "ist": 333,
      "if": 334,
      "ĠF": 335,
      "ag": 336,
      "and": 337,
      "-@": 338,
      "Ġ@-@": 339,
      "ac": 340,
      "Ġde": 341,
      "rom": 342,
      "ĠG": 343,
      "ĠN": 344,
      "Ġy": 345,
      "pe": 346,
      "Ġor": 347,
      "Ġv": 348,
      "ain": 349,
      "Ġse": 350,
      "ĠL": 351,
      "Ġcom": 352,
      "ies": 353,
      "ill": 354,
      "Ġare": 355,
      "ĠE": 356,
      "op": 357,
      "res": 358,
      "ld": 359,
      "Ġfrom": 360,
      "Ġr": 361,
      "ore": 362,
      "ate": 363,
      "00": 364,
      "Ġsu": 365,
      "Ġex": 366,
      "ab": 367,
      "ĠĊ": 368,
      "igh": 369,
      "ess": 370,
      "ĠJ": 371,
      "ri": 372,
      "se": 373,
      "ity": 374,
      "ak": 375,
      "ant": 376,
      "ort": 377,
      "Ġ19": 378,
      "qu": 379,
      "ud": 380,
      "ew": 381,
      "our": 382,
      "art": 383,
      "Ġch": 384,
      "ĠO": 385,
      "ive": 386,
      "oc": 387,
      "ment": 388,
      "pp": 389,
      "ich": 390,
      "all": 391,
      "ere": 392,
      "ard": 393,
      "Ġsh": 394,
      "Ġhis": 395,
      "ĠIn": 396,
      "gh": 397,
      "Ġ)": 398,
      "Ġnot": 399,
      "Ġle": 400,
      "ave": 401,
      "ated": 402,
      "Ġwere": 403,
      "pt": 404,
      "ial": 405,
      "Ġk": 406,
      "rou": 407,
      "ge": 408,
      "ure": 409,
      "Ġpl": 410,
      "ĠâĢ": 411,
      "ber": 412,
      "ong": 413,
      "ect": 414,
      "ical": 415,
      "ight": 416,
      "ast": 417,
      "ĠU": 418,
      "ell": 419,
      "Ġwhich": 420,
      "ost": 421,
      "ear": 422,
      "out": 423,
      "Ġus": 424,
      "Ġu": 425,
      "ust": 426,
      "nt": 427,
      "ip": 428,
      "ame": 429,
      "ine": 430,
      "ould": 431,
      "Ġhave": 432,
      "og": 433,
      "ther": 434,
      "ov": 435,
      "ia": 436,
      "ĠK": 437,
      "per": 438,
      "ions": 439,
      "ian": 440,
      "Ġab": 441,
      "Ġwor": 442,
      "Ġhad": 443,
      "ary": 444,
      "ĠSt": 445,
      "Ġtheir": 446,
      "ome": 447,
      "ff": 448,
      "cc": 449,
      "ous": 450,
      "ire": 451,
      "Ġthis": 452,
      "Ġint": 453,
      "Ġwhe": 454,
      "cl": 455,
      "Ġun": 456,
      "Ġcont": 457,
      "Ġcomp": 458,
      "are": 459,
      "ide": 460,
      "Ġcan": 461,
      "Ġbut": 462,
      "ap": 463,
      "ack": 464,
      "ru": 465,
      "act": 466,
      "so": 467,
      "rit": 468,
      "ord": 469,
      "Ġad": 470,
      "du": 471,
      "Ġen": 472,
      "ok": 473,
      "Ġcl": 474,
      "Ġwe": 475,
      "ater": 476,
      "age": 477,
      "orm": 478,
      "ish": 479,
      "Ġres": 480,
      "Ġim": 481,
      "iz": 482,
      "ence": 483,
      "Ġall": 484,
      "pl": 485,
      "ans": 486,
      "ass": 487,
      "ult": 488,
      "âĢĻ": 489,
      "ry": 490,
      "Ġar": 491,
      "Ġyou": 492,
      "Ġdis": 493,
      "Ġthey": 494,
      "Ġ3": 495,
      "Ġhas": 496,
      "ie": 497,
      "ĠCh": 498,
      "ign": 499,
      "ally": 500,
      "Ġone": 501,
      "Ġne": 502,
      "ĠTh": 503,
      "Ġalso": 504,
      "Ġits": 505,
      "Ġper": 506,
      "ations": 507,
      "Ġte": 508,
      "irst": 509,
      "ub": 510,
      "ĠV": 511,
      "ood": 512,
      "ime": 513,
      "ib": 514,
      "Ġwho": 515,
      "ction": 516,
      "Ġother": 517,
      "ely": 518,
      "mer": 519,
      "fter": 520,
      "ue": 521,
      "Ġman": 522,
      "Ġj": 523,
      "Ġmore": 524,
      "ance": 525,
      "Ġtw": 526,
      "te": 527,
      "Ġpart": 528,
      "ound": 529,
      "ach": 530,
      "Ġ200": 531,
      "ice": 532,
      "Ġsc": 533,
      "Ġfirst": 534,
      "own": 535,
      "ond": 536,
      "ik": 537,
      "vel": 538,
      "ition": 539,
      "ile": 540,
      "Ġout": 541,
      "Ġ20": 542,
      "ents": 543,
      "ree": 544,
      "ory": 545,
      "ress": 546,
      "Ġbeen": 547,
      "ount": 548,
      "Ġpre": 549,
      "ind": 550,
      "able": 551,
      "fer": 552,
      "hed": 553,
      "Ġrec": 554,
      "Ġbec": 555,
      "ild": 556,
      "ough": 557,
      "Ġyear": 558,
      "ĠIt": 559,
      "Ġag": 560,
      "ĠHe": 561,
      "erv": 562,
      "ric": 563,
      "Ġsp": 564,
      "Ġher": 565,
      "ose": 566,
      "ens": 567,
      "over": 568,
      "Ġev": 569,
      "ks": 570,
      "oll": 571,
      "ang": 572,
      "Ġup": 573,
      "ace": 574,
      "ase": 575,
      "one": 576,
      "nder": 577,
      "Ġro": 578,
      "Ġover": 579,
      "Ġtwo": 580,
      "ces": 581,
      "reat": 582,
      "port": 583,
      "clud": 584,
      "Ġme": 585,
      "Ġ4": 586,
      "ake": 587,
      "Ġspe": 588,
      "Ġdes": 589,
      "ph": 590,
      "uring": 591,
      "Ġinto": 592,
      "Ġcomm": 593,
      "aus": 594,
      "ors": 595,
      "ite": 596,
      "Ġdo": 597,
      "Ġtr": 598,
      "ade": 599,
      "ates": 600,
      "Ġtime": 601,
      "Ġwould": 602,
      "The": 603,
      "Ġ18": 604,
      "Ġ5": 605,
      "wn": 606,
      "Ġabout": 607,
      "ĠAl": 608,
      "ĠâĢĵ": 609,
      "Ġso": 610,
      "rough": 611,
      "Ġinter": 612,
      "form": 613,
      "ail": 614,
      "we": 615,
      "land": 616,
      "Ġthem": 617,
      "Ġwill": 618,
      "ced": 619,
      "int": 620,
      "ons": 621,
      "ĠY": 622,
      "Ġinclud": 623,
      "ep": 624,
      "ings": 625,
      "Ġthan": 626,
      "Ġwhen": 627,
      "ng": 628,
      "Ġpe": 629,
      "Ġafter": 630,
      "ĠUn": 631,
      "Ġbet": 632,
      "Ġnew": 633,
      "les": 634,
      "ays": 635,
      "ook": 636,
      "Ġqu": 637,
      "Ġkn": 638,
      "ark": 639,
      "ck": 640,
      "urn": 641,
      "Ġ201": 642,
      "erm": 643,
      "Ġ;": 644,
      "Ġwork": 645,
      "ious": 646,
      "old": 647,
      "Ġoff": 648,
      "ied": 649,
      "amp": 650,
      "ve": 651,
      "Ġmost": 652,
      "Ġcons": 653,
      "lic": 654,
      "Ġsy": 655,
      "'s": 656,
      "ne": 657,
      "Ġra": 658,
      "ased": 659,
      "Ġatt": 660,
      "Ġthere": 661,
      "Ġtra": 662,
      "Ġsome": 663,
      "Ġfl": 664,
      "very": 665,
      "Ġstud": 666,
      "ited": 667,
      "Ġapp": 668,
      "iss": 669,
      "ual": 670,
      "aw": 671,
      "Ġunder": 672,
      "Ġact": 673,
      "ob": 674,
      "Ġonly": 675,
      "lect": 676,
      "Ġacc": 677,
      "oy": 678,
      "ational": 679,
      "rib": 680,
      "olog": 681,
      "Ġfe": 682,
      "ĠSe": 683,
      "Ġrel": 684,
      "ft": 685,
      "Ġind": 686,
      "Ġshe": 687,
      "Ġinc": 688,
      "ĠThis": 689,
      "âĢĿ": 690,
      "round": 691,
      "oth": 692,
      "Ġ6": 693,
      "Ġrem": 694,
      "Ġhim": 695,
      "ward": 696,
      "Ġthrough": 697,
      "ath": 698,
      "Ġprodu": 699,
      "Ġyour": 700,
      "tern": 701,
      "gan": 702,
      "ren": 703,
      "Ġsuch": 704,
      "Ġpr": 705,
      "ning": 706,
      "ular": 707,
      "Ġmay": 708,
      "ween": 709,
      ".@": 710,
      "Ġ@.@": 711,
      "ike": 712,
      "Ġgen": 713,
      "red": 714,
      "ific": 715,
      "ool": 716,
      "Ġbl": 717,
      "Ġplay": 718,
      "ating": 719,
      "Ġear": 720,
      "fore": 721,
      "Ġass": 722,
      "Ġreg": 723,
      "ople": 724,
      "ower": 725,
      "ĠAs": 726,
      "Ġsec": 727,
      "ause": 728,
      "ick": 729,
      "Ġbetween": 730,
      "ject": 731,
      "Ġcent": 732,
      "Ġam": 733,
      "als": 734,
      "ĠRe": 735,
      "Ġ:": 736,
      "velop": 737,
      ",@": 738,
      "Ġ@,@": 739,
      "ted": 740,
      "Ġpo": 741,
      "oss": 742,
      "Ġspec": 743,
      "ts": 744,
      "ities": 745,
      "Ġ7": 746,
      "Ġthese": 747,
      "Ġsa": 748,
      "Ġused": 749,
      "Ġform": 750,
      "end": 751,
      "Ġduring": 752,
      "Ġdif": 753,
      "Ġno": 754,
      "meric": 755,
      "Ġbu": 756,
      "ĠâĢľ": 757,
      "Ġsub": 758,
      "att": 759,
      "ollow": 760,
      "Ġwhere": 761,
      "Ġhow": 762,
      "Ġnum": 763,
      "Ġyears": 764,
      "ron": 765,
      "ram": 766,
      "Ġprov": 767,
      "ics": 768,
      "ars": 769,
      "ember": 770,
      "hes": 771,
      "Ġpeople": 772,
      "Ġagain": 773,
      "Ġcol": 774,
      "hen": 775,
      "Ġac": 776,
      "Ġsur": 777,
      "ever": 778,
      "ĠAmeric": 779,
      "Ġsupp": 780,
      "ys": 781,
      "Ġany": 782,
      "Ġmany": 783,
      "ix": 784,
      "Ġimp": 785,
      "iew": 786,
      "Ġuse": 787,
      "ily": 788,
      "Ġend": 789,
      "Ġdevelop": 790,
      "Ġ8": 791,
      "arch": 792,
      "ered": 793,
      "ĠAr": 794,
      "ident": 795,
      "Ġeff": 796,
      "inal": 797,
      "ict": 798,
      "ise": 799,
      "Ġem": 800,
      "Ġhigh": 801,
      "Ġinv": 802,
      "ife": 803,
      "stem": 804,
      "ins": 805,
      "ivers": 806,
      "hip": 807,
      "Ġadd": 808,
      "iet": 809,
      "ten": 810,
      "ĠDe": 811,
      "orth": 812,
      "Ġpres": 813,
      "Ġco": 814,
      "ful": 815,
      "Ġlar": 816,
      "ug": 817,
      "Ġchar": 818,
      "Ġwell": 819,
      "Ġthree": 820,
      "ĠNew": 821,
      "ative": 822,
      "ient": 823,
      "000": 824,
      "Ġph": 825,
      "Ġpub": 826,
      "ĠCom": 827,
      "uch": 828,
      "Ġmade": 829,
      "Ġcall": 830,
      "Ġob": 831,
      "ason": 832,
      "led": 833,
      "ros": 834,
      "Ġthen": 835,
      "Ġdef": 836,
      "Ġdec": 837,
      "ures": 838,
      "other": 839,
      "Ġwhile": 840,
      "Ġfound": 841,
      "Ġret": 842,
      "Ġ9": 843,
      "Ġ199": 844,
      "row": 845,
      ").": 846,
      "Ġcould": 847,
      "its": 848,
      "ral": 849,
      "ished": 850,
      "Ġloc": 851,
      "Ġgo": 852,
      "cess": 853,
      "Ġmet": 854,
      "ines": 855,
      "Ġfollow": 856,
      "Ġif": 857,
      "outh": 858,
      "way": 859,
      "Ġbeing": 860,
      "Ġbefore": 861,
      "elf": 862,
      "ert": 863,
      "ran": 864,
      "ĠOn": 865,
      "chool": 866,
      "Ġsm": 867,
      "any": 868,
      "Ġmov": 869,
      "Ġap": 870,
      "io": 871,
      "uc": 872,
      "Ġwrit": 873,
      "ism": 874,
      "oh": 875,
      "ps": 876,
      "Ġpol": 877,
      "Ġlong": 878,
      "Ġchild": 879,
      "Ġfil": 880,
      "ement": 881,
      "Ġset": 882,
      "Ġent": 883,
      "Ġserv": 884,
      "Ġwhat": 885,
      "Ġlater": 886,
      "ink": 887,
      "ible": 888,
      "ork": 889,
      "ually": 890,
      "iel": 891,
      "ility": 892,
      "ature": 893,
      "ments": 894,
      "pect": 895,
      "Ġgame": 896,
      "ather": 897,
      "ution": 898,
      "Ġinf": 899,
      "ived": 900,
      "ock": 901,
      "ists": 902,
      "ting": 903,
      "ract": 904,
      "overn": 905,
      "Ġhel": 906,
      "Ġtrans": 907,
      "Ġlike": 908,
      "Ġsystem": 909,
      "ton": 910,
      "ale": 911,
      "Ġsaid": 912,
      "Ġmon": 913,
      "Ġexp": 914,
      "Ġinst": 915,
      "ury": 916,
      "ĠWh": 917,
      "air": 918,
      "ision": 919,
      "ble": 920,
      "man": 921,
      "cept": 922,
      "Ġdisc": 923,
      "orn": 924,
      "eral": 925,
      "Ġback": 926,
      "Ġsecond": 927,
      "Ġpers": 928,
      "ved": 929,
      "ince": 930,
      "Ġboth": 931,
      "Ġ10": 932,
      "ĠAn": 933,
      "cy": 934,
      "ll": 935,
      "Ġmin": 936,
      "Ġdiffer": 937,
      "Ġmod": 938,
      "ames": 939,
      "Ġcar": 940,
      "Ġshow": 941,
      "Ġser": 942,
      "Ġcount": 943,
      "Ġbel": 944,
      "Ġnumber": 945,
      "Ġlead": 946,
      "Ġmus": 947,
      "Ġneed": 948,
      "alth": 949,
      "Ġrele": 950,
      "ined": 951,
      "aking": 952,
      "xt": 953,
      "ants": 954,
      "aj": 955,
      "ange": 956,
      "ĠAt": 957,
      "Ġcre": 958,
      "Ġsign": 959,
      "Ġsever": 960,
      "vent": 961,
      "Ġfour": 962,
      "ĠLe": 963,
      "ĠInd": 964,
      "ĠCon": 965,
      "Ġdist": 966,
      "Ġour": 967,
      "Ġmain": 968,
      "Ġown": 969,
      "ier": 970,
      "Ġrep": 971,
      "Ġrecord": 972,
      "Ġsim": 973,
      "Ġbecause": 974,
      "Ġfam": 975,
      "Ġdid": 976,
      "Ġpop": 977,
      "ized": 978,
      "oun": 979,
      "Ġart": 980,
      "irect": 981,
      "Ġed": 982,
      "Ġfilm": 983,
      "ained": 984,
      "imes": 985,
      "Ġincluding": 986,
      "Ġcomple": 987,
      "get": 988,
      "ĠSh": 989,
      "Ġagainst": 990,
      "Ġmed": 991,
      "Ġappe": 992,
      "ty": 993,
      "und": 994,
      "Ġcontin": 995,
      "ird": 996,
      "rop": 997,
      "Ġwater": 998,
      "Ġwar": 999,
      "ah": 1000,
      "ven": 1001,
      "ared": 1002,
      "Ġsame": 1003,
      "ives": 1004,
      "iver": 1005,
      "ĠSc": 1006,
      "Ġsong": 1007,
      "ural": 1008,
      "Ġgrou": 1009,
      "ield": 1010,
      "ross": 1011,
      "ically": 1012,
      "cial": 1013,
      "Ġworld": 1014,
      "Ġop": 1015,
      "ired": 1016,
      "ey": 1017,
      "ern": 1018,
      "Ġjust": 1019,
      "Ġ17": 1020,
      "ouse": 1021,
      "Ġday": 1022,
      "Ġest": 1023,
      "pr": 1024,
      "au": 1025,
      "ruct": 1026,
      "Ġhelp": 1027,
      "ash": 1028,
      "ĠUnited": 1029,
      "Ġmake": 1030,
      "ank": 1031,
      "ues": 1032,
      "ode": 1033,
      "Ġdet": 1034,
      "ĠHow": 1035,
      "Ġsl": 1036,
      "ĠEng": 1037,
      "Ġresult": 1038,
      "ised": 1039,
      "Ġeach": 1040,
      "rol": 1041,
      "Ġep": 1042,
      "az": 1043,
      "Ġ-": 1044,
      "Ġpartic": 1045,
      "Ġshould": 1046,
      "ience": 1047,
      "Ġknown": 1048,
      "Ġincre": 1049,
      "Ġteam": 1050,
      "der": 1051,
      "gg": 1052,
      "Ġcalled": 1053,
      "Ġcharact": 1054,
      "ĠThey": 1055,
      "Ġ12": 1056,
      "ĠFor": 1057,
      "Ġdesign": 1058,
      "Ġaut": 1059,
      "ĠâĢĶ": 1060,
      "Ġins": 1061,
      "omet": 1062,
      "Ġvery": 1063,
      "illion": 1064,
      "Ġeven": 1065,
      "ĠAmerican": 1066,
      "Ġgovern": 1067,
      "Ġvar": 1068,
      "ness": 1069,
      "Ġair": 1070,
      "Ġocc": 1071,
      "Ġland": 1072,
      "ology": 1073,
      "Ġthose": 1074,
      "Ġdown": 1075,
      "Ġhist": 1076,
      "ĠIs": 1077,
      "gy": 1078,
      "Ġseason": 1079,
      "ax": 1080,
      "Ġmuch": 1081,
      "ĠBrit": 1082,
      "Ġext": 1083,
      "Ġ15": 1084,
      "Ġsmall": 1085,
      "up": 1086,
      "ium": 1087,
      "Ġsupport": 1088,
      "Ġeffect": 1089,
      "apt": 1090,
      "Ġschool": 1091,
      "Ġpoint": 1092,
      "cent": 1093,
      "Ġsing": 1094,
      "osed": 1095,
      "Ġprog": 1096,
      "chn": 1097,
      "emb": 1098,
      "ove": 1099,
      "ĠPro": 1100,
      "Ġbecame": 1101,
      "Ġlife": 1102,
      "els": 1103,
      "Ġgr": 1104,
      "Ġbro": 1105,
      "ull": 1106,
      "..": 1107,
      "Ġhum": 1108,
      "Ġty": 1109,
      "Ġpass": 1110,
      "Ġway": 1111,
      "ner": 1112,
      "ek": 1113,
      "Ġrev": 1114,
      "Ġorig": 1115,
      "Ġclass": 1116,
      "though": 1117,
      "ene": 1118,
      "Ġexper": 1119,
      "ided": 1120,
      "ets": 1121,
      "ĠJoh": 1122,
      "Ġ000": 1123,
      "),": 1124,
      "Ġseveral": 1125,
      "con": 1126,
      "Ġstr": 1127,
      "Ġearly": 1128,
      "Ġ/": 1129,
      "tle": 1130,
      "Ġaround": 1131,
      "ane": 1132,
      "Ġthough": 1133,
      "Ġmil": 1134,
      "Ġstart": 1135,
      "Ġnear": 1136,
      "Ġpower": 1137,
      "Ġdirect": 1138,
      "Ġimport": 1139,
      "Ġperform": 1140,
      "Ġrequ": 1141,
      "Ġunt": 1142,
      "ccess": 1143,
      "ages": 1144,
      "Ġconst": 1145,
      "Ġ16": 1146,
      "Ġrece": 1147,
      "Ġright": 1148,
      "ĠZ": 1149,
      "Ġreport": 1150,
      "Ġ0": 1151,
      "ĠBe": 1152,
      "iving": 1153,
      "crib": 1154,
      "ĠWe": 1155,
      "Ġbr": 1156,
      "ody": 1157,
      "Ġdifferent": 1158,
      "bum": 1159,
      "Ġmat": 1160,
      "ĠAfter": 1161,
      "Ġfin": 1162,
      "Ġdep": 1163,
      "Ġconsid": 1164,
      "uss": 1165,
      "Ġexpl": 1166,
      "Ġrun": 1167,
      "Ġstate": 1168,
      "Ġsk": 1169,
      "Ġ198": 1170,
      "ĠJohn": 1171,
      "Ġlit": 1172,
      "Ġperson": 1173,
      "ann": 1174,
      "ajor": 1175,
      "Ġevery": 1176,
      "Ġnow": 1177,
      "ex": 1178,
      "arm": 1179,
      "ains": 1180,
      "ute": 1181,
      "Ġpublic": 1182,
      "Ġgu": 1183,
      "ley": 1184,
      "Ġmy": 1185,
      "ober": 1186,
      "iversity": 1187,
      "ĠCl": 1188,
      "Ġelect": 1189,
      "Ġpat": 1190,
      "Ġknow": 1191,
      "Ġfact": 1192,
      "lished": 1193,
      "Ġpos": 1194,
      "Ġbuild": 1195,
      "Ġ11": 1196,
      "lish": 1197,
      "ĠShe": 1198,
      "Ġoper": 1199,
      "une": 1200,
      "ately": 1201,
      "Ġuntil": 1202,
      "gin": 1203,
      "Ġadv": 1204,
      "ued": 1205,
      "Ġdr": 1206,
      "ides": 1207,
      "Ġcommun": 1208,
      "iam": 1209,
      "Ġinform": 1210,
      "Ġopen": 1211,
      "Ġepis": 1212,
      "eng": 1213,
      "ional": 1214,
      "Ġget": 1215,
      "Ġseries": 1216,
      "oot": 1217,
      "son": 1218,
      "aving": 1219,
      "ases": 1220,
      "Ġprot": 1221,
      "Ġcur": 1222,
      "ians": 1223,
      "Ġalbum": 1224,
      "raph": 1225,
      "Ġposs": 1226,
      "Ġ194": 1227,
      "Ġrese": 1228,
      "ĠAd": 1229,
      "Ġconf": 1230,
      "Ġlevel": 1231,
      "ĠStates": 1232,
      "ĠSp": 1233,
      "Ġref": 1234,
      "Ġreturn": 1235,
      "ital": 1236,
      "ris": 1237,
      "ina": 1238,
      "enn": 1239,
      "Ġalong": 1240,
      "ĠWar": 1241,
      "ices": 1242,
      "read": 1243,
      "Ġallow": 1244,
      "ĠUS": 1245,
      "pend": 1246,
      "Ġav": 1247,
      "Ġarea": 1248,
      "Ġresp": 1249,
      "Ġorgan": 1250,
      "rist": 1251,
      "Ġsoc": 1252,
      "app": 1253,
      "Ġ$": 1254,
      "ize": 1255,
      "ves": 1256,
      "Ġ197": 1257,
      "Ġlarge": 1258,
      "ĠAust": 1259,
      "Ġbegan": 1260,
      "Ġcrit": 1261,
      "Ġread": 1262,
      "ively": 1263,
      "Ġsuccess": 1264,
      "Ġmillion": 1265,
      "ĠCol": 1266,
      "Ġbook": 1267,
      "Ġchildren": 1268,
      "ulation": 1269,
      "Ġhand": 1270,
      "ĠHowever": 1271,
      "ission": 1272,
      "ata": 1273,
      "omen": 1274,
      "Ġele": 1275,
      "Ġoften": 1276,
      "ording": 1277,
      "Ġfind": 1278,
      "ĠBl": 1279,
      "ĠMar": 1280,
      "akes": 1281,
      "Ġvis": 1282,
      "reen": 1283,
      "ke": 1284,
      "Ġbo": 1285,
      "Ġcour": 1286,
      "Ġtechn": 1287,
      "ret": 1288,
      "hern": 1289,
      "Ġrest": 1290,
      "Ġgreat": 1291,
      "Ġlast": 1292,
      "hem": 1293,
      "ences": 1294,
      "Ġappro": 1295,
      "Ġdescrib": 1296,
      "Ġplace": 1297,
      "ĠCan": 1298,
      "Ġship": 1299,
      "Ġgood": 1300,
      "Ġgener": 1301,
      "Ġanother": 1302,
      "Ġmajor": 1303,
      "iod": 1304,
      "cer": 1305,
      "Ġ196": 1306,
      "Ġhealth": 1307,
      "ms": 1308,
      "ified": 1309,
      "itions": 1310,
      "Ġprom": 1311,
      "Ġgovernment": 1312,
      "Ġmar": 1313,
      "my": 1314,
      "Ġcare": 1315,
      "ĠPh": 1316,
      "Ġsee": 1317,
      "ĠWor": 1318,
      "Ġfollowing": 1319,
      "Ġcentury": 1320,
      "ĠMay": 1321,
      "Ġless": 1322,
      "Ġstill": 1323,
      "ĠThere": 1324,
      "ĠComm": 1325,
      "Ġgroup": 1326,
      "Ġtake": 1327,
      "Ġold": 1328,
      "In": 1329,
      "ats": 1330,
      "ĠAll": 1331,
      "Ġlear": 1332,
      "iven": 1333,
      "Ġsince": 1334,
      "iron": 1335,
      "Ġhead": 1336,
      "com": 1337,
      "Ġ[": 1338,
      "Ġcharacter": 1339,
      "Ġterm": 1340,
      "urch": 1341,
      "ple": 1342,
      "Ġfun": 1343,
      "Ġprocess": 1344,
      "ger": 1345,
      "Ġoffic": 1346,
      "med": 1347,
      "Ġpar": 1348,
      "ĠQ": 1349,
      "Ġ13": 1350,
      "ior": 1351,
      "Ġdoes": 1352,
      "ĠAnd": 1353,
      "Ġdem": 1354,
      "ample": 1355,
      "Ġimportant": 1356,
      "ĠPl": 1357,
      "tend": 1358,
      "Ġusing": 1359,
      "Ġgl": 1360,
      "Ġcontrol": 1361,
      "Ġbre": 1362,
      "Ġfamily": 1363,
      "Ġ14": 1364,
      "Ġfew": 1365,
      "hing": 1366,
      "Ġmusic": 1367,
      "Ġprogram": 1368,
      "uro": 1369,
      "ĠBritish": 1370,
      "rent": 1371,
      "ĠCar": 1372,
      "inc": 1373,
      "ently": 1374,
      "oci": 1375,
      "ĠWhen": 1376,
      "Ġbelie": 1377,
      "Ġiss": 1378,
      "eb": 1379,
      "ĠGerm": 1380,
      "Ġeng": 1381,
      "ense": 1382,
      "Ġwithin": 1383,
      "iqu": 1384,
      "Ġturn": 1385,
      "Ġsol": 1386,
      "ged": 1387,
      "Ġepisode": 1388,
      "Ġcity": 1389,
      "ection": 1390,
      "Ġhome": 1391,
      "Ġcaus": 1392,
      "Ġlook": 1393,
      "Ġequ": 1394,
      "Ġstand": 1395,
      "Ã©": 1396,
      "ĠNorth": 1397,
      "Ġreal": 1398,
      "Ġproble": 1399,
      "ining": 1400,
      "ination": 1401,
      "aced": 1402,
      "Ġcap": 1403,
      "amed": 1404,
      "Ġfive": 1405,
      "iety": 1406,
      "ored": 1407,
      "Ġmonth": 1408,
      "ĠWorld": 1409,
      "Ġopp": 1410,
      "Ġcommon": 1411,
      "Ġattack": 1412,
      "Ġinformation": 1413,
      "Ġwithout": 1414,
      "Ġaff": 1415,
      "Ġpresent": 1416,
      "Ġbased": 1417,
      "Ġcell": 1418,
      "Ġtook": 1419,
      "Ġgrow": 1420,
      "Ġbest": 1421,
      "ilt": 1422,
      "Ġtri": 1423,
      "raft": 1424,
      "Ġcond": 1425,
      "Ġshort": 1426,
      "Ġcor": 1427,
      "Ġsix": 1428,
      "Ġbeh": 1429,
      "Ġtest": 1430,
      "Ġmen": 1431,
      "Ġstudy": 1432,
      "Ġleft": 1433,
      "ential": 1434,
      "Ġname": 1435,
      "lear": 1436,
      "hor": 1437,
      "Ġtop": 1438,
      "Ġes": 1439,
      "Ġke": 1440,
      "Ġann": 1441,
      "Ġstudents": 1442,
      "ency": 1443,
      "Ġspecies": 1444,
      "oint": 1445,
      "vious": 1446,
      "ales": 1447,
      "Ġperiod": 1448,
      "ĠAug": 1449,
      "wards": 1450,
      "Ġnorth": 1451,
      "Ġleg": 1452,
      "Ġtem": 1453,
      "Ġ&": 1454,
      "Ġdue": 1455,
      "Ġreleased": 1456,
      "ĠChrist": 1457,
      "ards": 1458,
      "Ġwin": 1459,
      "aim": 1460,
      "Ġplan": 1461,
      "ĠAustral": 1462,
      "Ġsomet": 1463,
      "Ġline": 1464,
      "ĠUniversity": 1465,
      "alk": 1466,
      "alf": 1467,
      "Ġmark": 1468,
      "ilar": 1469,
      "ling": 1470,
      "Ġactiv": 1471,
      "Ġ195": 1472,
      "Ġlaw": 1473,
      "Ġsingle": 1474,
      "ured": 1475,
      "Ġval": 1476,
      "ĠAugust": 1477,
      "atic": 1478,
      "Ġfre": 1479,
      "attle": 1480,
      "Ġchang": 1481,
      "ec": 1482,
      "urther": 1483,
      "ĠSept": 1484,
      "Ġaddition": 1485,
      "Ġview": 1486,
      "ĠJu": 1487,
      "Ġdeath": 1488,
      "day": 1489,
      "ĠMan": 1490,
      "Ġfood": 1491,
      "less": 1492,
      "Ġ30": 1493,
      "por": 1494,
      "ration": 1495,
      "ĠIf": 1496,
      "rodu": 1497,
      "Ġvers": 1498,
      "Ġhuman": 1499,
      "by": 1500,
      "oman": 1501,
      "Ġword": 1502,
      "ead": 1503,
      "Ġtreat": 1504,
      "oad": 1505,
      "ator": 1506,
      "cing": 1507,
      "Ġide": 1508,
      "ĠBy": 1509,
      "ĠSeptember": 1510,
      "Ġbody": 1511,
      "Ġdam": 1512,
      "ĠBr": 1513,
      "Ġ191": 1514,
      "ĠNov": 1515,
      "ĠYou": 1516,
      "Ġeas": 1517,
      "ĠNational": 1518,
      "Ġarr": 1519,
      "line": 1520,
      "Ġprof": 1521,
      "ĠGe": 1522,
      "Ġbecome": 1523,
      "ĠSouth": 1524,
      "ĠThese": 1525,
      "ĠYork": 1526,
      "lu": 1527,
      "Ġwant": 1528,
      "viron": 1529,
      "Ġredu": 1530,
      "aken": 1531,
      "Ġant": 1532,
      "Ġmemb": 1533,
      "urs": 1534,
      "Ġlight": 1535,
      "Ġreceived": 1536,
      "ĠEuro": 1537,
      "bs": 1538,
      "Ġpolit": 1539,
      "ization": 1540,
      "stand": 1541,
      "Ġinterest": 1542,
      "Ġstory": 1543,
      "ivid": 1544,
      "Ġproject": 1545,
      "Ġsit": 1546,
      "Ġkill": 1547,
      "ĠBut": 1548,
      "hest": 1549,
      "ids": 1550,
      "Ġnext": 1551,
      "Ġamong": 1552,
      "vers": 1553,
      "Ġbas": 1554,
      "to": 1555,
      "Ġlocal": 1556,
      "apan": 1557,
      "Ġdevelopment": 1558,
      "ĠTe": 1559,
      "ĠOct": 1560,
      "Ġ25": 1561,
      "empt": 1562,
      "ĠOr": 1563,
      "Ġevent": 1564,
      "ories": 1565,
      "hers": 1566,
      "ĠEd": 1567,
      "Ġkm": 1568,
      "Th": 1569,
      "Ġmust": 1570,
      "Ġdays": 1571,
      "Ġorder": 1572,
      "ym": 1573,
      "par": 1574,
      "Ġ193": 1575,
      "Ġfore": 1576,
      "ister": 1577,
      "Ġdel": 1578,
      "ertain": 1579,
      "Ġpost": 1580,
      "Ġexample": 1581,
      "Ġinclude": 1582,
      "Ġlow": 1583,
      "the": 1584,
      "conom": 1585,
      "ries": 1586,
      "Ġstre": 1587,
      "Ġestab": 1588,
      "ograph": 1589,
      "osp": 1590,
      "itive": 1591,
      "Ġparticular": 1592,
      "ĠJan": 1593,
      "Ġlist": 1594,
      "Ġinvol": 1595,
      "ĠJapan": 1596,
      "ĠJune": 1597,
      "ĠKing": 1598,
      "Ġport": 1599,
      "Ġresearch": 1600,
      "ĠEurope": 1601,
      "idge": 1602,
      "Ġhig": 1603,
      "Ġhistory": 1604,
      "aster": 1605,
      "yl": 1606,
      "ĠGu": 1607,
      "ality": 1608,
      "Ġcountry": 1609,
      "Ġhowever": 1610,
      "ention": 1611,
      "ĠHar": 1612,
      "ole": 1613,
      "rand": 1614,
      "self": 1615,
      "resent": 1616,
      "20": 1617,
      "arent": 1618,
      "Ġris": 1619,
      "Ġprop": 1620,
      "uary": 1621,
      "Ġsay": 1622,
      "Ġtrad": 1623,
      "Ġident": 1624,
      "Ġwomen": 1625,
      "ots": 1626,
      "ĠOctober": 1627,
      "Ġfinal": 1628,
      "let": 1629,
      "Ġeduc": 1630,
      "ĠCent": 1631,
      "idd": 1632,
      "idence": 1633,
      ".âĢĿ": 1634,
      "aining": 1635,
      "Ġcamp": 1636,
      "Ġlim": 1637,
      "Ġdest": 1638,
      "Ġdise": 1639,
      "ploy": 1640,
      "Ġsugg": 1641,
      "Ġsuggest": 1642,
      "ival": 1643,
      "ergy": 1644,
      "ĠJuly": 1645,
      "Ġanim": 1646,
      "Ġside": 1647,
      "vironment": 1648,
      "ĠEx": 1649,
      "Ġsouth": 1650,
      "ected": 1651,
      "Ġthird": 1652,
      "iness": 1653,
      "pril": 1654,
      "Ġel": 1655,
      "ches": 1656,
      "ances": 1657,
      "ruction": 1658,
      "Ġmembers": 1659,
      "aterial": 1660,
      "ĠHis": 1661,
      "Ġpract": 1662,
      "ĠMarch": 1663,
      "Ġpress": 1664,
      "Ġsimilar": 1665,
      "ript": 1666,
      "mber": 1667,
      "eter": 1668,
      "Ġtoo": 1669,
      "ably": 1670,
      "ĠWill": 1671,
      "ott": 1672,
      "hod": 1673,
      "ĠMc": 1674,
      "Ġstat": 1675,
      "Ġrepl": 1676,
      "ched": 1677,
      "ering": 1678,
      "Ġconc": 1679,
      "ĠII": 1680,
      "augh": 1681,
      "irc": 1682,
      "ont": 1683,
      "rench": 1684,
      "ney": 1685,
      "ividual": 1686,
      "ones": 1687,
      "Ġquest": 1688,
      "ĠApril": 1689,
      "riend": 1690,
      "Ġprevious": 1691,
      "ĠPr": 1692,
      "Ġcame": 1693,
      "Ġled": 1694,
      "Ġappear": 1695,
      "oms": 1696,
      "Ġtimes": 1697,
      "ĠNovember": 1698,
      "Ġbuilt": 1699,
      "ĠGen": 1700,
      "ried": 1701,
      "itary": 1702,
      "Ġdra": 1703,
      "Ġincluded": 1704,
      "ĠFl": 1705,
      "Ġcult": 1706,
      "ox": 1707,
      "Ġinit": 1708,
      "Ġgiven": 1709,
      "Ġmag": 1710,
      "Ġdiv": 1711,
      "Ġla": 1712,
      "Ġmanag": 1713,
      "Ġhy": 1714,
      "19": 1715,
      "Ġthink": 1716,
      "ipp": 1717,
      "Ġsent": 1718,
      "Ġcr": 1719,
      "Ġdata": 1720,
      "fic": 1721,
      "cember": 1722,
      "ĠAf": 1723,
      "Ġtyp": 1724,
      "rote": 1725,
      "Ġcomb": 1726,
      "Ġattempt": 1727,
      "rew": 1728,
      "Ġimpro": 1729,
      "Ġareas": 1730,
      "ĠDuring": 1731,
      "eg": 1732,
      "Ġtre": 1733,
      "here": 1734,
      "Ġ%": 1735,
      "Ġrole": 1736,
      "Ġfield": 1737,
      "Ġmight": 1738,
      "ee": 1739,
      "ways": 1740,
      "ached": 1741,
      "ĠTr": 1742,
      "ĠDecember": 1743,
      "ither": 1744,
      "Ġfurther": 1745,
      "Ġlate": 1746,
      "avy": 1747,
      "Ġhaving": 1748,
      "Ġrefer": 1749,
      "Ġdescribed": 1750,
      "ape": 1751,
      "ental": 1752,
      "ring": 1753,
      "tt": 1754,
      "Ġmaterial": 1755,
      ".\"": 1756,
      "Ġyoung": 1757,
      "Ġreview": 1758,
      "side": 1759,
      "rown": 1760,
      "ological": 1761,
      "Ġtit": 1762,
      "Ġauthor": 1763,
      "ĠJanuary": 1764,
      "Ġindividual": 1765,
      "Ġbus": 1766,
      "Ġsym": 1767,
      "ĠEnglish": 1768,
      "Ġnon": 1769,
      "Ġrad": 1770,
      "ours": 1771,
      "uted": 1772,
      "Ġnever": 1773,
      "ĠOne": 1774,
      "Ġstrong": 1775,
      "Ġpercent": 1776,
      "Ġage": 1777,
      "Ġlik": 1778,
      "Ġphys": 1779,
      "Ġcover": 1780,
      "ĠFrench": 1781,
      "Ġchange": 1782,
      "ai": 1783,
      "Ġwind": 1784,
      "Ġlittle": 1785,
      "oon": 1786,
      "Ġsw": 1787,
      "ression": 1788,
      "ĠÂ": 1789,
      "Ġsignific": 1790,
      "Ġ100": 1791,
      "Ġable": 1792,
      "ially": 1793,
      "Ġwrote": 1794,
      "ĠPar": 1795,
      "Ġeconom": 1796,
      "Ġconsidered": 1797,
      "ources": 1798,
      "yn": 1799,
      "Ġoriginal": 1800,
      "Ġobs": 1801,
      "Ġcommand": 1802,
      "ung": 1803,
      "Ġwon": 1804,
      "Ġnamed": 1805,
      "mit": 1806,
      "Ġtown": 1807,
      "Ġdev": 1808,
      "Ġmaking": 1809,
      "ability": 1810,
      "Ġput": 1811,
      "Ġpain": 1812,
      "Ġintern": 1813,
      "Ġcost": 1814,
      "Ġsold": 1815,
      "Ġhalf": 1816,
      "Ġhouse": 1817,
      "ĠWith": 1818,
      "Ġtot": 1819,
      "Ġweek": 1820,
      "atural": 1821,
      "ify": 1822,
      "Ġclaim": 1823,
      "ote": 1824,
      "ĠAb": 1825,
      "olution": 1826,
      "Ġinflu": 1827,
      "Ġ]": 1828,
      "ĠAm": 1829,
      "Ġvide": 1830,
      "estern": 1831,
      "Ġalthough": 1832,
      "abor": 1833,
      "ĠRes": 1834,
      "ĠMus": 1835,
      "Ġcapt": 1836,
      "angu": 1837,
      "Ġenergy": 1838,
      "||": 1839,
      "Ġothers": 1840,
      "Ġcurrent": 1841,
      "ĠEn": 1842,
      "rem": 1843,
      "ĠEar": 1844,
      "ogn": 1845,
      "Ġband": 1846,
      "Ġdon": 1847,
      "ops": 1848,
      "Ġstruct": 1849,
      "Ġdi": 1850,
      "Ġ...": 1851,
      "co": 1852,
      "Ġ21": 1853,
      "Ġplayed": 1854,
      "ges": 1855,
      "Ġheld": 1856,
      "Ġavail": 1857,
      "br": 1858,
      "ery": 1859,
      "ef": 1860,
      "ĠCal": 1861,
      "imate": 1862,
      "pecial": 1863,
      "Ġpublished": 1864,
      "min": 1865,
      "Ġdeb": 1866,
      "Ġproduct": 1867,
      "ĠCanad": 1868,
      "ĠNo": 1869,
      "most": 1870,
      "Ġrepresent": 1871,
      "ront": 1872,
      "Ġsocial": 1873,
      "ham": 1874,
      "ball": 1875,
      "be": 1876,
      "atch": 1877,
      "ese": 1878,
      "Ġproper": 1879,
      "ĠMed": 1880,
      "Ġconn": 1881,
      "rain": 1882,
      "ills": 1883,
      "Ġ2010": 1884,
      "Ġbegin": 1885,
      "ison": 1886,
      "af": 1887,
      "ĠTo": 1888,
      "ĠAss": 1889,
      "Ġproduction": 1890,
      "Ġpot": 1891,
      "stit": 1892,
      "Ġfac": 1893,
      "Ġ24": 1894,
      "of": 1895,
      "ument": 1896,
      "Ġvol": 1897,
      "ĠMin": 1898,
      "atter": 1899,
      "Ġsound": 1900,
      "Ġsuff": 1901,
      "Ġacross": 1902,
      "Ġaway": 1903,
      "Ġmeas": 1904,
      "Ġpopulation": 1905,
      "ony": 1906,
      "Ġcase": 1907,
      "Ġformer": 1908,
      "ĠAfric": 1909,
      "ĠWest": 1910,
      "ĠX": 1911,
      "Ġfail": 1912,
      "omin": 1913,
      "elt": 1914,
      "Ġpossible": 1915,
      "atures": 1916,
      "Ġground": 1917,
      "Ġfire": 1918,
      "Ġenvironment": 1919,
      "ĠGeor": 1920,
      "Ġbetter": 1921,
      "Ġbuilding": 1922,
      "duct": 1923,
      "sel": 1924,
      "Ġcontinued": 1925,
      "ĠEm": 1926,
      "Ġrout": 1927,
      "utes": 1928,
      "oph": 1929,
      "Ġsum": 1930,
      "Ġsignificant": 1931,
      "ae": 1932,
      "oid": 1933,
      "aps": 1934,
      "Ġspecial": 1935,
      "Ġdeveloped": 1936,
      "Ġgames": 1937,
      "ĠCount": 1938,
      "ĠHer": 1939,
      "ĠFeb": 1940,
      "ler": 1941,
      "Ġve": 1942,
      "Ġprim": 1943,
      "âĢĶ": 1944,
      "icle": 1945,
      "Ġlarg": 1946,
      "Ġkeep": 1947,
      "Ġobject": 1948,
      "sequ": 1949,
      "Ġer": 1950,
      "Ġcolle": 1951,
      "Ġassoci": 1952,
      "gen": 1953,
      "Ġstorm": 1954,
      "pite": 1955,
      "Ġlearn": 1956,
      "Ġoccur": 1957,
      "Ġred": 1958,
      "ators": 1959,
      "Ġvarious": 1960,
      "ĠGerman": 1961,
      "Ġblack": 1962,
      "ĠEngland": 1963,
      "ruary": 1964,
      "ĠFran": 1965,
      "Ġdecl": 1966,
      "ocus": 1967,
      "Ġter": 1968,
      "ĠNe": 1969,
      "Ġtoget": 1970,
      "Ġexist": 1971,
      "Ġtogether": 1972,
      "ief": 1973,
      "Ġgeneral": 1974,
      "ague": 1975,
      "Ġprovide": 1976,
      "aff": 1977,
      "Ġscient": 1978,
      "ĠBar": 1979,
      "Ġrelations": 1980,
      "Ġtotal": 1981,
      "ĠWilliam": 1982,
      "ĠAcc": 1983,
      "work": 1984,
      "Ġnational": 1985,
      "Ġbi": 1986,
      "ivil": 1987,
      ".,": 1988,
      "Ġhard": 1989,
      "Ġavailable": 1990,
      "Ġ50": 1991,
      "Ġmean": 1992,
      "Ġinvest": 1993,
      "Ġgun": 1994,
      "Ġcirc": 1995,
      "Ġunderstand": 1996,
      "Ġwritten": 1997,
      "ĠGod": 1998,
      "Ġfull": 1999,
      "Ġask": 2000,
      "aper": 2001,
      "ĠFebruary": 2002,
      "Ġposition": 2003,
      "Ġseen": 2004,
      "Ġroad": 2005,
      "Ġdisease": 2006,
      "Ġfar": 2007,
      "Ġpolitical": 2008,
      "Ġorigin": 2009,
      "Ġintrodu": 2010,
      "Ġleast": 2011,
      "Ġindust": 2012,
      "Ġfriend": 2013,
      "Ġ2012": 2014,
      "Ġanal": 2015,
      "ficult": 2016,
      "asing": 2017,
      "omes": 2018,
      "ĠWhile": 2019,
      "Ġreported": 2020,
      "roy": 2021,
      "Ġcompany": 2022,
      "Ġ2007": 2023,
      "Ġmot": 2024,
      "iting": 2025,
      "Ġenc": 2026,
      "Ġcreat": 2027,
      "Ġ2008": 2028,
      "ĠCo": 2029,
      "Ġobserv": 2030,
      "iber": 2031,
      "Ġmult": 2032,
      "elling": 2033,
      "Ġfree": 2034,
      "aves": 2035,
      "ĠDes": 2036,
      "Ġvideo": 2037,
      "rap": 2038,
      "ĠChar": 2039,
      "'t": 2040,
      "Ġdifficult": 2041,
      "Ġlangu": 2042,
      "Ġhapp": 2043,
      "Ġcertain": 2044,
      "Ġ2009": 2045,
      "ĠAlthough": 2046,
      "ĠEl": 2047,
      "omm": 2048,
      "ĠAmerica": 2049,
      "Ġmilitary": 2050,
      "Ġtaken": 2051,
      "Ġ2011": 2052,
      "Ġproduced": 2053,
      "oard": 2054,
      "Ġwent": 2055,
      "Ġcy": 2056,
      "Ġlost": 2057,
      "ource": 2058,
      "Ġmonths": 2059,
      "ened": 2060,
      "ublic": 2061,
      "ising": 2062,
      "Ġworks": 2063,
      "Ġseem": 2064,
      "sh": 2065,
      "Ġcal": 2066,
      "Ġthought": 2067,
      "Ġhistor": 2068,
      "ĠIntern": 2069,
      "Ġill": 2070,
      "ĠState": 2071,
      "Ġcome": 2072,
      "Ġpopular": 2073,
      "ĠComp": 2074,
      "Ġsite": 2075,
      "ĠDav": 2076,
      "Ġfeel": 2077,
      "Ġjo": 2078,
      "Ġdiscover": 2079,
      "outhern": 2080,
      "Ġoffer": 2081,
      "Ġ23": 2082,
      "reg": 2083,
      "Ġcreated": 2084,
      "ensive": 2085,
      "istic": 2086,
      "Ġmeet": 2087,
      "Wh": 2088,
      "face": 2089,
      "Ġloss": 2090,
      "ended": 2091,
      "ush": 2092,
      "ĠMich": 2093,
      "lev": 2094,
      "Ġbar": 2095,
      "Ġblood": 2096,
      "ĠRiver": 2097,
      "Ġprevent": 2098,
      "Ġfocus": 2099,
      "yle": 2100,
      "Ġmeans": 2101,
      "Ġsuper": 2102,
      "Ġfoot": 2103,
      "Ġaccess": 2104,
      "Ġvict": 2105,
      "craft": 2106,
      "rict": 2107,
      "ĠSu": 2108,
      "alt": 2109,
      "Ġrather": 2110,
      "Ġbene": 2111,
      "ressed": 2112,
      "ĠSome": 2113,
      "Ġrelease": 2114,
      "Ġcop": 2115,
      "Ġclear": 2116,
      "Ġ22": 2117,
      "Ġmethod": 2118,
      "Ġmoved": 2119,
      "Ġservice": 2120,
      ",âĢĿ": 2121,
      "Ġrange": 2122,
      "uture": 2123,
      "Ġaver": 2124,
      "Ġfall": 2125,
      "Ġdeterm": 2126,
      "Ġwhite": 2127,
      "ĠFr": 2128,
      "10": 2129,
      "Ġabove": 2130,
      "ĠPres": 2131,
      "Ġsays": 2132,
      "aged": 2133,
      "Ġprofess": 2134,
      "view": 2135,
      "Ġcause": 2136,
      "orts": 2137,
      "ĠPol": 2138,
      "eth": 2139,
      "This": 2140,
      "Ġworking": 2141,
      "Ġthroughout": 2142,
      "ware": 2143,
      "Ġplant": 2144,
      "Ġche": 2145,
      "Ġemploy": 2146,
      "ington": 2147,
      "nal": 2148,
      "ille": 2149,
      "urb": 2150,
      "aul": 2151,
      "aut": 2152,
      "Ġpast": 2153,
      "Ġhold": 2154,
      "oney": 2155,
      "Ġgave": 2156,
      "for": 2157,
      "umb": 2158,
      "ude": 2159,
      "ĠMe": 2160,
      "aching": 2161,
      "Ġversion": 2162,
      "Ġcho": 2163,
      "Ġupon": 2164,
      "Ġsqu": 2165,
      "ĠAct": 2166,
      "iment": 2167,
      "Ġ40": 2168,
      "Ġentire": 2169,
      "atory": 2170,
      "ĠCity": 2171,
      "Ġforce": 2172,
      "etic": 2173,
      "Ġord": 2174,
      "Ġrisk": 2175,
      "Ġcut": 2176,
      "Ġsaf": 2177,
      "Ġz": 2178,
      "epend": 2179,
      "Ġmodern": 2180,
      "Ġcoll": 2181,
      "iation": 2182,
      "Ġonce": 2183,
      "ondon": 2184,
      "oring": 2185,
      "lands": 2186,
      "Ġcompet": 2187,
      "Ġeither": 2188,
      "ster": 2189,
      ",\"": 2190,
      "Ġcross": 2191,
      "ropical": 2192,
      "uck": 2193,
      "ĠAng": 2194,
      "orthern": 2195,
      "Ġamount": 2196,
      "ĠSec": 2197,
      "Ġlower": 2198,
      "Ġrespons": 2199,
      "Ġcommunity": 2200,
      "cript": 2201,
      "ĠPark": 2202,
      "Ġproblems": 2203,
      "ope": 2204,
      "Ġfund": 2205,
      "Ġwest": 2206,
      "Ġeight": 2207,
      "ray": 2208,
      "Ġenough": 2209,
      "Ġnatural": 2210,
      "Ġthings": 2211,
      "Ġtrack": 2212,
      "Ġtradition": 2213,
      "Ġspace": 2214,
      "Ġ192": 2215,
      "Ġpred": 2216,
      "ving": 2217,
      "ĠAir": 2218,
      "Ġhere": 2219,
      "imately": 2220,
      "Ġindic": 2221,
      "Ġtru": 2222,
      "ĠHigh": 2223,
      "ilities": 2224,
      "ĠCor": 2225,
      "Ġalmost": 2226,
      "Ġnight": 2227,
      "Ġcells": 2228,
      "Ġcast": 2229,
      "Ġlive": 2230,
      "ateg": 2231,
      "Ġmass": 2232,
      "Ġey": 2233,
      "rought": 2234,
      "ming": 2235,
      "Ġneg": 2236,
      "ements": 2237,
      "Ġusually": 2238,
      "ĠLondon": 2239,
      "Ġforces": 2240,
      "Ġtype": 2241,
      "Ġmatch": 2242,
      "Ġhimself": 2243,
      "ows": 2244,
      "ification": 2245,
      "ĠSy": 2246,
      "Ġsuccessful": 2247,
      "ique": 2248,
      "ford": 2249,
      "pecially": 2250,
      "Ġeast": 2251,
      "ades": 2252,
      "Ġfem": 2253,
      "Ġdefe": 2254,
      "Ġcaused": 2255,
      "ana": 2256,
      "ask": 2257,
      "ĠAccording": 2258,
      "âĢľ": 2259,
      "Ġpri": 2260,
      "dom": 2261,
      "Ġofficial": 2262,
      "Ġrespect": 2263,
      "rest": 2264,
      "Ġgive": 2265,
      "Ġten": 2266,
      "Ġlet": 2267,
      "Ġevidence": 2268,
      "Ġtemper": 2269,
      "ĠTw": 2270,
      "chie": 2271,
      "artment": 2272,
      "ĠPe": 2273,
      "Ġarg": 2274,
      "selves": 2275,
      "isc": 2276,
      "Ġsepar": 2277,
      "Ġfather": 2278,
      "Ġexam": 2279,
      "Ġrecogn": 2280,
      "Ġparticip": 2281,
      "eds": 2282,
      "arc": 2283,
      "Ġregion": 2284,
      "Ġ190": 2285,
      "Ġopt": 2286,
      "ĠDr": 2287,
      "Ġsomething": 2288,
      "Ġlikely": 2289,
      "Ġever": 2290,
      "Ġste": 2291,
      "Ġfeature": 2292,
      "Ġdestroy": 2293,
      "Ġdiscuss": 2294,
      "val": 2295,
      "Ġbusiness": 2296,
      "acy": 2297,
      "lected": 2298,
      "Ġfuture": 2299,
      "Ġearl": 2300,
      "Ġarch": 2301,
      "Ġ2006": 2302,
      "na": 2303,
      "Ġpur": 2304,
      "hel": 2305,
      "Ġ27": 2306,
      "Ġprob": 2307,
      "Ġparent": 2308,
      "Ġfight": 2309,
      "Ġsurv": 2310,
      "iol": 2311,
      "Ġeducation": 2312,
      "Ġestablished": 2313,
      "Ġrelationship": 2314,
      "Ġfav": 2315,
      "ien": 2316,
      "Ġsubject": 2317,
      "omb": 2318,
      "ĠSm": 2319,
      "Ġwriting": 2320,
      "NA": 2321,
      "medi": 2322,
      "Ġgre": 2323,
      "ients": 2324,
      "âĢĵ": 2325,
      "gr": 2326,
      "erc": 2327,
      "Ġcourse": 2328,
      "go": 2329,
      "Ġcontrib": 2330,
      "Ġchanges": 2331,
      "Ġnet": 2332,
      "ĠGeneral": 2333,
      "ĠAustralia": 2334,
      "ĠSchool": 2335,
      "urric": 2336,
      "ĠRuss": 2337,
      "Ġgoing": 2338,
      "ready": 2339,
      "Ġreturned": 2340,
      "Ġexpect": 2341,
      "Ġhigher": 2342,
      "uel": 2343,
      "ĠIm": 2344,
      "Ġtreatment": 2345,
      "ĠCounty": 2346,
      "sc": 2347,
      "Ġgroups": 2348,
      "aces": 2349,
      "Ġengine": 2350,
      "Ġsex": 2351,
      "Ġmiles": 2352,
      "Ġaccount": 2353,
      "Ġdied": 2354,
      "Ġet": 2355,
      "Ġlevels": 2356,
      "ĠIndian": 2357,
      "Ġaction": 2358,
      "Ġ28": 2359,
      "Ġfig": 2360,
      "iddle": 2361,
      "Ġespecially": 2362,
      "Ġ26": 2363,
      "Ġprovided": 2364,
      "ĠJames": 2365,
      "ortun": 2366,
      "Ġmid": 2367,
      "ĠMon": 2368,
      "Ġrelig": 2369,
      "Ġstar": 2370,
      "Ġmor": 2371,
      "Ġaccording": 2372,
      "Ġalways": 2373,
      "Ġtry": 2374,
      "ibility": 2375,
      "ĠSw": 2376,
      "ĠEast": 2377,
      "Ġstarted": 2378,
      "Ġpotential": 2379,
      "anc": 2380,
      "cil": 2381,
      "Ġphot": 2382,
      "Ġfunction": 2383,
      "iding": 2384,
      "Ġfrequ": 2385,
      "Ġincreased": 2386,
      "Ġheart": 2387,
      "ĠThat": 2388,
      "not": 2389,
      "ĠPart": 2390,
      "Ġquick": 2391,
      "Ġlack": 2392,
      "Ġstri": 2393,
      "aring": 2394,
      "Ġitself": 2395,
      "ĠGl": 2396,
      "Ġconditions": 2397,
      "Ġclose": 2398,
      "Ġaccept": 2399,
      "ule": 2400,
      "Ġinj": 2401,
      "Ġlanguage": 2402,
      "Ġalready": 2403,
      "Ġagre": 2404,
      "ius": 2405,
      "Ġrecorded": 2406,
      "ĠâĢĺ": 2407,
      "Ġfeet": 2408,
      "Ġconsider": 2409,
      "Ġson": 2410,
      "Ġnorm": 2411,
      "Ġnews": 2412,
      "ĠSim": 2413,
      "Ġ2013": 2414,
      "Ġproblem": 2415,
      "50": 2416,
      "rated": 2417,
      "ffic": 2418,
      "ires": 2419,
      "Ġclos": 2420,
      "now": 2421,
      "It": 2422,
      "Ġincrease": 2423,
      "Ġfront": 2424,
      "Ġabs": 2425,
      "aign": 2426,
      "ump": 2427,
      "Ġhours": 2428,
      "Ġstates": 2429,
      "uter": 2430,
      "Ġinstead": 2431,
      "ĠPer": 2432,
      "ĠAg": 2433,
      "sy": 2434,
      "Ġbroad": 2435,
      "Ġaverage": 2436,
      "Ġeffects": 2437,
      "Ġannoun": 2438,
      "hib": 2439,
      "Ġplayer": 2440,
      "Ġexperience": 2441,
      "ĠRep": 2442,
      "ett": 2443,
      "ĠSoc": 2444,
      "Ġconv": 2445,
      "Ġge": 2446,
      "iers": 2447,
      "sw": 2448,
      "Ġthreat": 2449,
      "Ġmount": 2450,
      "Ġmaint": 2451,
      "Ġstated": 2452,
      "Ġwords": 2453,
      "Ġself": 2454,
      "Ġpay": 2455,
      "Ġ189": 2456,
      "ĠDep": 2457,
      "Ġrequired": 2458,
      "rick": 2459,
      "thing": 2460,
      "Ġpriv": 2461,
      "cks": 2462,
      "Ġperformance": 2463,
      "Ġcreate": 2464,
      "oe": 2465,
      "ites": 2466,
      "uation": 2467,
      "Ġnecess": 2468,
      "lying": 2469,
      "Ġimpact": 2470,
      "Ġremained": 2471,
      "Ġaud": 2472,
      "Ġcountries": 2473,
      "erous": 2474,
      "Ġregard": 2475,
      "oyal": 2476,
      "Ġcoun": 2477,
      "ream": 2478,
      "rug": 2479,
      "Ġcoast": 2480,
      "ĠQu": 2481,
      "Ġgra": 2482,
      "Ġachie": 2483,
      "uk": 2484,
      "Ġsurface": 2485,
      "ĠJapanese": 2486,
      "Ġpie": 2487,
      "Ġconduct": 2488,
      "Ġimm": 2489,
      "Ġadded": 2490,
      "Ġkind": 2491,
      "oura": 2492,
      "Ġreached": 2493,
      "ume": 2494,
      "Ġdamage": 2495,
      "ctor": 2496,
      "Ġvir": 2497,
      "lex": 2498,
      "ĠReg": 2499,
      "Ġfollowed": 2500,
      "ores": 2501,
      "ama": 2502,
      "ledge": 2503,
      "Ġliving": 2504,
      "Ġkilled": 2505,
      "Ġmix": 2506,
      "agn": 2507,
      "Ġdesigned": 2508,
      "Ġgenerally": 2509,
      "Ġseven": 2510,
      "ino": 2511,
      "iction": 2512,
      "Ġbattle": 2513,
      "Ġrul": 2514,
      "Ġlocated": 2515,
      "Ġevents": 2516,
      "Ġtaking": 2517,
      "Ġwhether": 2518,
      "Ġpolic": 2519,
      "Ġpoints": 2520,
      "ights": 2521,
      "Ġthemselves": 2522,
      "Ġnoted": 2523,
      "Ġdou": 2524,
      "Ġparts": 2525,
      "ĠJew": 2526,
      "Ġbehind": 2527,
      "Ġexc": 2528,
      "play": 2529,
      "cle": 2530,
      "Ġdoc": 2531,
      "Ġmother": 2532,
      "Ġhost": 2533,
      "ift": 2534,
      "Ġoil": 2535,
      "amb": 2536,
      "ength": 2537,
      "Ġtraining": 2538,
      "ma": 2539,
      "Ġaircraft": 2540,
      "Ġships": 2541,
      "Ġtoday": 2542,
      "Ġpressure": 2543,
      "Ġ2005": 2544,
      "Ġmiss": 2545,
      "Ġdone": 2546,
      "cast": 2547,
      "Ġrock": 2548,
      "ald": 2549,
      "Ġce": 2550,
      "irl": 2551,
      "Ġidea": 2552,
      "Ġquestion": 2553,
      "Ġball": 2554,
      "ĠWash": 2555,
      "incip": 2556,
      "Ġround": 2557,
      "lin": 2558,
      "Ġking": 2559,
      "Ġbig": 2560,
      "aur": 2561,
      "emy": 2562,
      "ournal": 2563,
      "used": 2564,
      "Ġtitle": 2565,
      "Ġbase": 2566,
      "cul": 2567,
      "ĠStre": 2568,
      "Ġreason": 2569,
      "Ġcritic": 2570,
      "Ġliter": 2571,
      "Ġcareer": 2572,
      "ze": 2573,
      "bor": 2574,
      "onst": 2575,
      "ought": 2576,
      "Ġwid": 2577,
      "eks": 2578,
      "Ġstop": 2579,
      "ĠArmy": 2580,
      "ĠWhat": 2581,
      "Ġtour": 2582,
      "Ġreally": 2583,
      "Ġconsist": 2584,
      "Ġess": 2585,
      "Ġrights": 2586,
      "Ġbreak": 2587,
      "ging": 2588,
      "ference": 2589,
      "Ġtravel": 2590,
      "Ġcases": 2591,
      "tended": 2592,
      "ĠPhil": 2593,
      "Ġinvolved": 2594,
      "Ġparticularly": 2595,
      "ĠRober": 2596,
      "Ġchart": 2597,
      "Ġkey": 2598,
      "Ġsize": 2599,
      "Ġ29": 2600,
      "Ġmakes": 2601,
      "Ġspecific": 2602,
      "levision": 2603,
      "Ġbird": 2604,
      "Ġchem": 2605,
      "Ġfelt": 2606,
      "clus": 2607,
      "Ġformed": 2608,
      "ĠVir": 2609,
      "Ġbrought": 2610,
      "ĠIr": 2611,
      "head": 2612,
      "ĠRoman": 2613,
      "Ġsongs": 2614,
      "Ġsaw": 2615,
      "ĠStud": 2616,
      "Ġlearning": 2617,
      "Ġserved": 2618,
      "Ġbelow": 2619,
      "Ġgrad": 2620,
      "Ġassist": 2621,
      "ĠEarth": 2622,
      "ĠSo": 2623,
      "Ġmember": 2624,
      "Ġdetail": 2625,
      "Ġmarket": 2626,
      "Ġfeatures": 2627,
      "urricane": 2628,
      "Ġwall": 2629,
      "Ġ186": 2630,
      "Ġpra": 2631,
      "Ġborn": 2632,
      "reek": 2633,
      "ĠSan": 2634,
      "erson": 2635,
      "Ġsystems": 2636,
      "Ġtro": 2637,
      "Ġleading": 2638,
      "ĠRich": 2639,
      "fact": 2640,
      "Ġnov": 2641,
      "ĠPresident": 2642,
      "itch": 2643,
      "ĠAnt": 2644,
      "Ġbehav": 2645,
      "ication": 2646,
      "oor": 2647,
      "Ġcharacters": 2648,
      "ples": 2649,
      "ĠBlack": 2650,
      "eding": 2651,
      "arily": 2652,
      "ĠDiv": 2653,
      "Ġestim": 2654,
      "Ġregular": 2655,
      "Ġprotect": 2656,
      "ĠGeorge": 2657,
      "het": 2658,
      "Ġmem": 2659,
      "Ġtext": 2660,
      "Ġstudies": 2661,
      "12": 2662,
      "lement": 2663,
      "ĠHouse": 2664,
      "Ġchall": 2665,
      "Ġresults": 2666,
      "Ġsun": 2667,
      "Ġcampaign": 2668,
      "Ġconstruction": 2669,
      "iff": 2670,
      "Ġcomplex": 2671,
      "Ġtechnology": 2672,
      "ĠWashington": 2673,
      "ara": 2674,
      "Ġlay": 2675,
      "Ġcommit": 2676,
      "Ġwhole": 2677,
      "ww": 2678,
      "ĠDavid": 2679,
      "Ġdepend": 2680,
      "Ġbenef": 2681,
      "Ġscience": 2682,
      "icles": 2683,
      "Ġfarm": 2684,
      "irth": 2685,
      "Ġvill": 2686,
      "ands": 2687,
      "ĠJack": 2688,
      "ĠMor": 2689,
      "Ġteac": 2690,
      "ica": 2691,
      "Ġmodel": 2692,
      "Ġweeks": 2693,
      "Ġmove": 2694,
      "men": 2695,
      "Ġlab": 2696,
      "Ġshows": 2697,
      "Ġrate": 2698,
      "Ġstage": 2699,
      "utions": 2700,
      "Ġens": 2701,
      "Ġremov": 2702,
      "Ġmoney": 2703,
      "ĠBro": 2704,
      "Ġstation": 2705,
      "Ġconcern": 2706,
      "ĠHist": 2707,
      "Ġrelated": 2708,
      "Ġreact": 2709,
      "Ġeventually": 2710,
      "18": 2711,
      "ĠSch": 2712,
      "ctions": 2713,
      "abit": 2714,
      "yr": 2715,
      "ĠThom": 2716,
      "osition": 2717,
      "Ġconcept": 2718,
      "pper": 2719,
      "ederal": 2720,
      "Ġcivil": 2721,
      "urg": 2722,
      "Ġsoon": 2723,
      "itor": 2724,
      "rel": 2725,
      "Ġesc": 2726,
      "ĠGr": 2727,
      "ael": 2728,
      "Ġarm": 2729,
      "Ġcentral": 2730,
      "Ġsometimes": 2731,
      "Ġbatt": 2732,
      "Ġhit": 2733,
      "Ġreve": 2734,
      "Ġft": 2735,
      "iforn": 2736,
      "Ġfamil": 2737,
      "Ġplants": 2738,
      "ysis": 2739,
      "ĠOther": 2740,
      "Ġviol": 2741,
      "Ġneeded": 2742,
      "omp": 2743,
      "Ġdisp": 2744,
      "ĠItal": 2745,
      "Ġoutside": 2746,
      "vey": 2747,
      "minist": 2748,
      "Ġhor": 2749,
      "ibr": 2750,
      "Ġ188": 2751,
      "Ġgrowth": 2752,
      "aid": 2753,
      "pped": 2754,
      "ership": 2755,
      "atives": 2756,
      "Ġperformed": 2757,
      "Ġmer": 2758,
      "oted": 2759,
      "ĠTra": 2760,
      "field": 2761,
      "Ġtowards": 2762,
      "Ġpoor": 2763,
      "Ġclub": 2764,
      "Ġnature": 2765,
      "Ġdecided": 2766,
      "Ġstep": 2767,
      "ĠSte": 2768,
      "Ġinn": 2769,
      "Ġstyle": 2770,
      "Ġallowed": 2771,
      "Ġgoal": 2772,
      "Ġstru": 2773,
      "oes": 2774,
      "Ġemer": 2775,
      "aries": 2776,
      "Ġcancer": 2777,
      "Ġworked": 2778,
      "Ġindepend": 2779,
      "Ġcourt": 2780,
      "Ġlaun": 2781,
      "Ġactivity": 2782,
      "Ġimmedi": 2783,
      "Ġfish": 2784,
      "ĠHen": 2785,
      "ampions": 2786,
      "ĠCanada": 2787,
      "ifornia": 2788,
      "Ġincreasing": 2789,
      "igned": 2790,
      "ned": 2791,
      "Ġapplic": 2792,
      "ĠFrance": 2793,
      "obal": 2794,
      "Ġlonger": 2795,
      "Ġver": 2796,
      "Ġtell": 2797,
      "anks": 2798,
      "Ġisland": 2799,
      "Ġissue": 2800,
      "Ġstructure": 2801,
      "Ġlargest": 2802,
      "den": 2803,
      "ellow": 2804,
      "Ġrequire": 2805,
      "Ġdig": 2806,
      "urity": 2807,
      "Ġanc": 2808,
      "ĠInternational": 2809,
      "Ġplaced": 2810,
      "Ġcompleted": 2811,
      "Ġlength": 2812,
      "bers": 2813,
      "ĠChristian": 2814,
      "iter": 2815,
      "wh": 2816,
      "ped": 2817,
      "Ġmind": 2818,
      "ĠEuropean": 2819,
      "Ġ2004": 2820,
      "off": 2821,
      "Ġminutes": 2822,
      "Ġwhy": 2823,
      "Ġheavy": 2824,
      "Ġinternational": 2825,
      "Ġlove": 2826,
      "Ġbeginning": 2827,
      "ĠCalifornia": 2828,
      "Ġemb": 2829,
      "ĠHol": 2830,
      "antic": 2831,
      "Ġstreng": 2832,
      "ĠSer": 2833,
      "ĠPort": 2834,
      "ĠStreet": 2835,
      "ĠIndia": 2836,
      "Ġwhose": 2837,
      "Ġwood": 2838,
      "Ġassociated": 2839,
      "aval": 2840,
      "Ġdeg": 2841,
      "ĠKe": 2842,
      "Ġissues": 2843,
      "Ġpersonal": 2844,
      "Ġsat": 2845,
      "Ġappeared": 2846,
      "sych": 2847,
      "Ġaward": 2848,
      "ĠGreat": 2849,
      "asc": 2850,
      "Ġtar": 2851,
      "Ġsequ": 2852,
      "Ġmedical": 2853,
      "Ġdrug": 2854,
      "oming": 2855,
      "Ġcommer": 2856,
      "Ġren": 2857,
      "Ġdeep": 2858,
      "ĠAc": 2859,
      "owers": 2860,
      "Ġhon": 2861,
      "Ġbring": 2862,
      "ĠFirst": 2863,
      "Ġsource": 2864,
      "ĠChurch": 2865,
      "Ġroute": 2866,
      "ening": 2867,
      "Ġterms": 2868,
      "oul": 2869,
      "osing": 2870,
      "Ġtelevision": 2871,
      "Ġphysical": 2872,
      "ĠFrom": 2873,
      "Ġrank": 2874,
      "ĠRoad": 2875,
      "anced": 2876,
      "Ġyet": 2877,
      "Ġexec": 2878,
      "Ġpositive": 2879,
      "Ġearlier": 2880,
      "Ġreb": 2881,
      "Ġactually": 2882,
      "Ġjob": 2883,
      "Ġadult": 2884,
      "ground": 2885,
      "ols": 2886,
      "imum": 2887,
      "hood": 2888,
      "Ġcle": 2889,
      "Ġschools": 2890,
      "Ġsil": 2891,
      "amm": 2892,
      "Ġactivities": 2893,
      "izing": 2894,
      "Ġplayers": 2895,
      "Ġbelieved": 2896,
      "rate": 2897,
      "Ġprincip": 2898,
      "itude": 2899,
      "oke": 2900,
      "Ġbrother": 2901,
      "ĠAustralian": 2902,
      "eum": 2903,
      "Ġcomplete": 2904,
      "nes": 2905,
      "Ġchurch": 2906,
      "order": 2907,
      "Ġknowledge": 2908,
      "Ġtold": 2909,
      "Ġsection": 2910,
      "ĠMet": 2911,
      "unt": 2912,
      "Ã¡": 2913,
      "rial": 2914,
      "aled": 2915,
      "ĠVal": 2916,
      "Ġdraw": 2917,
      "ption": 2918,
      "cies": 2919,
      "Ġ2000": 2920,
      "asons": 2921,
      "ĠGovern": 2922,
      "Ġadditional": 2923,
      "ĠMany": 2924,
      "Ġelements": 2925,
      "Ġmultip": 2926,
      "onse": 2927,
      "Ġrecomm": 2928,
      "Ġsus": 2929,
      "Ġpractice": 2930,
      "ĠColle": 2931,
      "Ġtropical": 2932,
      "ĠMost": 2933,
      "Ġanimals": 2934,
      "ament": 2935,
      "ĠCong": 2936,
      "Ġsouthern": 2937,
      "Ġrace": 2938,
      "Ġmm": 2939,
      "ĠChina": 2940,
      "de": 2941,
      "Ġeconomic": 2942,
      "St": 2943,
      "ĠWil": 2944,
      "arr": 2945,
      "Ġservices": 2946,
      "mon": 2947,
      "Ġshown": 2948,
      "ĠCont": 2949,
      "Ġquality": 2950,
      "Ġannounced": 2951,
      "olic": 2952,
      "Ġlarger": 2953,
      "Ġslow": 2954,
      "Ġlot": 2955,
      "Ġsea": 2956,
      "ror": 2957,
      "Ġopened": 2958,
      "Ġcenter": 2959,
      "oses": 2960,
      "ĠRed": 2961,
      "Ġhous": 2962,
      "ĠNor": 2963,
      "Ġdeal": 2964,
      "Ġtax": 2965,
      "chan": 2966,
      "Ġmedia": 2967,
      "ety": 2968,
      "Ġpresident": 2969,
      "imin": 2970,
      "Ġgreen": 2971,
      "Ġpurp": 2972,
      "ĠVirgin": 2973,
      "Ġprote": 2974,
      "Ġparents": 2975,
      "Ġproduce": 2976,
      "Ġvalue": 2977,
      "atively": 2978,
      "aught": 2979,
      "Ġability": 2980,
      "ander": 2981,
      "Ġstandard": 2982,
      "ulf": 2983,
      "ĠMy": 2984,
      "Ġcou": 2985,
      "Ġappoint": 2986,
      "Ġsens": 2987,
      "Ġvisit": 2988,
      "Ġcomplet": 2989,
      "ios": 2990,
      "iences": 2991,
      "Ġoffice": 2992,
      "Ġways": 2993,
      "Ġneeds": 2994,
      "ĠAssoci": 2995,
      "ĠRoyal": 2996,
      "Ġcompan": 2997,
      "ises": 2998,
      "Ġoriginally": 2999,
      "Ġwanted": 3000,
      "bon": 3001,
      "Ġcred": 3002,
      "ico": 3003,
      "ĠDivision": 3004,
      "11": 3005,
      "odes": 3006,
      "Ġfle": 3007,
      "Ġinvestig": 3008,
      "Ġparty": 3009,
      "Ġcannot": 3010,
      "Ġprobably": 3011,
      "Ġthus": 3012,
      "ully": 3013,
      "ables": 3014,
      "Ġ187": 3015,
      "Ġresearc": 3016,
      "Ġcontract": 3017,
      "Ġrain": 3018,
      "Ġtypes": 3019,
      "Ġelectric": 3020,
      "Ġplaying": 3021,
      "Ġvo": 3022,
      "like": 3023,
      "Ġ60": 3024,
      "aters": 3025,
      "Ġfif": 3026,
      "Ġpeak": 3027,
      "isl": 3028,
      "Ġjud": 3029,
      "itation": 3030,
      "ceed": 3031,
      "Ġpassed": 3032,
      "30": 3033,
      "Ġearth": 3034,
      "Ġmovement": 3035,
      "ĠMount": 3036,
      "Ġquickly": 3037,
      "Ġnorthern": 3038,
      "Ġrecent": 3039,
      "We": 3040,
      "Ġnearly": 3041,
      "rast": 3042,
      "asion": 3043,
      "Ġbeg": 3044,
      "Ġarmy": 3045,
      "Ġwife": 3046,
      "ĠCour": 3047,
      "earch": 3048,
      "aint": 3049,
      "Ġprior": 3050,
      "rian": 3051,
      "ĠIsland": 3052,
      "hold": 3053,
      "Ġlo": 3054,
      "Ġgas": 3055,
      "Ġinsp": 3056,
      "Ġindustry": 3057,
      "Ġcomment": 3058,
      "Ġwild": 3059,
      "Ġstudent": 3060,
      "Ġasked": 3061,
      "Ġincludes": 3062,
      "uth": 3063,
      "ĠCenter": 3064,
      "Ġexcept": 3065,
      "ĠAtl": 3066,
      "Ġlines": 3067,
      "ĠMex": 3068,
      "Ġopportun": 3069,
      "mar": 3070,
      "Ġturned": 3071,
      "ests": 3072,
      "Ġlimited": 3073,
      "cean": 3074,
      "ĠDon": 3075,
      "wood": 3076,
      "ply": 3077,
      "Ġlink": 3078,
      "rag": 3079,
      "Ġconsum": 3080,
      "Ġsubst": 3081,
      "Ġcrew": 3082,
      "ĠBill": 3083,
      "Ġdistrib": 3084,
      "amin": 3085,
      "erve": 3086,
      "Ġremain": 3087,
      "rison": 3088,
      "ils": 3089,
      "Ġmic": 3090,
      "Ġarticle": 3091,
      "Ġpaper": 3092,
      "ĠPal": 3093,
      "Ġbur": 3094,
      "Ġextrem": 3095,
      "ky": 3096,
      "airs": 3097,
      "Ġcommercial": 3098,
      "Ġsummer": 3099,
      "Ġface": 3100,
      "ĠâĢĻ": 3101,
      "arter": 3102,
      "ula": 3103,
      "eration": 3104,
      "Ġcat": 3105,
      "ĠMary": 3106,
      "Ġcompared": 3107,
      "Ġsubsequ": 3108,
      "Ġ2003": 3109,
      "ography": 3110,
      "ptoms": 3111,
      "west": 3112,
      "ĠPaul": 3113,
      "aily": 3114,
      "Ġpath": 3115,
      "bert": 3116,
      "Ġ2014": 3117,
      "Ġtroops": 3118,
      "ault": 3119,
      "ĠMac": 3120,
      "ords": 3121,
      "Ġbrain": 3122,
      "ĠDay": 3123,
      "board": 3124,
      "Ġtransport": 3125,
      "AS": 3126,
      "uff": 3127,
      "Ġ31": 3128,
      "ĠDepartment": 3129,
      "Ġwide": 3130,
      "Ġtarget": 3131,
      "ĠSl": 3132,
      "Ġnumbers": 3133,
      "rie": 3134,
      "ĠRec": 3135,
      "Ġcollect": 3136,
      "back": 3137,
      "ĠLou": 3138,
      "ĠRobert": 3139,
      "ago": 3140,
      "ha": 3141,
      "Ġhighest": 3142,
      "itar": 3143,
      "Ġremains": 3144,
      "iles": 3145,
      "Ġresponse": 3146,
      "Ġdecision": 3147,
      "Ġsense": 3148,
      "isions": 3149,
      "idents": 3150,
      "Ġweight": 3151,
      "fall": 3152,
      "Ġcontact": 3153,
      "Ġforms": 3154,
      "stitute": 3155,
      "tee": 3156,
      "Ġder": 3157,
      "ampionship": 3158,
      "uments": 3159,
      "As": 3160,
      "ulations": 3161,
      "Ġmach": 3162,
      "inn": 3163,
      "ĠArt": 3164,
      "Ġrap": 3165,
      "Ġdark": 3166,
      "Ġcapital": 3167,
      "Ġbirth": 3168,
      "undred": 3169,
      "Ġnuc": 3170,
      "Ġtrue": 3171,
      "Ġfemale": 3172,
      "aker": 3173,
      "Ġgreater": 3174,
      "inct": 3175,
      "Ġoccup": 3176,
      "use": 3177,
      "Ġcontinue": 3178,
      "acter": 3179,
      "Ġprec": 3180,
      "Ġcondition": 3181,
      "Ġruns": 3182,
      "Ġmeaning": 3183,
      "Ġproducts": 3184,
      "Ġresources": 3185,
      "inese": 3186,
      "Ġserious": 3187,
      "ivity": 3188,
      "Ġestablish": 3189,
      "--": 3190,
      "Ġden": 3191,
      "Ġdro": 3192,
      "Ġaffect": 3193,
      "15": 3194,
      "Ġacqu": 3195,
      "Ġapprox": 3196,
      "Ġinfluence": 3197,
      "reland": 3198,
      "Ġprimary": 3199,
      "anned": 3200,
      "If": 3201,
      "Ġmatter": 3202,
      "Ġforest": 3203,
      "Ġsaying": 3204,
      "ĠCompany": 3205,
      "ville": 3206,
      "icient": 3207,
      "Ġbooks": 3208,
      "azine": 3209,
      "Ġsle": 3210,
      "aches": 3211,
      "elled": 3212,
      "Ġspir": 3213,
      "Ġsurround": 3214,
      "uries": 3215,
      "Ġpatients": 3216,
      "rief": 3217,
      "Ġ2015": 3218,
      "Ġflood": 3219,
      "Ġflu": 3220,
      "oo": 3221,
      "Ġapproach": 3222,
      "Ġrail": 3223,
      "Ġnetwork": 3224,
      "alled": 3225,
      "Ġnecessary": 3226,
      "Ġforced": 3227,
      "Ġattention": 3228,
      "Ġprovides": 3229,
      "Ġgold": 3230,
      "ĠTwo": 3231,
      "Ġinteract": 3232,
      "ounds": 3233,
      "ĠMichael": 3234,
      "Ġsoft": 3235,
      "Ġfourth": 3236,
      "Ġwhom": 3237,
      "Ġdead": 3238,
      "Ġnovel": 3239,
      "ĠBer": 3240,
      "Ġ500": 3241,
      "Ġreplaced": 3242,
      "ĠLeague": 3243,
      "Ġtransfer": 3244,
      "ĠChinese": 3245,
      "amer": 3246,
      "Ġjoined": 3247,
      "light": 3248,
      "ĠThomas": 3249,
      "atin": 3250,
      "ĠRepublic": 3251,
      "Ġple": 3252,
      "Ġdate": 3253,
      "Ġspent": 3254,
      "mitted": 3255,
      "oud": 3256,
      "Ġnation": 3257,
      "Ġpen": 3258,
      "Ġgot": 3259,
      "ĠSqu": 3260,
      "Ġcolon": 3261,
      "Ġscen": 3262,
      "Ġveh": 3263,
      "Ġscreen": 3264,
      "ension": 3265,
      "Ġprivate": 3266,
      "Ġriver": 3267,
      "Ġvoc": 3268,
      "Ġpattern": 3269,
      "ĠMad": 3270,
      "ĠHenry": 3271,
      "Ġcru": 3272,
      "ĠWhite": 3273,
      "Ġestimated": 3274,
      "Ġcomes": 3275,
      "ĠAfrican": 3276,
      "edy": 3277,
      "Ġansw": 3278,
      "Ġstay": 3279,
      "Ġ2001": 3280,
      "ean": 3281,
      "ĠCoun": 3282,
      "ĠLa": 3283,
      "Ġ2002": 3284,
      "Ġmess": 3285,
      "Ġconnect": 3286,
      "Ġactive": 3287,
      "Ġclimate": 3288,
      "ties": 3289,
      "Ġaltern": 3290,
      "ĠIreland": 3291,
      "Ġuses": 3292,
      "anish": 3293,
      "utive": 3294,
      "ems": 3295,
      "ĠUnion": 3296,
      "Ġox": 3297,
      "ospital": 3298,
      "Ġfriends": 3299,
      "Ġtend": 3300,
      "Ġconstruct": 3301,
      "ĠAfrica": 3302,
      "ronic": 3303,
      "Ġsal": 3304,
      "illed": 3305,
      "Ġvariety": 3306,
      "Ġtrib": 3307,
      "Ġavoid": 3308,
      "200": 3309,
      "Ġshare": 3310,
      "Ġprep": 3311,
      "ĠBritain": 3312,
      "Ġbad": 3313,
      "vention": 3314,
      "Ġtakes": 3315,
      "enced": 3316,
      "ida": 3317,
      "Ġspeed": 3318,
      "Ġscene": 3319,
      "Ġsimple": 3320,
      "Ġpreviously": 3321,
      "Ġtalk": 3322,
      "ĠHealth": 3323,
      "ĠAngel": 3324,
      "Ġunivers": 3325,
      "ulated": 3326,
      "Ġcit": 3327,
      "fect": 3328,
      "Ġsources": 3329,
      "Ġstra": 3330,
      "ĠFollow": 3331,
      "ĠMart": 3332,
      "Ġ35": 3333,
      "ims": 3334,
      "Ġsociety": 3335,
      "Ġreduce": 3336,
      "Ġtheory": 3337,
      "ĠGreen": 3338,
      "ĠBra": 3339,
      "Ġterrit": 3340,
      "Ġtraditional": 3341,
      "Ġspread": 3342,
      "Ġculture": 3343,
      "Ġsem": 3344,
      "aughter": 3345,
      "Ġcontent": 3346,
      "Ġdocument": 3347,
      "BC": 3348,
      "Ġult": 3349,
      "Ġintroduced": 3350,
      "Ġdemonst": 3351,
      "What": 3352,
      "ĠBo": 3353,
      "ervation": 3354,
      "eal": 3355,
      "Ġwoman": 3356,
      "ĠQue": 3357,
      "Ġfinished": 3358,
      "Ġnormal": 3359,
      "Ġadop": 3360,
      "Ġunits": 3361,
      "leg": 3362,
      "Ġcarry": 3363,
      "Ġur": 3364,
      "Ġlog": 3365,
      "ider": 3366,
      "II": 3367,
      "Ġir": 3368,
      "ĠRichard": 3369,
      "ĠSen": 3370,
      "ston": 3371,
      "ĠWestern": 3372,
      "ĠVirginia": 3373,
      "Ġdirector": 3374,
      "Ġskin": 3375,
      "Ġanti": 3376,
      "uge": 3377,
      "Ġcomputer": 3378,
      "Ġeffective": 3379,
      "joy": 3380,
      "Ġmom": 3381,
      "Ġstaff": 3382,
      "Ġsymptoms": 3383,
      "Ġcritical": 3384,
      "Ġcontain": 3385,
      "Ġmeasure": 3386,
      "ĠMore": 3387,
      "irm": 3388,
      "osis": 3389,
      "Ġcontains": 3390,
      "ĠDespite": 3391,
      "Ġdirectly": 3392,
      "Ġquestions": 3393,
      "iant": 3394,
      "Ġ!": 3395,
      "Ġdog": 3396,
      "ricult": 3397,
      "ĠMal": 3398,
      "ession": 3399,
      "Ġopening": 3400,
      "Ġresearchers": 3401,
      "Ġâ": 3402,
      "Ġsett": 3403,
      "ĠCollege": 3404,
      "ĠInter": 3405,
      "ancy": 3406,
      "gar": 3407,
      "chest": 3408,
      "Ġmechan": 3409,
      "Ġcolor": 3410,
      "Ġimage": 3411,
      "ancial": 3412,
      "Ġcarried": 3413,
      "Ġang": 3414,
      "ips": 3415,
      "Ġhop": 3416,
      "ams": 3417,
      "ĠEv": 3418,
      "Ġadminist": 3419,
      "ĠMiss": 3420,
      "Ġshot": 3421,
      "Ġsure": 3422,
      "Ġdespite": 3423,
      "ER": 3424,
      "Ġdiet": 3425,
      "Ġprison": 3426,
      "Ġsch": 3427,
      "aging": 3428,
      "Ġindividuals": 3429,
      "Ġtemperature": 3430,
      "ĠAssociation": 3431,
      "Ġlives": 3432,
      "ĠCons": 3433,
      "enty": 3434,
      "Ġreach": 3435,
      "Ġtrade": 3436,
      "astic": 3437,
      "Ġhundred": 3438,
      "rect": 3439,
      "unk": 3440,
      "Ġleave": 3441,
      "Ġsimply": 3442,
      "Ġglobal": 3443,
      "ĠBattle": 3444,
      "Ġvictory": 3445,
      "Ġroom": 3446,
      "Ġended": 3447,
      "ĠCharles": 3448,
      "ĠOld": 3449,
      "porary": 3450,
      "Ġminor": 3451,
      "enth": 3452,
      "ĠBel": 3453,
      "oles": 3454,
      "bit": 3455,
      "Ġguns": 3456,
      "Ġconstit": 3457,
      "ĠUK": 3458,
      "que": 3459,
      "ĠOver": 3460,
      "ĠTex": 3461,
      "ĠGermany": 3462,
      "There": 3463,
      "Ġreligious": 3464,
      "lied": 3465,
      "Ġdiscovered": 3466,
      "Ġmi": 3467,
      "berg": 3468,
      "Ġthous": 3469,
      "ĠBrown": 3470,
      "Ġoperations": 3471,
      "Ġcele": 3472,
      "can": 3473,
      "Ġlocation": 3474,
      "Ġ1990": 3475,
      "Ġmedic": 3476,
      "Ġconcent": 3477,
      "Ġfr": 3478,
      "ĠServ": 3479,
      "Ġhyd": 3480,
      "ĠJust": 3481,
      "orial": 3482,
      "Ġanalysis": 3483,
      "ufact": 3484,
      "Ġrunning": 3485,
      "Ġut": 3486,
      "Ġpict": 3487,
      "Ġbelieve": 3488,
      "uous": 3489,
      "ĠHall": 3490,
      "Ġmanagement": 3491,
      "ĠDo": 3492,
      "Ġradio": 3493,
      "Ġheav": 3494,
      "hy": 3495,
      "Ġoverall": 3496,
      "Ġprint": 3497,
      "haps": 3498,
      "itz": 3499,
      "Ġchanged": 3500,
      "Ġpurch": 3501,
      "Ġgirl": 3502,
      "Ġresist": 3503,
      "Ġfort": 3504,
      "ĠFollowing": 3505,
      "40": 3506,
      "Ġprograms": 3507,
      "uit": 3508,
      "Ġthing": 3509,
      "Ġdom": 3510,
      "Ġunc": 3511,
      "Ġbow": 3512,
      "urt": 3513,
      "Ġmajority": 3514,
      "ĠCourt": 3515,
      "ĠBay": 3516,
      "rael": 3517,
      "ying": 3518,
      "Ġdoing": 3519,
      "Ġsmaller": 3520,
      "Ġhurricane": 3521,
      "Ġwestern": 3522,
      "ĠSam": 3523,
      "umn": 3524,
      "Ġencoura": 3525,
      "Ġfat": 3526,
      "change": 3527,
      "Ġcycl": 3528,
      "ste": 3529,
      "Ġconflic": 3530,
      "Ġcritics": 3531,
      "Ġappearance": 3532,
      "60": 3533,
      "Ġrare": 3534,
      "Ġnine": 3535,
      "ĠPat": 3536,
      "Ġ80": 3537,
      "Ġgrowing": 3538,
      "ees": 3539,
      "Ġexerc": 3540,
      "Ġ70": 3541,
      "Ġproposed": 3542,
      "Ġhighly": 3543,
      "ĠApp": 3544,
      "ĠMil": 3545,
      "Ġenjoy": 3546,
      "Ġfailed": 3547,
      "Ġexpected": 3548,
      "me": 3549,
      "itect": 3550,
      "Ġwebs": 3551,
      "Ġpoll": 3552,
      "ĠSince": 3553,
      "uing": 3554,
      "ĠSing": 3555,
      "ĠStar": 3556,
      "ĠPeter": 3557,
      "ĠÃ": 3558,
      "Ġcompanies": 3559,
      "Ġpsych": 3560,
      "Ġcust": 3561,
      "adron": 3562,
      "Ġfavor": 3563,
      "ĠNot": 3564,
      "Ġdestroyed": 3565,
      "ĠLaw": 3566,
      "rab": 3567,
      "ĠPac": 3568,
      "Ġboard": 3569,
      "Ġapproximately": 3570,
      "Ġbecoming": 3571,
      "ĠCouncil": 3572,
      "ĠIrish": 3573,
      "Ġmiddle": 3574,
      "ĠMark": 3575,
      "ĠKingdom": 3576,
      "Ġchemical": 3577,
      "Ġwrite": 3578,
      "Ġinitially": 3579,
      "Ġinside": 3580,
      "Ġmaterials": 3581,
      "13": 3582,
      "che": 3583,
      "ĠCarol": 3584,
      "Ġextra": 3585,
      "Ġscored": 3586,
      "Ġstatus": 3587,
      "Ġhelped": 3588,
      "Ġfit": 3589,
      "Ġsust": 3590,
      "Ġefforts": 3591,
      "Ġpolicy": 3592,
      "Ġforward": 3593,
      "Ġfru": 3594,
      "heast": 3595,
      "Ġeastern": 3596,
      "Ġscientists": 3597,
      "Ġobt": 3598,
      "Ġsigned": 3599,
      "Ġpage": 3600,
      "Ġ185": 3601,
      "liam": 3602,
      "put": 3603,
      "Ġhighway": 3604,
      "ranch": 3605,
      "Ġbank": 3606,
      "roll": 3607,
      "ĠDu": 3608,
      "ĠCongress": 3609,
      "Ġsearch": 3610,
      "Ġmention": 3611,
      "sec": 3612,
      "Ġbomb": 3613,
      "Ġund": 3614,
      "Ġintended": 3615,
      "ocr": 3616,
      "Ġsuggested": 3617,
      "Ġpolice": 3618,
      "Ġlatter": 3619,
      "Ġlif": 3620,
      "ĠGo": 3621,
      "Ġrapid": 3622,
      "17": 3623,
      "Ġmill": 3624,
      "Ġblock": 3625,
      "Ġburn": 3626,
      "Ġinterp": 3627,
      "rong": 3628,
      "Ġmission": 3629,
      "Ġinterview": 3630,
      "ari": 3631,
      "Ġnut": 3632,
      "Ġdirected": 3633,
      "ĠGold": 3634,
      "Ġbuildings": 3635,
      "Ġwalk": 3636,
      "Ġhot": 3637,
      "ĠDan": 3638,
      "Ġinstit": 3639,
      "\".": 3640,
      "An": 3641,
      "ki": 3642,
      "Ġemot": 3643,
      "Ġexpand": 3644,
      "Ġordered": 3645,
      "ĠAlex": 3646,
      "Ġtrees": 3647,
      "Ġattract": 3648,
      "For": 3649,
      "pire": 3650,
      "olar": 3651,
      "istry": 3652,
      "Ġaddress": 3653,
      "Ġbrief": 3654,
      "ĠSun": 3655,
      "ĠPlay": 3656,
      "AT": 3657,
      "Ġtree": 3658,
      "Ġmax": 3659,
      "Ġimmediately": 3660,
      "Ġskills": 3661,
      "lies": 3662,
      "Ġstars": 3663,
      "Ġvia": 3664,
      "Ġadapt": 3665,
      "Ġassess": 3666,
      "vert": 3667,
      "odies": 3668,
      "mission": 3669,
      "ĠMr": 3670,
      "Ġinteg": 3671,
      "Ġfamilies": 3672,
      "Ġrecover": 3673,
      "ĠIsrael": 3674,
      "Ġhar": 3675,
      "ĠInstitute": 3676,
      "Ġreading": 3677,
      "Ġneigh": 3678,
      "Ġtherefore": 3679,
      "ĠFlor": 3680,
      "ropri": 3681,
      "Ġprofessional": 3682,
      "liament": 3683,
      "Ġ1980": 3684,
      "Ġfeatured": 3685,
      "Ġdiss": 3686,
      "Ġhabit": 3687,
      "ĠSpe": 3688,
      "lor": 3689,
      "Ġappears": 3690,
      "ĠResearch": 3691,
      "Ġharm": 3692,
      "cription": 3693,
      "Ġessential": 3694,
      "iring": 3695,
      "Ġeffort": 3696,
      "Ġfinancial": 3697,
      "astern": 3698,
      "Ġlived": 3699,
      "Ġprem": 3700,
      "gypt": 3701,
      "Ġprogress": 3702,
      "house": 3703,
      "vement": 3704,
      "Ġast": 3705,
      "Ġremaining": 3706,
      "ken": 3707,
      "iated": 3708,
      "emic": 3709,
      "Ġbirds": 3710,
      "nding": 3711,
      "Ġfast": 3712,
      "omer": 3713,
      "Ġnames": 3714,
      "Ġenvironmental": 3715,
      "ES": 3716,
      "ĠUp": 3717,
      "raw": 3718,
      "Ġarrived": 3719,
      "Ġupper": 3720,
      "Ġmanufact": 3721,
      "Ġunderstanding": 3722,
      "16": 3723,
      "Ġmph": 3724,
      "ĠSal": 3725,
      "antry": 3726,
      "ĠSmith": 3727,
      "ij": 3728,
      "igan": 3729,
      "rack": 3730,
      "Ġuns": 3731,
      "Ġleaving": 3732,
      "Ġlegal": 3733,
      "Ġresponsible": 3734,
      "ania": 3735,
      "istics": 3736,
      "irection": 3737,
      "ĠViet": 3738,
      "ĠIts": 3739,
      "Ġwinds": 3740,
      "Ġdram": 3741,
      "Ġdeveloping": 3742,
      "ĠCast": 3743,
      "Ġ45": 3744,
      "Ġmoving": 3745,
      "Ġmagn": 3746,
      "ears": 3747,
      "Ġmeeting": 3748,
      "ĠÂ°": 3749,
      ".)": 3750,
      "Ġfederal": 3751,
      "roup": 3752,
      "Ġsituation": 3753,
      "imb": 3754,
      "Ġkil": 3755,
      "Ġlooking": 3756,
      "ĠMars": 3757,
      "ĠVict": 3758,
      "Ġmostly": 3759,
      "Ġsafety": 3760,
      "inary": 3761,
      "ĠPacific": 3762,
      "14": 3763,
      "Ġpack": 3764,
      "Ġsupported": 3765,
      "ĠUs": 3766,
      "Ġquite": 3767,
      "ĠAmericans": 3768,
      "ĠHam": 3769,
      "ested": 3770,
      "Ġheat": 3771,
      "ĠMcC": 3772,
      "Ġplans": 3773,
      "Ġworkers": 3774,
      "arden": 3775,
      "alion": 3776,
      "Ġinstr": 3777,
      "Ġhands": 3778,
      "Ġanimal": 3779,
      "Ġboy": 3780,
      "Ġolder": 3781,
      "Ġscientific": 3782,
      "Ġclaimed": 3783,
      "Ġi": 3784,
      "Ġ|": 3785,
      "Ġbecomes": 3786,
      "icated": 3787,
      "ares": 3788,
      "Ġpil": 3789,
      "Ġideas": 3790,
      "ĠScott": 3791,
      "Ġfactors": 3792,
      "Ġlaws": 3793,
      "Ġsymb": 3794,
      "Ġdefin": 3795,
      "Ġgrant": 3796,
      "ĠEgypt": 3797,
      "Ġrule": 3798,
      "Ġelse": 3799,
      "Ġconclud": 3800,
      "ensity": 3801,
      "Ġmultiple": 3802,
      "ĠUnder": 3803,
      "Ġdang": 3804,
      "ibly": 3805,
      "ria": 3806,
      "Ġbit": 3807,
      "ĠMass": 3808,
      "down": 3809,
      "ĠTimes": 3810,
      "ĠSociety": 3811,
      "//": 3812,
      "Ġlegisl": 3813,
      "ĠTrans": 3814,
      "nown": 3815,
      "ĠNY": 3816,
      "Ġgiving": 3817,
      "Ġmale": 3818,
      "Ġstories": 3819,
      "hens": 3820,
      "Ġleaves": 3821,
      "Ġnumerous": 3822,
      "Ġ1999": 3823,
      "mp": 3824,
      "Ġsubs": 3825,
      "Ġ1970": 3826,
      "Ġshowed": 3827,
      "Ġquarter": 3828,
      "Ġsupply": 3829,
      "ÃŃ": 3830,
      "ĠBen": 3831,
      "Ġincor": 3832,
      "Ġimprove": 3833,
      "Ġslight": 3834,
      "ĠBook": 3835,
      "ĠScience": 3836,
      "Ġdemand": 3837,
      "udd": 3838,
      "Ġreduced": 3839,
      "25": 3840,
      "inks": 3841,
      "lection": 3842,
      "Ġhom": 3843,
      "ĠFrank": 3844,
      "Ġfigure": 3845,
      "Ġice": 3846,
      "Ġwinter": 3847,
      "iable": 3848,
      "room": 3849,
      "Ġtouch": 3850,
      "ellig": 3851,
      "Ġsn": 3852,
      "Ġbul": 3853,
      "Ġaspect": 3854,
      "resh": 3855,
      "duc": 3856,
      "iest": 3857,
      "uz": 3858,
      "Ġcauses": 3859,
      "Ġseparate": 3860,
      "riage": 3861,
      "Ġbasis": 3862,
      "Ġbehavior": 3863,
      "Ġunit": 3864,
      "ibrary": 3865,
      "://": 3866,
      "Ġinitial": 3867,
      "Ġcompletely": 3868,
      "How": 3869,
      "Ġhour": 3870,
      "wide": 3871,
      "Ġoccurred": 3872,
      "rupt": 3873,
      "Ġtow": 3874,
      "Ġdomin": 3875,
      "Ġfuel": 3876,
      "Ġbridge": 3877,
      "fully": 3878,
      "ĠLouis": 3879,
      "Ġrespond": 3880,
      "Ġproperty": 3881,
      "Ġpiece": 3882,
      "nel": 3883,
      "Ġarrang": 3884,
      "Ġsoldiers": 3885,
      "Ġvac": 3886,
      "Ġchalleng": 3887,
      "AR": 3888,
      "Ġbasic": 3889,
      "ĠChic": 3890,
      "aling": 3891,
      "ĠCanadian": 3892,
      "Ġeye": 3893,
      "Ġancient": 3894,
      "Ġrepe": 3895,
      "Ġdiagn": 3896,
      "ech": 3897,
      "Ġonline": 3898,
      "tered": 3899,
      "ĠHum": 3900,
      "Ġscore": 3901,
      "Ġrecords": 3902,
      "Ġseems": 3903,
      "Ġcitiz": 3904,
      "Ġentered": 3905,
      "Ġadj": 3906,
      "Ġfinally": 3907,
      "well": 3908,
      "ĠBec": 3909,
      "ingu": 3910,
      "ĠMag": 3911,
      "Ġago": 3912,
      "pro": 3913,
      "Ġgetting": 3914,
      "Ġremoved": 3915,
      "Ġmis": 3916,
      "Ġfell": 3917,
      "Ġfootball": 3918,
      "ĠGame": 3919,
      "ĠNavy": 3920,
      "Ġdaughter": 3921,
      "ĠHill": 3922,
      "ĠRock": 3923,
      "aped": 3924,
      "Ġdisplay": 3925,
      "Ġcorn": 3926,
      "Ġtoward": 3927,
      "ĠForce": 3928,
      "ĠChe": 3929,
      "Ġ90": 3930,
      "Ġtransl": 3931,
      "Ġ1960": 3932,
      "where": 3933,
      "Ġwriter": 3934,
      "ya": 3935,
      "ait": 3936,
      "Ġqual": 3937,
      "Ġrelatively": 3938,
      "Ġdefeated": 3939,
      "Ġreferred": 3940,
      "force": 3941,
      "ĠLord": 3942,
      "ĠTexas": 3943,
      "Ġraised": 3944,
      "Ġpresented": 3945,
      "ĠTom": 3946,
      "Ġcand": 3947,
      "Ġpark": 3948,
      "Ġlabor": 3949,
      "Ġannual": 3950,
      "Ġlargely": 3951,
      "uated": 3952,
      "Ġcollection": 3953,
      "Ġweap": 3954,
      "Ġx": 3955,
      "AA": 3956,
      "Ġstrength": 3957,
      "ĠSecond": 3958,
      "Ġsleep": 3959,
      "Ġeat": 3960,
      "band": 3961,
      "aby": 3962,
      "Ġplanet": 3963,
      "Ġmethods": 3964,
      "Ġdirection": 3965,
      "Ġpresence": 3966,
      "Ġcommission": 3967,
      "icip": 3968,
      "mosp": 3969,
      "ĠRev": 3970,
      "Ġdecre": 3971,
      "win": 3972,
      "teen": 3973,
      "Ġdepression": 3974,
      "eed": 3975,
      "Ġdaily": 3976,
      "ĠBoth": 3977,
      "ocks": 3978,
      "aded": 3979,
      "ny": 3980,
      "ĠRob": 3981,
      "ĠMill": 3982,
      "Ġclean": 3983,
      "Ġbey": 3984,
      "ĠTheir": 3985,
      "Ġmeant": 3986,
      "Ġelection": 3987,
      "ship": 3988,
      "road": 3989,
      "Ġthr": 3990,
      "Ġalone": 3991,
      "Ġshall": 3992,
      "Ġpraised": 3993,
      "ĠPenn": 3994,
      "ĠCommun": 3995,
      "ĠÂ£": 3996,
      "Ġbeyond": 3997,
      "agon": 3998,
      "Ġarchitect": 3999,
      "ĠSea": 4000,
      "Ġhumans": 4001,
      "Ġrat": 4002,
      "Ġspirit": 4003,
      "ĠAtlantic": 4004,
      "isms": 4005,
      "Ġdistance": 4006,
      "ĠSpanish": 4007,
      "Ġ=": 4008,
      "Ġgrand": 4009,
      "ĠBest": 4010,
      "Ġ300": 4011,
      "ĠCath": 4012,
      "Ġvillage": 4013,
      "Ġbeaut": 4014,
      "Ġcoming": 4015,
      "ĠBecause": 4016,
      "Ġattend": 4017,
      "Ġforeign": 4018,
      "ĠJes": 4019,
      "Ġcommunities": 4020,
      "Ġcold": 4021,
      "Ġsail": 4022,
      "Ġdry": 4023,
      "Ġbal": 4024,
      "Ġstrugg": 4025,
      "ĠPre": 4026,
      "ĠSur": 4027,
      "ĠMusic": 4028,
      "Ġappointed": 4029,
      "Ġjournal": 4030,
      "Ġaffected": 4031,
      "erate": 4032,
      "ĠRout": 4033,
      "Ġcounter": 4034,
      "Ġcapac": 4035,
      "yp": 4036,
      "abet": 4037,
      "Ġscale": 4038,
      "bre": 4039,
      "ĠMur": 4040,
      "ĠPet": 4041,
      "Ġnothing": 4042,
      "Ġpeace": 4043,
      "iny": 4044,
      "Ġobserved": 4045,
      "ka": 4046,
      "onents": 4047,
      "ĠGrand": 4048,
      "ĠDem": 4049,
      "Ġphil": 4050,
      "Ġ1998": 4051,
      "ĠRad": 4052,
      "ĠMont": 4053,
      "Ġweather": 4054,
      "Ġmusical": 4055,
      "Ġeasy": 4056,
      "Ġnegative": 4057,
      "ĠFlorida": 4058,
      "Ġwatch": 4059,
      "Ġbillion": 4060,
      "Ġsen": 4061,
      "ĠLake": 4062,
      "ĠOff": 4063,
      "ipment": 4064,
      "rd": 4065,
      "Ġplaces": 4066,
      "ĠChicago": 4067,
      "estic": 4068,
      "Ġdamaged": 4069,
      "Ġmarried": 4070,
      "Ġrecently": 4071,
      "...": 4072,
      "Ġletter": 4073,
      "80": 4074,
      "Ġunique": 4075,
      "Ġcheck": 4076,
      "eff": 4077,
      "ĠKore": 4078,
      "ĠTest": 4079,
      "Ġcarbon": 4080,
      "Ġattacks": 4081,
      "Ġagreed": 4082,
      "gl": 4083,
      "och": 4084,
      "ttp": 4085,
      "Ġoffered": 4086,
      "ously": 4087,
      "Ġbox": 4088,
      "ĠAcad": 4089,
      "sen": 4090,
      "erg": 4091,
      "Ġdegree": 4092,
      "Ġflow": 4093,
      "Ġleader": 4094,
      "Ġpowerful": 4095,
      "Ġfa": 4096,
      "Ġbound": 4097,
      "olf": 4098,
      "ĠJewish": 4099,
      "Ġgar": 4100,
      "ĠFore": 4101,
      "Ġimpl": 4102,
      "Ġorganization": 4103,
      "atur": 4104,
      "ĠMexico": 4105,
      "gn": 4106,
      "oration": 4107,
      "ĠAp": 4108,
      "Ġimplement": 4109,
      "fl": 4110,
      "ĠAdd": 4111,
      "On": 4112,
      "Ġflight": 4113,
      "Ġissued": 4114,
      "Ġvoice": 4115,
      "ĠFin": 4116,
      "Ġwebsite": 4117,
      "Ġeasily": 4118,
      "Ġblue": 4119,
      "Ġsettle": 4120,
      "Ġpromot": 4121,
      "Ġconducted": 4122,
      "enge": 4123,
      "Ġmagazine": 4124,
      "ĠBC": 4125,
      "When": 4126,
      "Ġchief": 4127,
      "Ġsites": 4128,
      "ĠTer": 4129,
      "ulate": 4130,
      "Ġload": 4131,
      "oma": 4132,
      "Ġvisual": 4133,
      "Ch": 4134,
      "ĠAnother": 4135,
      "Ġsoil": 4136,
      "Ġnotes": 4137,
      "Ġgoals": 4138,
      "Ġsecret": 4139,
      "load": 4140,
      "Ġpick": 4141,
      "Ġtons": 4142,
      "Ġoperation": 4143,
      "Ġpan": 4144,
      "Ġsecurity": 4145,
      "Ġtrying": 4146,
      "Ġstress": 4147,
      "Ġextended": 4148,
      "ĠSystem": 4149,
      "Ġeth": 4150,
      "Ġ36": 4151,
      "ĠArch": 4152,
      "known": 4153,
      "Ġhomes": 4154,
      "Ġidentified": 4155,
      "izes": 4156,
      "ĠVictor": 4157,
      "Ã¶": 4158,
      "Ġsolar": 4159,
      "ipped": 4160,
      "ih": 4161,
      "Ġtherap": 4162,
      "Ġexperien": 4163,
      "ĠHel": 4164,
      "rics": 4165,
      "ĠScot": 4166,
      "uate": 4167,
      "ĠCentral": 4168,
      "Ġgod": 4169,
      "urban": 4170,
      "oviet": 4171,
      "iate": 4172,
      "Ġaware": 4173,
      "Ġacid": 4174,
      "ifying": 4175,
      "Ġimag": 4176,
      "Ġsomeone": 4177,
      "Ġcovered": 4178,
      "Ġbacter": 4179,
      "ĠPri": 4180,
      "Ġselected": 4181,
      "Ġactions": 4182,
      "igade": 4183,
      "osure": 4184,
      "Ġ--": 4185,
      "Al": 4186,
      "phas": 4187,
      "ception": 4188,
      "ĠFort": 4189,
      "Ġcontem": 4190,
      "usion": 4191,
      "itt": 4192,
      "Ġflag": 4193,
      "Ġpurpose": 4194,
      "Ġcontrast": 4195,
      "Ġrecording": 4196,
      "rim": 4197,
      "Ġmel": 4198,
      "Ġdu": 4199,
      "ĠChild": 4200,
      "onic": 4201,
      "Ġreflect": 4202,
      "arrow": 4203,
      "ĠNet": 4204,
      "Ġ32": 4205,
      "Ġmixed": 4206,
      "Ġdoub": 4207,
      "ĠOl": 4208,
      "Ġegg": 4209,
      "ado": 4210,
      "Ġ75": 4211,
      "rier": 4212,
      "Ġnuclear": 4213,
      "nam": 4214,
      "Ġcompl": 4215,
      "Ġagricult": 4216,
      "isation": 4217,
      "Ġfair": 4218,
      "ĠDist": 4219,
      "Ġvess": 4220,
      "Ġcaptured": 4221,
      "Ġgives": 4222,
      "ĠRussian": 4223,
      "Ġreplace": 4224,
      "Ġreviews": 4225,
      "Ġsexual": 4226,
      "Ġexact": 4227,
      "ĠVol": 4228,
      "Ġtypically": 4229,
      "Ġteams": 4230,
      "Ġstarting": 4231,
      "Ġallows": 4232,
      "alle": 4233,
      "ĠRet": 4234,
      "Ġmur": 4235,
      "Ġsevere": 4236,
      "Ġetc": 4237,
      "Ġ1997": 4238,
      "water": 4239,
      "IS": 4240,
      "iar": 4241,
      "Ġhealthy": 4242,
      "Ġofficers": 4243,
      "ĠFranc": 4244,
      "Ġmorning": 4245,
      "Ġbill": 4246,
      "ĠPress": 4247,
      "Ġ33": 4248,
      "Ġresulting": 4249,
      "Ġequipment": 4250,
      "Ġillust": 4251,
      "Ġreceive": 4252,
      "Ġdoll": 4253,
      "Ġtable": 4254,
      "Ġaccomp": 4255,
      "ĠWood": 4256,
      "Ġkept": 4257,
      "):": 4258,
      "Ġones": 4259,
      "Ġfully": 4260,
      "Ġreports": 4261,
      "Ġdouble": 4262,
      "ĠUN": 4263,
      "Ġadvant": 4264,
      "ona": 4265,
      "ĠTor": 4266,
      "Ġeyes": 4267,
      "Ġpet": 4268,
      "Ġtried": 4269,
      "gram": 4270,
      "ĠSoviet": 4271,
      "Ġwidely": 4272,
      "uls": 4273,
      "Ġdoesn": 4274,
      "ĠParty": 4275,
      "Ġswe": 4276,
      "Ġcateg": 4277,
      "iance": 4278,
      "Ġdistinct": 4279,
      "ĠDis": 4280,
      "Ġexhib": 4281,
      "istan": 4282,
      "ĠLand": 4283,
      "fort": 4284,
      "Ġtrial": 4285,
      "ishing": 4286,
      "ĠMod": 4287,
      "ĠGreek": 4288,
      "Ġveget": 4289,
      "Ġcorrect": 4290,
      "Ġdetermine": 4291,
      "Ġsquare": 4292,
      "Ġbroadcast": 4293,
      "omy": 4294,
      "âĢ¦": 4295,
      "Ġcelebr": 4296,
      "icted": 4297,
      "iques": 4298,
      "Ġplanned": 4299,
      "Ġdivision": 4300,
      "Ġindependent": 4301,
      "ĠHistory": 4302,
      "Ġran": 4303,
      "come": 4304,
      "Ġseek": 4305,
      "ĠKh": 4306,
      "Ġbegins": 4307,
      "rey": 4308,
      "ĠMo": 4309,
      "ĠOly": 4310,
      "Ġawarded": 4311,
      "ĠLos": 4312,
      "Ġcool": 4313,
      "Ġdoctor": 4314,
      "ications": 4315,
      "ĠIII": 4316,
      "Ġhydro": 4317,
      "resp": 4318,
      "Ġ184": 4319,
      "PA": 4320,
      "inking": 4321,
      "Ġwaters": 4322,
      "ĠTod": 4323,
      "Ġfilms": 4324,
      "Ġwinning": 4325,
      "ĠBatt": 4326,
      "ĠInf": 4327,
      "Ġcollabor": 4328,
      "Ġclosed": 4329,
      "Ġmole": 4330,
      "Ġscript": 4331,
      "Ġcoal": 4332,
      "Ġ?": 4333,
      "acing": 4334,
      "Ġappropri": 4335,
      "ĠBig": 4336,
      "Ġspect": 4337,
      "Ġprotection": 4338,
      "vin": 4339,
      "ĠRoute": 4340,
      "Ġlaunched": 4341,
      "ĠOlymp": 4342,
      "itable": 4343,
      "iot": 4344,
      "Ġgraph": 4345,
      "ĠWater": 4346,
      "Ġeconomy": 4347,
      "unction": 4348,
      "Ġatmosp": 4349,
      "Ġ37": 4350,
      "Ġdefend": 4351,
      "cel": 4352,
      "overs": 4353,
      "Ġpit": 4354,
      "ĠEduc": 4355,
      "akers": 4356,
      "Ġhistorical": 4357,
      "ĠEr": 4358,
      "ĠCommission": 4359,
      "ĠSuper": 4360,
      "Ġly": 4361,
      "Ġthick": 4362,
      "ĠOut": 4363,
      "formation": 4364,
      "Ġstudio": 4365,
      "Ġhouses": 4366,
      "Ġsales": 4367,
      "osen": 4368,
      "ĠBur": 4369,
      "izations": 4370,
      "Ġnewsp": 4371,
      "ĠSouthern": 4372,
      "Ġspring": 4373,
      "Ġmicro": 4374,
      "Ġcreating": 4375,
      "Ġconvers": 4376,
      "Ġanything": 4377,
      "Ġmetal": 4378,
      "Ġcompar": 4379,
      "Ġdidn": 4380,
      "lam": 4381,
      "rical": 4382,
      "Ġspl": 4383,
      "ĠNews": 4384,
      "Ġlisted": 4385,
      "Ġexpress": 4386,
      "Ġallowing": 4387,
      "Ġshoot": 4388,
      "Ġserve": 4389,
      "ON": 4390,
      "ĠEven": 4391,
      "Ġcontinues": 4392,
      "Ġincorpor": 4393,
      "apter": 4394,
      "Ġgoes": 4395,
      "Ġleaders": 4396,
      "nds": 4397,
      "ĠOper": 4398,
      "Ġwear": 4399,
      "Ġwithd": 4400,
      "Ġdifference": 4401,
      "ĠKenn": 4402,
      "Ġperhaps": 4403,
      "rad": 4404,
      "right": 4405,
      "Ġphilos": 4406,
      "Ġded": 4407,
      "Ġmoment": 4408,
      "Ġsides": 4409,
      "orks": 4410,
      "iat": 4411,
      "Ġovers": 4412,
      "Ġproviding": 4413,
      "Ġtor": 4414,
      "ĠTur": 4415,
      "ĠJose": 4416,
      "Ġepisodes": 4417,
      "Ġcollege": 4418,
      "more": 4419,
      "ĠAlso": 4420,
      "Ġcard": 4421,
      "Ġmaximum": 4422,
      "Ġchoice": 4423,
      "mir": 4424,
      "Ġrevealed": 4425,
      "yal": 4426,
      "ID": 4427,
      "igation": 4428,
      "Ġaccepted": 4429,
      "Ġcultural": 4430,
      "ena": 4431,
      "imal": 4432,
      "Ġassum": 4433,
      "ĠCarl": 4434,
      "Ġsurpr": 4435,
      "Ġcommonly": 4436,
      "stitution": 4437,
      "Ġofficials": 4438,
      "Ġensure": 4439,
      "Ġdeliver": 4440,
      "isher": 4441,
      "ĠAward": 4442,
      "Ġsuffered": 4443,
      "Ġdepart": 4444,
      "ĠOp": 4445,
      "ĠConst": 4446,
      "ĠEdward": 4447,
      "Ġdeclared": 4448,
      "ĠTV": 4449,
      "To": 4450,
      "Ġpurs": 4451,
      "ĠDel": 4452,
      "Ġpun": 4453,
      "ĠLong": 4454,
      "MS": 4455,
      "Ġcities": 4456,
      "Ġbott": 4457,
      "utch": 4458,
      "ĠCarolina": 4459,
      "Ġplot": 4460,
      "Ġimages": 4461,
      "Ġelected": 4462,
      "edom": 4463,
      "ĠProt": 4464,
      "Ġ1950": 4465,
      "inent": 4466,
      "ĠSever": 4467,
      "Ġresulted": 4468,
      "Ġrules": 4469,
      "Ġteachers": 4470,
      "ĠCamp": 4471,
      "andon": 4472,
      "Ġstrateg": 4473,
      "Ġreference": 4474,
      "Ġliterature": 4475,
      "Ġunable": 4476,
      "Ġemphas": 4477,
      "ĠMuseum": 4478,
      "arian": 4479,
      "Ġhospital": 4480,
      "Ġyards": 4481,
      "Ġprotein": 4482,
      "ĠBet": 4483,
      "ĠLater": 4484,
      "Ġconstant": 4485,
      "set": 4486,
      "ĠGroup": 4487,
      "Ġfrequently": 4488,
      "Ġfresh": 4489,
      "orders": 4490,
      "Ġbenefits": 4491,
      "ota": 4492,
      "Ġenter": 4493,
      "Ġadvance": 4494,
      "ners": 4495,
      "vest": 4496,
      "olved": 4497,
      "ĠMa": 4498,
      "ologist": 4499,
      "Ġonto": 4500,
      "Ġaccur": 4501,
      "Ġcounty": 4502,
      "ero": 4503,
      "ordin": 4504,
      "ĠItalian": 4505,
      "Ġcopies": 4506,
      "Ġminute": 4507,
      "Ġdyn": 4508,
      "ĠGovernment": 4509,
      "za": 4510,
      "ĠMichigan": 4511,
      "Ġelement": 4512,
      "90": 4513,
      "Ġcer": 4514,
      "org": 4515,
      "Ġdut": 4516,
      "Ġrise": 4517,
      "Ġcausing": 4518,
      "ĠBow": 4519,
      "ĠBu": 4520,
      "ĠFil": 4521,
      "Ġconflict": 4522,
      "cers": 4523,
      "Ġprimarily": 4524,
      "Ġcapacity": 4525,
      "ĠInst": 4526,
      "ĠChampionship": 4527,
      "ĠJohnson": 4528,
      "Ġ1995": 4529,
      "Ġimportance": 4530,
      "asy": 4531,
      "ĠAut": 4532,
      "ĠCross": 4533,
      "ĠOf": 4534,
      "Ġcurrently": 4535,
      "bridge": 4536,
      "ĠLatin": 4537,
      "Ġkids": 4538,
      "Ġ180": 4539,
      "wise": 4540,
      "olk": 4541,
      "Ġrang": 4542,
      "Ġrespectively": 4543,
      "ĠCro": 4544,
      "ĠEach": 4545,
      "Ġworth": 4546,
      "Ġbackground": 4547,
      "Ġmob": 4548,
      "Ġrough": 4549,
      "ogue": 4550,
      "Ġhorse": 4551,
      "Ġcharge": 4552,
      "ĠCommit": 4553,
      "ias": 4554,
      "ansion": 4555,
      "__": 4556,
      "Ġproced": 4557,
      "Ġassigned": 4558,
      "Ġtraffic": 4559,
      "Ġnative": 4560,
      "Ġconver": 4561,
      "Ġhope": 4562,
      "ĠHaw": 4563,
      "clusion": 4564,
      "Ġpal": 4565,
      "Ġreasons": 4566,
      "Ġec": 4567,
      "ĠSir": 4568,
      "ĠMer": 4569,
      "Ġtwenty": 4570,
      "Ġoccurs": 4571,
      "Ġeverything": 4572,
      "lers": 4573,
      "ube": 4574,
      "awn": 4575,
      "ighter": 4576,
      "Ġspot": 4577,
      "ĠCorps": 4578,
      "Ġvirus": 4579,
      "coh": 4580,
      "Ã¼": 4581,
      "venue": 4582,
      "arters": 4583,
      "Ġmaintain": 4584,
      "Ã³": 4585,
      "ĠCivil": 4586,
      "ype": 4587,
      "Ġsuggests": 4588,
      "à¸": 4589,
      "osh": 4590,
      "But": 4591,
      "bed": 4592,
      "book": 4593,
      "pass": 4594,
      "Ġacad": 4595,
      "Ġfighting": 4596,
      "Ġinspired": 4597,
      "kin": 4598,
      "Ġshape": 4599,
      "Ġpatient": 4600,
      "mark": 4601,
      "apers": 4602,
      "Ġhyp": 4603,
      "ĠTen": 4604,
      "Ġcomposed": 4605,
      "Ġregions": 4606,
      "Ġbelief": 4607,
      "Ġslightly": 4608,
      "ĠAnn": 4609,
      "Ġconstructed": 4610,
      "inter": 4611,
      "Ġprojects": 4612,
      "Åį": 4613,
      "Ġexisting": 4614,
      "Ġrecommend": 4615,
      "Ġfifth": 4616,
      "Ġtests": 4617,
      "ĠCup": 4618,
      "Ġdivided": 4619,
      "ĠAre": 4620,
      "ading": 4621,
      "iful": 4622,
      "ĠColumb": 4623,
      "Ġgreatest": 4624,
      "Ġabandon": 4625,
      "Ġcombat": 4626,
      "Ġsafe": 4627,
      "Ġadults": 4628,
      "Ġcitizens": 4629,
      "ĠRail": 4630,
      "Ġinches": 4631,
      "Ġpaid": 4632,
      "ĠAv": 4633,
      "ĠGil": 4634,
      "Ġthinking": 4635,
      "You": 4636,
      "Ġtim": 4637,
      "ĠEmpire": 4638,
      "Ġ+": 4639,
      "Ġreject": 4640,
      "Ġmarriage": 4641,
      "Ġmemory": 4642,
      "IN": 4643,
      "ĠTown": 4644,
      "Ġvot": 4645,
      "Ġplat": 4646,
      "Ġcombined": 4647,
      "based": 4648,
      "Ġbodies": 4649,
      "Ġrob": 4650,
      "Ġ2016": 4651,
      "Ġobjects": 4652,
      "ĠDevelop": 4653,
      "Ġopin": 4654,
      "ĠFle": 4655,
      "Ġinters": 4656,
      "Ġpoet": 4657,
      "Ġfounded": 4658,
      "Ġinh": 4659,
      "umber": 4660,
      "Ġ38": 4661,
      "ext": 4662,
      "life": 4663,
      "ĠCare": 4664,
      "igg": 4665,
      "Ġnearby": 4666,
      "Ġperfect": 4667,
      "ĠJesus": 4668,
      "Ġportion": 4669,
      "iency": 4670,
      "Ġfix": 4671,
      "Ġgenetic": 4672,
      "Ġcm": 4673,
      "ĠPan": 4674,
      "Ġcentre": 4675,
      "ĠZeal": 4676,
      "ĠJer": 4677,
      "Ġautom": 4678,
      "Ġmachine": 4679,
      "Ġconsequ": 4680,
      "ĠYour": 4681,
      "ĠMinister": 4682,
      "ĠService": 4683,
      "Ġkilomet": 4684,
      "ĠJim": 4685,
      "Ġevolution": 4686,
      "Ġattrib": 4687,
      "Ġopportunity": 4688,
      "Ġyard": 4689,
      "Ġsac": 4690,
      "add": 4691,
      "Ġmarked": 4692,
      "Ġtail": 4693,
      "Ġextend": 4694,
      "Ġdrive": 4695,
      "ĠHot": 4696,
      "Ġlett": 4697,
      "Ġofficer": 4698,
      "Ġarrest": 4699,
      "Ġtracks": 4700,
      "Ġiron": 4701,
      "Ġagg": 4702,
      "ylv": 4703,
      "Ġtur": 4704,
      "Ġcosts": 4705,
      "Ġscenes": 4706,
      "iser": 4707,
      "Ġmanager": 4708,
      "ĠSum": 4709,
      "Ġtheme": 4710,
      "ĠPeople": 4711,
      "la": 4712,
      "bour": 4713,
      "ĠMic": 4714,
      "Ġ1996": 4715,
      "ĠJackson": 4716,
      "Ġsetting": 4717,
      "Ġdebut": 4718,
      "ĠDNA": 4719,
      "Ġresidents": 4720,
      "ounded": 4721,
      "ĠIS": 4722,
      "Ġtechniques": 4723,
      "Ġdetermined": 4724,
      "Ar": 4725,
      "Ġintellig": 4726,
      "Ġattempted": 4727,
      "ĠCommittee": 4728,
      "ugh": 4729,
      "ĠBre": 4730,
      "ux": 4731,
      "Ġ183": 4732,
      "Ġmainly": 4733,
      "Ġstructures": 4734,
      "Ġmut": 4735,
      "Ġclin": 4736,
      "Ġprefer": 4737,
      "ĠZealand": 4738,
      "Ġquant": 4739,
      "Ġtrain": 4740,
      "Ġcandid": 4741,
      "Ġpair": 4742,
      "ĠHere": 4743,
      "Ġweak": 4744,
      "ĠSong": 4745,
      "Ġartist": 4746,
      "Ġvirt": 4747,
      "Ġunf": 4748,
      "ĠTre": 4749,
      "Ġconfir": 4750,
      "ĠMartin": 4751,
      "Ġrein": 4752,
      "cher": 4753,
      "ogen": 4754,
      "iments": 4755,
      "Ġranked": 4756,
      "Ġteaching": 4757,
      "Ġapplied": 4758,
      "Ġlearned": 4759,
      "ĠFrancis": 4760,
      "ĠFre": 4761,
      "Ġfamous": 4762,
      "Ġinjury": 4763,
      "Ġnort": 4764,
      "ĠCatholic": 4765,
      "omers": 4766,
      "ĠDirect": 4767,
      "ĠJournal": 4768,
      "Ġleague": 4769,
      "lo": 4770,
      "ĠDi": 4771,
      "Ġfeed": 4772,
      "Ġdefined": 4773,
      "Ġwalls": 4774,
      "21": 4775,
      "Ġpregn": 4776,
      "unte": 4777,
      "Ġtiss": 4778,
      "Ġmanaged": 4779,
      "Ġapplication": 4780,
      "Ġtrou": 4781,
      "ita": 4782,
      "Ġhelps": 4783,
      "cend": 4784,
      "Ġindustrial": 4785,
      "ĠGra": 4786,
      "Ġpieces": 4787,
      "Ġreform": 4788,
      "ĠNorthern": 4789,
      "Ġnote": 4790,
      "Ġ34": 4791,
      "time": 4792,
      "ady": 4793,
      "ĠMiddle": 4794,
      "Ġ1992": 4795,
      "Ġaudience": 4796,
      "Ġchance": 4797,
      "RA": 4798,
      "een": 4799,
      "Ġamb": 4800,
      "Ġuseful": 4801,
      "Ġstraight": 4802,
      "ĠGood": 4803,
      "Ġfleet": 4804,
      "ĠTour": 4805,
      "ĠAcademy": 4806,
      "icate": 4807,
      "erved": 4808,
      "Ġcompetition": 4809,
      "Ġheard": 4810,
      "ĠDef": 4811,
      "ented": 4812,
      "Ġlimit": 4813,
      "Ġanswer": 4814,
      "ells": 4815,
      "thur": 4816,
      "Ġeval": 4817,
      "Ġvit": 4818,
      "Ġ1994": 4819,
      "Ġwit": 4820,
      "Ġcore": 4821,
      "ĠBoy": 4822,
      "Ġhun": 4823,
      "erse": 4824,
      "Ġsurvey": 4825,
      "olid": 4826,
      "Ġsand": 4827,
      "Ġhus": 4828,
      "Ġenemy": 4829,
      "ologies": 4830,
      "anes": 4831,
      "ĠTem": 4832,
      "Ġbatter": 4833,
      "Ġhttp": 4834,
      "ĠEnter": 4835,
      "hetic": 4836,
      "Ġsoftware": 4837,
      "Ġdigital": 4838,
      "ĠKar": 4839,
      "cop": 4840,
      "rid": 4841,
      "Ġaid": 4842,
      "ola": 4843,
      "ĠTechn": 4844,
      "ĠMatt": 4845,
      "ĠGal": 4846,
      "ĠClub": 4847,
      "ĠCap": 4848,
      "Ġadvanced": 4849,
      "Ġ00": 4850,
      "iced": 4851,
      "Ġrates": 4852,
      "omew": 4853,
      "Ġrich": 4854,
      "Ġmodels": 4855,
      "Ġsuc": 4856,
      "Ġhair": 4857,
      "ĠLife": 4858,
      "ĠEs": 4859,
      "Ġdiseases": 4860,
      "ishop": 4861,
      "Ġprepar": 4862,
      "ĠCapt": 4863,
      "Ġfoods": 4864,
      "Ġexpressed": 4865,
      "gal": 4866,
      "imens": 4867,
      "Ġfruit": 4868,
      "ĠForm": 4869,
      "Ġbelong": 4870,
      "Ġbenefit": 4871,
      "oston": 4872,
      "Ġremember": 4873,
      "hips": 4874,
      "Ġinstruct": 4875,
      "Ġtask": 4876,
      "ĠConf": 4877,
      "edia": 4878,
      "ĠMel": 4879,
      "Ġalt": 4880,
      "Ġdecades": 4881,
      "ev": 4882,
      "ographic": 4883,
      "onent": 4884,
      "Ġfear": 4885,
      "respond": 4886,
      "ĠArab": 4887,
      "ican": 4888,
      "miss": 4889,
      "Ġera": 4890,
      "Ġletters": 4891,
      "ĠJud": 4892,
      "onder": 4893,
      "Ġurban": 4894,
      "Ġformation": 4895,
      "IC": 4896,
      "Ġhero": 4897,
      "ĠLove": 4898,
      "ĠInt": 4899,
      "Ġmouth": 4900,
      "70": 4901,
      "encies": 4902,
      "Ġliber": 4903,
      "Ġgain": 4904,
      "abetes": 4905,
      "enant": 4906,
      "ĠPublic": 4907,
      "agement": 4908,
      "Ġoffers": 4909,
      "Ġcreation": 4910,
      "oper": 4911,
      "Ġkid": 4912,
      "ressive": 4913,
      "Ġspeech": 4914,
      "Ġfailure": 4915,
      "Ġfigures": 4916,
      "Ġvehicles": 4917,
      "ĠOx": 4918,
      "Ġroyal": 4919,
      "Ġapparent": 4920,
      "Ġequal": 4921,
      "hors": 4922,
      "ada": 4923,
      "igr": 4924,
      "IV": 4925,
      "rovers": 4926,
      "Ġcode": 4927,
      "iders": 4928,
      "thlet": 4929,
      "Ġsyn": 4930,
      "Ġrequires": 4931,
      "ĠHighway": 4932,
      "ĠNow": 4933,
      "ĠLit": 4934,
      "anta": 4935,
      "ĠDou": 4936,
      "Ġcouple": 4937,
      "Ġfile": 4938,
      "peror": 4939,
      "ceeded": 4940,
      "ĠCle": 4941,
      "ĠCam": 4942,
      "isted": 4943,
      "cles": 4944,
      "Ġexplained": 4945,
      "Ġauthority": 4946,
      "ifically": 4947,
      "Ġwriters": 4948,
      "Ġanaly": 4949,
      "Ġfans": 4950,
      "Ġmaster": 4951,
      "Ġjour": 4952,
      "Ġdefeat": 4953,
      "ĠAngeles": 4954,
      "Ġ1940": 4955,
      "ĠSeveral": 4956,
      "Ġaim": 4957,
      "Ġdetails": 4958,
      "cious": 4959,
      "Ġbeat": 4960,
      "Ġcommunication": 4961,
      "ophy": 4962,
      "Ġcalcul": 4963,
      "Ġthousands": 4964,
      "Ġselect": 4965,
      "Ġperman": 4966,
      "Ġpositions": 4967,
      "Ġinteresting": 4968,
      "ĠDar": 4969,
      "ĠKent": 4970,
      "Ġ400": 4971,
      "Ġseg": 4972,
      "Ġexperienced": 4973,
      "Ġ1930": 4974,
      "Ġteacher": 4975,
      "estival": 4976,
      "perial": 4977,
      "Ġnor": 4978,
      "Ġpopulations": 4979,
      "Ġsubsequently": 4980,
      "ĠEducation": 4981,
      "range": 4982,
      "ĠSecret": 4983,
      "Ġmental": 4984,
      "iled": 4985,
      "cohol": 4986,
      "EC": 4987,
      "Ġtools": 4988,
      "ĠOb": 4989,
      "Ġedition": 4990,
      "BA": 4991,
      "Ġign": 4992,
      "Ġjoint": 4993,
      "Ġ1993": 4994,
      "Ġhousehold": 4995,
      "22": 4996,
      "Ġsam": 4997,
      "Ġdraft": 4998,
      "olars": 4999,
      "Ġgrass": 5000,
      "ĠDun": 5001,
      "Ġterritory": 5002,
      "ĠWall": 5003,
      "annel": 5004,
      "Ġcro": 5005,
      "ĠKn": 5006,
      "embly": 5007,
      "Ġrefused": 5008,
      "Ġattacked": 5009,
      "Ġsevent": 5010,
      "Ġeveryone": 5011,
      "gest": 5012,
      "Ġheight": 5013,
      "ĠSee": 5014,
      "Ġrepresented": 5015,
      "equ": 5016,
      "Ġproducer": 5017,
      "ĠHistor": 5018,
      "Ġsurrounding": 5019,
      "Ġbra": 5020,
      "Ġdrugs": 5021,
      "Ġultimately": 5022,
      "Ġcenturies": 5023,
      "Ġfloor": 5024,
      "burg": 5025,
      "Ġclaims": 5026,
      "lines": 5027,
      "writ": 5028,
      "illing": 5029,
      "Ġattempts": 5030,
      "lim": 5031,
      "ĠStep": 5032,
      "Ġstandards": 5033,
      "Ġvalues": 5034,
      "ĠScotland": 5035,
      "mas": 5036,
      "ĠOh": 5037,
      "Ġmentioned": 5038,
      "Ġcontaining": 5039,
      "while": 5040,
      "ĠBoston": 5041,
      "ĠWild": 5042,
      "ĠAsia": 5043,
      "Ġinfection": 5044,
      "vis": 5045,
      "Ġcamer": 5046,
      "ĠWal": 5047,
      "Ġ49": 5048,
      "24": 5049,
      "Ġnomin": 5050,
      "Ġsequence": 5051,
      "rec": 5052,
      "Ġsave": 5053,
      "Ġexercise": 5054,
      "www": 5055,
      "Ġpros": 5056,
      "Ġexamples": 5057,
      "ĠSub": 5058,
      "ĠThree": 5059,
      "Ġshar": 5060,
      "Ġstone": 5061,
      "ĠFe": 5062,
      "ani": 5063,
      "ĠVer": 5064,
      "Ġidentify": 5065,
      "Ġbattles": 5066,
      "Ġextremely": 5067,
      "Ġcook": 5068,
      "Ġsister": 5069,
      "Ġsought": 5070,
      "Ġadvantage": 5071,
      "etts": 5072,
      "Ġdevice": 5073,
      "sect": 5074,
      "AN": 5075,
      "ini": 5076,
      "pective": 5077,
      "ĠCommon": 5078,
      "Ġalternative": 5079,
      "ĠRo": 5080,
      "ĠGeorg": 5081,
      "ports": 5082,
      "Ġending": 5083,
      "ĠValley": 5084,
      "Ġfaith": 5085,
      "ĠParis": 5086,
      "Ġmessage": 5087,
      "ĠTime": 5088,
      "Ġyellow": 5089,
      "Ġdifferences": 5090,
      "under": 5091,
      "orses": 5092,
      "ĠOnce": 5093,
      "ĠProf": 5094,
      "ĠClass": 5095,
      "Ġgrew": 5096,
      "ĠHy": 5097,
      "pring": 5098,
      "OR": 5099,
      "itan": 5100,
      "Ġisol": 5101,
      "ĠYear": 5102,
      "Ġcontrolled": 5103,
      "Ġcorrespond": 5104,
      "Ġplanning": 5105,
      "Ġsignificantly": 5106,
      "chester": 5107,
      "inet": 5108,
      "Ġarms": 5109,
      "Ġlic": 5110,
      "gery": 5111,
      "ĠJoseph": 5112,
      "Ġlands": 5113,
      "Ġregarding": 5114,
      "orter": 5115,
      "adel": 5116,
      "aine": 5117,
      "Ġsets": 5118,
      "Ġearned": 5119,
      "Ġconnected": 5120,
      "ancing": 5121,
      "Ġ179": 5122,
      "Ġimproved": 5123,
      "Ġnarrow": 5124,
      "Ġattended": 5125,
      "ĠThrough": 5126,
      "Ġconnection": 5127,
      "Ġsort": 5128,
      "Ġbud": 5129,
      "Ġthir": 5130,
      "ĠCD": 5131,
      "Ġmetres": 5132,
      "ĠTim": 5133,
      "bur": 5134,
      "igen": 5135,
      "raction": 5136,
      "Ġcontrovers": 5137,
      "Ġgeneration": 5138,
      "ĠParliament": 5139,
      "Ġappropriate": 5140,
      "Ġ1991": 5141,
      "Ġbrown": 5142,
      "Ġmotor": 5143,
      "Ġadopted": 5144,
      "Ġoccasion": 5145,
      "hemat": 5146,
      "ĠJews": 5147,
      "IT": 5148,
      "rowd": 5149,
      "ĠSquadron": 5150,
      "aks": 5151,
      "idel": 5152,
      "ĠInc": 5153,
      "Ġfinding": 5154,
      "ette": 5155,
      "ĠIll": 5156,
      "Ġemerg": 5157,
      "Ġlyrics": 5158,
      "onn": 5159,
      "Ġrot": 5160,
      "Ġroof": 5161,
      "ga": 5162,
      "ĠNorm": 5163,
      "ĠSaint": 5164,
      "Ġvolume": 5165,
      "Ġprepared": 5166,
      "Ġexped": 5167,
      "Ġborder": 5168,
      "Ġvary": 5169,
      "Ġactual": 5170,
      "Ġtells": 5171,
      "Ġconcluded": 5172,
      "ĠBrad": 5173,
      "Ġproperties": 5174,
      "ĠElect": 5175,
      "Ġauthorities": 5176,
      "Ġcry": 5177,
      "ĠOcean": 5178,
      "Ġfactor": 5179,
      "Ġsynt": 5180,
      "ĠLu": 5181,
      "Ġplays": 5182,
      "Ġstore": 5183,
      "Ġpossibly": 5184,
      "Ġcircum": 5185,
      "ĠSocial": 5186,
      "Ġcerem": 5187,
      "dd": 5188,
      "Ġdial": 5189,
      "Ġcolumn": 5190,
      "Ġguitar": 5191,
      "Ġmist": 5192,
      "Ġjoin": 5193,
      "ato": 5194,
      "uting": 5195,
      "Ġdepth": 5196,
      "Ġviolence": 5197,
      "CC": 5198,
      "Ġcommander": 5199,
      "Ġdistribution": 5200,
      "Ġdropped": 5201,
      "ĠThen": 5202,
      "Ġcompos": 5203,
      "Ġnegot": 5204,
      "Ġpicture": 5205,
      "AF": 5206,
      "Ġfollows": 5207,
      "Ġpasseng": 5208,
      "Ġchallenge": 5209,
      "ĠItaly": 5210,
      "Ġlat": 5211,
      "ĠSar": 5212,
      "ĠLight": 5213,
      "Ġcalling": 5214,
      "Ġclasses": 5215,
      "ishes": 5216,
      "otic": 5217,
      "ĠPlan": 5218,
      "ipe": 5219,
      "ãĥ": 5220,
      "ĠProgram": 5221,
      "'re": 5222,
      "Ġ47": 5223,
      "Ġpassing": 5224,
      "ĠLike": 5225,
      "ygen": 5226,
      "ora": 5227,
      "Ġ150": 5228,
      "rates": 5229,
      "othes": 5230,
      "rence": 5231,
      "ĠRussia": 5232,
      "One": 5233,
      "Ġocean": 5234,
      "Ġpul": 5235,
      "ĠAwards": 5236,
      "Ġtwice": 5237,
      "ighth": 5238,
      "Ġyouth": 5239,
      "ĠBus": 5240,
      "Ġextensive": 5241,
      "illa": 5242,
      "adium": 5243,
      "ĠThus": 5244,
      "Ġtruth": 5245,
      "Ġtesting": 5246,
      "Ġbehavi": 5247,
      "met": 5248,
      "Ġ48": 5249,
      "Ġagreement": 5250,
      "stein": 5251,
      "ocratic": 5252,
      "Ġdistrict": 5253,
      "Ġpractices": 5254,
      "ĠBillboard": 5255,
      "Ġportray": 5256,
      "Ġtransferred": 5257,
      "23": 5258,
      "Ġdefense": 5259,
      "standing": 5260,
      "Ġbottom": 5261,
      "ĠWork": 5262,
      "Ġcombination": 5263,
      "Ġfields": 5264,
      "Ġresistance": 5265,
      "hew": 5266,
      "ĠBefore": 5267,
      "ĠInternet": 5268,
      "Ġtun": 5269,
      "Ġwrong": 5270,
      "itors": 5271,
      "term": 5272,
      "Ġchosen": 5273,
      "Ġ39": 5274,
      "Ġadministration": 5275,
      "ping": 5276,
      "eway": 5277,
      "kins": 5278,
      "Ġunknown": 5279,
      "Ġparalle": 5280,
      "Ġhusband": 5281,
      "ĠWales": 5282,
      "ensus": 5283,
      "ylvania": 5284,
      "Ġtox": 5285,
      "ĠOtt": 5286,
      "Ġexposure": 5287,
      "Ġidentity": 5288,
      "Ġwaste": 5289,
      "ĠConn": 5290,
      "ĠExp": 5291,
      "Ġlov": 5292,
      "Ġrecognized": 5293,
      "Ġsubsequent": 5294,
      "Ġproved": 5295,
      "Ġmountain": 5296,
      "oln": 5297,
      "rees": 5298,
      "ĠCreek": 5299,
      "Ġvote": 5300,
      "ĠSimps": 5301,
      "Ġinterpret": 5302,
      "rations": 5303,
      "Ġeating": 5304,
      "âĢ¢": 5305,
      "ĠVan": 5306,
      "Ġaspects": 5307,
      "And": 5308,
      "ĠSil": 5309,
      "ĠDutch": 5310,
      "bl": 5311,
      "Ġartists": 5312,
      "Ġmap": 5313,
      "appe": 5314,
      "Ġinfect": 5315,
      "ĠLittle": 5316,
      "ĠMat": 5317,
      "Ġincome": 5318,
      "Ġreligion": 5319,
      "Ġbed": 5320,
      "Ġresc": 5321,
      "Ġconfirmed": 5322,
      "ĠJeff": 5323,
      "Ġrelative": 5324,
      "Ġsolution": 5325,
      "Ġaccident": 5326,
      "ĠBattalion": 5327,
      "Ġwing": 5328,
      "Ġnarr": 5329,
      "ushed": 5330,
      "Ġowned": 5331,
      "Ġillness": 5332,
      "ĠQueen": 5333,
      "Ġbacteria": 5334,
      "ĠThough": 5335,
      "ĠProject": 5336,
      "Ġinfluenced": 5337,
      "rich": 5338,
      "ters": 5339,
      "ograp": 5340,
      "Ġweb": 5341,
      "Äģ": 5342,
      "Ġcert": 5343,
      "ĠMajor": 5344,
      "Ġmeasures": 5345,
      "Ġdoct": 5346,
      "rat": 5347,
      "char": 5348,
      "Ġsports": 5349,
      "ĠRel": 5350,
      "Ġcomplic": 5351,
      "Ġclosely": 5352,
      "Ġtransform": 5353,
      "Ġmotion": 5354,
      "Ġlabel": 5355,
      "Ġbaby": 5356,
      "Ġvari": 5357,
      "Ġorganized": 5358,
      "Ġtemperatures": 5359,
      "Ġplatform": 5360,
      "VD": 5361,
      "vant": 5362,
      "Ġcas": 5363,
      "ĠEastern": 5364,
      "Ġrecommended": 5365,
      "olt": 5366,
      "Ġshowing": 5367,
      "Ġexperiment": 5368,
      "Ġstruck": 5369,
      "ii": 5370,
      "Ġfirm": 5371,
      "aly": 5372,
      "Ġgained": 5373,
      "Ġcontained": 5374,
      "Ġ55": 5375,
      "Ġachieved": 5376,
      "Ġmo": 5377,
      "Ġstating": 5378,
      "Ġheavily": 5379,
      "atre": 5380,
      "ician": 5381,
      "Ġhear": 5382,
      "Ġshared": 5383,
      "ternal": 5384,
      "Ġelimin": 5385,
      "Ġabsor": 5386,
      "ĠFurther": 5387,
      "ĠGames": 5388,
      "Ġprompt": 5389,
      "Ġreaction": 5390,
      "Ġcontemporary": 5391,
      "Ġhearing": 5392,
      "Ġsubstant": 5393,
      "oured": 5394,
      "place": 5395,
      "Ġwealth": 5396,
      "cont": 5397,
      "Ġfunctions": 5398,
      "Ġweapons": 5399,
      "ĠPenns": 5400,
      "Ġdivers": 5401,
      "Ġlaid": 5402,
      "heim": 5403,
      "Ġdelay": 5404,
      "Ġsufficient": 5405,
      "Ġtherapy": 5406,
      "Ġtal": 5407,
      "osal": 5408,
      "ĠWind": 5409,
      "Ġwarm": 5410,
      "Ġstatement": 5411,
      "pir": 5412,
      "Ġsomew": 5413,
      "iciency": 5414,
      "ĠGall": 5415,
      "key": 5416,
      "Ġreaching": 5417,
      "Ġdistingu": 5418,
      "power": 5419,
      "ĠRome": 5420,
      "aved": 5421,
      "rome": 5422,
      "Ġauthors": 5423,
      "Ġchoose": 5424,
      "26": 5425,
      "cular": 5426,
      "Ġbreat": 5427,
      "onds": 5428,
      "Ġprice": 5429,
      "aven": 5430,
      "Ġ44": 5431,
      "Ġconsists": 5432,
      "Ġinfl": 5433,
      "Ġseconds": 5434,
      "ras": 5435,
      "Ġmatches": 5436,
      "Ġelev": 5437,
      "ĠToday": 5438,
      "Ġahead": 5439,
      "Ġgarden": 5440,
      "Ġexcess": 5441,
      "Ġacting": 5442,
      "Ġcalls": 5443,
      "era": 5444,
      "Ġinnings": 5445,
      "tical": 5446,
      "Ġready": 5447,
      "Ġhall": 5448,
      "ĠBoard": 5449,
      "Ġvision": 5450,
      "ĠCaptain": 5451,
      "king": 5452,
      "Ġmuseum": 5453,
      "Ġworldwide": 5454,
      "Ġble": 5455,
      "aming": 5456,
      "Ġsolid": 5457,
      "Ġescape": 5458,
      "Ġencoun": 5459,
      "inus": 5460,
      "Ġdescribes": 5461,
      "Ġrepeated": 5462,
      "ĠFour": 5463,
      "Ġentirely": 5464,
      "ĠPost": 5465,
      "ĠYoung": 5466,
      "Ġsustain": 5467,
      "Ġwa": 5468,
      "ĠMem": 5469,
      "ĠBob": 5470,
      "isters": 5471,
      "Ġcastle": 5472,
      "ĠOffice": 5473,
      "ĠDen": 5474,
      "ĠLuc": 5475,
      "Ġcommented": 5476,
      "ĠDevelopment": 5477,
      "ĠBi": 5478,
      "ĠCur": 5479,
      "Ġdevices": 5480,
      "Ġ65": 5481,
      "Ġelectricity": 5482,
      "ĠColon": 5483,
      "ĠChief": 5484,
      "Ġtreated": 5485,
      "Ġexistence": 5486,
      "ologists": 5487,
      "Ġprotected": 5488,
      "ĠWilson": 5489,
      "He": 5490,
      "ĠHor": 5491,
      "Ġshel": 5492,
      "uration": 5493,
      "Ġuniversity": 5494,
      "Ġends": 5495,
      "Ġfram": 5496,
      "ĠSk": 5497,
      "ĠJo": 5498,
      "incoln": 5499,
      "zer": 5500,
      "Ġinch": 5501,
      "pping": 5502,
      "Ġinterested": 5503,
      "ĠRom": 5504,
      "rum": 5505,
      "ĠFam": 5506,
      "Ġ43": 5507,
      "Ġfreedom": 5508,
      "Ġinternal": 5509,
      "Ġincreasingly": 5510,
      "ĠGre": 5511,
      "Ġcloud": 5512,
      "Ġknew": 5513,
      "Ġopposed": 5514,
      "Ġsuccessfully": 5515,
      "Ġlaunch": 5516,
      "ĠHome": 5517,
      "ĠPers": 5518,
      "Ġenh": 5519,
      "Ġorganizations": 5520,
      "kes": 5521,
      "part": 5522,
      "ĠMD": 5523,
      "Ġreality": 5524,
      "ĠWrit": 5525,
      "ĠEll": 5526,
      "ager": 5527,
      "Ġmanner": 5528,
      "Ġserving": 5529,
      "Ġfacilities": 5530,
      "ĠOur": 5531,
      "Ġfeat": 5532,
      "Ġsteps": 5533,
      "Ġwave": 5534,
      "icks": 5535,
      "Ġstrike": 5536,
      "ala": 5537,
      "Ġprominent": 5538,
      "Ġphen": 5539,
      "Ġitems": 5540,
      "Ġcapture": 5541,
      "Ġrapidly": 5542,
      "Ġsenior": 5543,
      "Ġfoss": 5544,
      "ĠPop": 5545,
      "Ġbudget": 5546,
      "Ġhorses": 5547,
      "Ġinstance": 5548,
      "Ġincreases": 5549,
      "roph": 5550,
      "Ġrural": 5551,
      "Ġleadership": 5552,
      "27": 5553,
      "ĠManchester": 5554,
      "Ġachieve": 5555,
      "Ġoxygen": 5556,
      "Ġconstitution": 5557,
      "ĠNations": 5558,
      "Ġteeth": 5559,
      "Ġstudied": 5560,
      "Ġfine": 5561,
      "ĠAD": 5562,
      "ĠFound": 5563,
      "Ġusers": 5564,
      "Ġmaintained": 5565,
      "ĠDistrict": 5566,
      "Ġhuge": 5567,
      "rete": 5568,
      "iling": 5569,
      "Ġbroken": 5570,
      "orage": 5571,
      "Ġapplications": 5572,
      "So": 5573,
      "ĠLincoln": 5574,
      "Ġregister": 5575,
      "Ġatmosphere": 5576,
      "ĠLiber": 5577,
      "ashion": 5578,
      "Ġprocesses": 5579,
      "Ġfocused": 5580,
      "gu": 5581,
      "Ġexpansion": 5582,
      "Ġrow": 5583,
      "Ġexplain": 5584,
      "Ġoperating": 5585,
      "Ġintroduction": 5586,
      "rehens": 5587,
      "ĠSa": 5588,
      "Ġgets": 5589,
      "Ġbreast": 5590,
      "ĠWilliams": 5591,
      "Ġcycle": 5592,
      "Ġsplit": 5593,
      "bo": 5594,
      "Ġdesignated": 5595,
      "Ġregarded": 5596,
      "atched": 5597,
      "elve": 5598,
      "Ġtrust": 5599,
      "Ġshell": 5600,
      "Ġhonor": 5601,
      "AC": 5602,
      "Ġalcohol": 5603,
      "EN": 5604,
      "urance": 5605,
      "ĠâĢ¦": 5606,
      "Ġparallel": 5607,
      "Ġweaken": 5608,
      "Ġboat": 5609,
      "ĠOxford": 5610,
      "Ġmovie": 5611,
      "Ġsymbol": 5612,
      "Ġstations": 5613,
      "ĠHard": 5614,
      "ieut": 5615,
      "asty": 5616,
      "ĠReview": 5617,
      "apes": 5618,
      "Ġvisited": 5619,
      "Ġviews": 5620,
      "Ġgranted": 5621,
      "Ġanyone": 5622,
      "ĠProv": 5623,
      "AL": 5624,
      "edd": 5625,
      "Ġinsect": 5626,
      "icians": 5627,
      "ĠCr": 5628,
      "ĠBell": 5629,
      "Ġexperiences": 5630,
      "Ġdiscovery": 5631,
      "ĠGulf": 5632,
      "essions": 5633,
      "aste": 5634,
      "achus": 5635,
      "ĠOrgan": 5636,
      "ĠPennsylvania": 5637,
      "Ġselling": 5638,
      "ĠGar": 5639,
      "Ġunus": 5640,
      "Ġsupplies": 5641,
      "ĠSenate": 5642,
      "Ġeditor": 5643,
      "inity": 5644,
      "Ġsout": 5645,
      "Ġtom": 5646,
      "Ġdrum": 5647,
      "Ġlosing": 5648,
      "omic": 5649,
      "Ġbroke": 5650,
      "Ġdiabetes": 5651,
      "ED": 5652,
      "Ġrevolution": 5653,
      "Ġ1945": 5654,
      "bury": 5655,
      "ĠField": 5656,
      "Ġconsult": 5657,
      "ĠAbout": 5658,
      "Ġflying": 5659,
      "osa": 5660,
      "hat": 5661,
      "Äĩ": 5662,
      "Ġaw": 5663,
      "Ġsecondary": 5664,
      "rieved": 5665,
      "Ġpowers": 5666,
      "ceived": 5667,
      "ĠIslam": 5668,
      "Ġeffectively": 5669,
      "upp": 5670,
      "Ġcrowd": 5671,
      "stream": 5672,
      "ĠBank": 5673,
      "ĠPower": 5674,
      "Ġtypical": 5675,
      "Ġfeeling": 5676,
      "ĠJul": 5677,
      "Ġsinger": 5678,
      "Ġrenew": 5679,
      "Ġpatterns": 5680,
      "rons": 5681,
      "Ġcontext": 5682,
      "Ġtechnique": 5683,
      "Ġeducational": 5684,
      "ĠDam": 5685,
      "ĠEnd": 5686,
      "ĠSpain": 5687,
      "ĠHuman": 5688,
      "Ġbranch": 5689,
      "Ġteach": 5690,
      "ĠChristmas": 5691,
      "28": 5692,
      "oly": 5693,
      "ayer": 5694,
      "Ġefficient": 5695,
      "Ġsilver": 5696,
      "ĠRevolution": 5697,
      "Ġdie": 5698,
      "rog": 5699,
      "Ġbright": 5700,
      "reme": 5701,
      "OS": 5702,
      "ario": 5703,
      "ĠFred": 5704,
      "Ġ1920": 5705,
      "Ġunp": 5706,
      "Ġsigns": 5707,
      "Ġguard": 5708,
      "Ġstanding": 5709,
      "Ġcars": 5710,
      "Ġdiam": 5711,
      "eline": 5712,
      "Ġadding": 5713,
      "Ġexecutive": 5714,
      "Ġ#": 5715,
      "Ġpromote": 5716,
      "ĠMedic": 5717,
      "anda": 5718,
      "ĠFoot": 5719,
      "ucky": 5720,
      "Ġvocal": 5721,
      "ĠFar": 5722,
      "Ġselection": 5723,
      "ns": 5724,
      "Ġpp": 5725,
      "ĠDet": 5726,
      "Ġuser": 5727,
      "ĠWeb": 5728,
      "Ġroads": 5729,
      "rig": 5730,
      "atically": 5731,
      "Ġfaced": 5732,
      "29": 5733,
      "iy": 5734,
      "stone": 5735,
      "quarters": 5736,
      "ĠDVD": 5737,
      "ĠOs": 5738,
      "state": 5739,
      "unch": 5740,
      "Ġremark": 5741,
      "ĠOnly": 5742,
      "Ġtechnical": 5743,
      "Ġgene": 5744,
      "anna": 5745,
      "Ġdescribe": 5746,
      "Ġtool": 5747,
      "Ġdrop": 5748,
      "ĠBas": 5749,
      "ĠIndones": 5750,
      "Ġflat": 5751,
      "ĠCa": 5752,
      "Ġgal": 5753,
      "Ġ64": 5754,
      "Ġlocations": 5755,
      "inger": 5756,
      "ĠSwed": 5757,
      "achusetts": 5758,
      "Ġequival": 5759,
      "osy": 5760,
      "Ġcollected": 5761,
      "Ġclearly": 5762,
      "works": 5763,
      "ĠSund": 5764,
      "ĠBrigade": 5765,
      "ba": 5766,
      "Ġdecade": 5767,
      "itage": 5768,
      "umin": 5769,
      "Ġversions": 5770,
      "Ġsugar": 5771,
      "hedul": 5772,
      "Ġpoem": 5773,
      "Ġsnow": 5774,
      "Ġislands": 5775,
      "Ġstock": 5776,
      "Ġoperated": 5777,
      "Ġrequest": 5778,
      "Ġcredit": 5779,
      "ĠArm": 5780,
      "nergy": 5781,
      "Ġdedicated": 5782,
      "itis": 5783,
      "ocal": 5784,
      "ĠChris": 5785,
      "Ġparties": 5786,
      "Ġnewly": 5787,
      "Ġcoach": 5788,
      "ructure": 5789,
      "Ġmedicine": 5790,
      "ĠAddition": 5791,
      "illery": 5792,
      "ĠVen": 5793,
      "Ġopportunities": 5794,
      "Ġcris": 5795,
      "Ġglass": 5796,
      "Ġdeaths": 5797,
      "Ġacademic": 5798,
      "pread": 5799,
      "Ġdance": 5800,
      "ĠRam": 5801,
      "rows": 5802,
      "ĠEarly": 5803,
      "Ġturns": 5804,
      "Ġsounds": 5805,
      "Ġtourn": 5806,
      "Ġnest": 5807,
      "Ġstem": 5808,
      "awa": 5809,
      "ects": 5810,
      "Ġproducing": 5811,
      "Ġconcerns": 5812,
      "ycl": 5813,
      "ĠTop": 5814,
      "Ġrating": 5815,
      "ĠSpace": 5816,
      "Ġresponsibility": 5817,
      "Ġpilot": 5818,
      "rot": 5819,
      "ĠCrit": 5820,
      "Ġscholars": 5821,
      "Ġdomestic": 5822,
      "ĠColumbia": 5823,
      "Ġopinion": 5824,
      "Ġconvent": 5825,
      "Ġneut": 5826,
      "idden": 5827,
      "ĠInstead": 5828,
      "war": 5829,
      "Ã¤": 5830,
      "Ġshut": 5831,
      "Ġtitled": 5832,
      "Ġdegrees": 5833,
      "mun": 5834,
      "tain": 5835,
      "iform": 5836,
      "ĠMassachusetts": 5837,
      "Ġnewspaper": 5838,
      "Ġargued": 5839,
      "\",": 5840,
      "ano": 5841,
      "Ġvent": 5842,
      "Ġherself": 5843,
      "Ġcaught": 5844,
      "Ġseasons": 5845,
      "Ġinvasion": 5846,
      "inson": 5847,
      "Ġphase": 5848,
      "Ġaccompan": 5849,
      "Ġstages": 5850,
      "ĠHurricane": 5851,
      "Ġspecifically": 5852,
      "Ġalongside": 5853,
      "ĠHead": 5854,
      "Ġexpression": 5855,
      "Ġcaptain": 5856,
      "Ġinnov": 5857,
      "Ġeggs": 5858,
      "Ġcatch": 5859,
      "Ġpages": 5860,
      "ĠEvery": 5861,
      "Ġyounger": 5862,
      "Ġpaint": 5863,
      "antasy": 5864,
      "Ġinstall": 5865,
      "ĠLee": 5866,
      "Ġreprodu": 5867,
      "Ġexplos": 5868,
      "ĠPrince": 5869,
      "ĠMean": 5870,
      "Ġgenes": 5871,
      "Ġbuy": 5872,
      "ĠLear": 5873,
      "Ġmurder": 5874,
      "ctic": 5875,
      "othing": 5876,
      "Ġ1942": 5877,
      "Ġcapable": 5878,
      "ieutenant": 5879,
      "Ġnob": 5880,
      "Ġflowers": 5881,
      "Ġexposed": 5882,
      "Ġchanging": 5883,
      "Ġtowns": 5884,
      "ĠCoast": 5885,
      ");": 5886,
      "Ġincident": 5887,
      "ĠLet": 5888,
      "Ġlooked": 5889,
      "Ġvacc": 5890,
      "Ġpig": 5891,
      "ĠPak": 5892,
      "Ġsurre": 5893,
      "Ġsurgery": 5894,
      "ĠPo": 5895,
      "ĠStand": 5896,
      "ĠBridge": 5897,
      "Ġrelationships": 5898,
      "nic": 5899,
      "Ġshortly": 5900,
      "aria": 5901,
      "Ġstret": 5902,
      "Ġdiscip": 5903,
      "Ġadvoc": 5904,
      "iÄĩ": 5905,
      "ĠWomen": 5906,
      "Ġring": 5907,
      "Ġroll": 5908,
      "Ġpasses": 5909,
      "ĠEnvironment": 5910,
      "Ġregional": 5911,
      "Ġdriving": 5912,
      "Ġorders": 5913,
      "Ġlinked": 5914,
      "Ġmamm": 5915,
      "Ġrainfall": 5916,
      "zil": 5917,
      "outs": 5918,
      "Ġemployed": 5919,
      "Ġreign": 5920,
      "Ġleads": 5921,
      "Ġacquired": 5922,
      "TC": 5923,
      "iano": 5924,
      "ĠAtt": 5925,
      "Ġ1941": 5926,
      "Ġtower": 5927,
      "Ġsalt": 5928,
      "Ġtall": 5929,
      "Ġschedul": 5930,
      "Ġapart": 5931,
      "ĠWeek": 5932,
      "Ġmyth": 5933,
      "Ġsections": 5934,
      "ĠDev": 5935,
      "Ġdrawn": 5936,
      "ĠInfantry": 5937,
      "osite": 5938,
      "ava": 5939,
      "Ġsport": 5940,
      "Ġiniti": 5941,
      "Ġfert": 5942,
      "Ġopposition": 5943,
      "199": 5944,
      "Ġobtained": 5945,
      "Ġwitness": 5946,
      "Ġadvent": 5947,
      "Ġschem": 5948,
      "Ġdangerous": 5949,
      "Ġbeautiful": 5950,
      "Ġfilled": 5951,
      "eless": 5952,
      "Ġisn": 5953,
      "ĠUl": 5954,
      "Ġremove": 5955,
      "Ġ95": 5956,
      "Ġpromoted": 5957,
      "rm": 5958,
      "Ġdream": 5959,
      "Ġotherwise": 5960,
      "Ġroles": 5961,
      "Ġconcerned": 5962,
      "eper": 5963,
      "Ġmal": 5964,
      "ĠTay": 5965,
      "agues": 5966,
      "abilities": 5967,
      "ĠKen": 5968,
      "Ġstrate": 5969,
      "Ġfrag": 5970,
      "Ġban": 5971,
      "Ġsend": 5972,
      "Ġstrategy": 5973,
      "ĠBudd": 5974,
      "uations": 5975,
      "ĠMot": 5976,
      "Ġdisorder": 5977,
      "Ġrelief": 5978,
      "Ġsupporting": 5979,
      "Ġarmed": 5980,
      "Ġ46": 5981,
      "78": 5982,
      "Ġwick": 5983,
      "ĠWay": 5984,
      "Ġclimb": 5985,
      "Ġmeat": 5986,
      "ĠConference": 5987,
      "ĠGuard": 5988,
      "ricket": 5989,
      "ĠKennedy": 5990,
      "ĠDie": 5991,
      "Ġju": 5992,
      "Ġtorped": 5993,
      "At": 5994,
      "ingly": 5995,
      "iana": 5996,
      "going": 5997,
      "Ġhabitat": 5998,
      "year": 5999,
      "ĠGree": 6000,
      "ĠGovernor": 6001,
      "issions": 6002,
      "Ġpossibility": 6003,
      "Ġhappened": 6004,
      "ĠJac": 6005,
      "eller": 6006,
      "Ġsecure": 6007,
      "idespread": 6008,
      "roke": 6009,
      "oli": 6010,
      "ĠAmong": 6011,
      "Ġsatis": 6012,
      "Ġconservation": 6013,
      "Ġpoly": 6014,
      "Ġreturning": 6015,
      "ĠAlexander": 6016,
      "Ġjourney": 6017,
      "Re": 6018,
      "Ġ600": 6019,
      "Ġextent": 6020,
      "ĠFederal": 6021,
      "Ġundert": 6022,
      "Ġ1944": 6023,
      "oral": 6024,
      "ĠMah": 6025,
      "Ġengaged": 6026,
      "Ġnorthwest": 6027,
      "ĠTri": 6028,
      "Ġdetect": 6029,
      "ĠBlue": 6030,
      "Ġofficially": 6031,
      "Ġkilling": 6032,
      "Ġvolunte": 6033,
      "Ġbalance": 6034,
      "ses": 6035,
      "Ġnom": 6036,
      "Ġprofessor": 6037,
      "Ġpolicies": 6038,
      "ĠVietnam": 6039,
      "ĠÎ": 6040,
      "Ġmort": 6041,
      "ĠGi": 6042,
      "ĠMarsh": 6043,
      "orough": 6044,
      "Ġseat": 6045,
      "Ġintensity": 6046,
      "Ġedge": 6047,
      "Ġ120": 6048,
      "ĠBush": 6049,
      "Ġlandsc": 6050,
      "Ġpermanent": 6051,
      "Ġsed": 6052,
      "ĠSpecial": 6053,
      "utation": 6054,
      "Ġdeploy": 6055,
      "ĠJones": 6056,
      "Ġpublication": 6057,
      "ĠJenn": 6058,
      "Ġformal": 6059,
      "Ġpersons": 6060,
      "Ġexpanded": 6061,
      "ĠFox": 6062,
      "Ġmathemat": 6063,
      "Ġguide": 6064,
      "ipping": 6065,
      "Ġcontributed": 6066,
      "sp": 6067,
      "Ġfashion": 6068,
      "Ġexchange": 6069,
      "Ġupd": 6070,
      "Ġslowly": 6071,
      "ua": 6072,
      "ĠSand": 6073,
      "Ġoverl": 6074,
      "Ġemergency": 6075,
      "mond": 6076,
      "Ġpric": 6077,
      "ompl": 6078,
      "Ġchose": 6079,
      "ilding": 6080,
      "enses": 6081,
      "Ġfly": 6082,
      "icit": 6083,
      "Ġresident": 6084,
      "Ġdecisions": 6085,
      "ĠConstitution": 6086,
      "Ġroughly": 6087,
      "ĠHal": 6088,
      "Ġreceiving": 6089,
      "Ġ1986": 6090,
      "Ġadvice": 6091,
      "ca": 6092,
      "Ġfellow": 6093,
      "ersey": 6094,
      "ĠLabor": 6095,
      "ĠJon": 6096,
      "Ġdecline": 6097,
      "Ġholding": 6098,
      "onna": 6099,
      "Ġvehicle": 6100,
      "Ġuniverse": 6101,
      "ĠId": 6102,
      "Ġinterests": 6103,
      "Ġdoor": 6104,
      "Ġsupposed": 6105,
      "Ġfunding": 6106,
      "uzz": 6107,
      "miral": 6108,
      "Ġstorage": 6109,
      "pected": 6110,
      "Ġastron": 6111,
      "Ġzone": 6112,
      "ĠRecords": 6113,
      "Ġtaught": 6114,
      "Ġancest": 6115,
      "Ġhundreds": 6116,
      "Ġnaval": 6117,
      "ĠTech": 6118,
      "pic": 6119,
      "Ġtum": 6120,
      "ossible": 6121,
      "Ġperformances": 6122,
      "Ġintelligence": 6123,
      "track": 6124,
      "Ġbone": 6125,
      "Ġconference": 6126,
      "ĠLab": 6127,
      "abil": 6128,
      "iveness": 6129,
      "Ġlosses": 6130,
      "Ġabsol": 6131,
      "ĠCastle": 6132,
      "ima": 6133,
      "Ġexcell": 6134,
      "Ġcharacteristics": 6135,
      "Ġfiction": 6136,
      "ĠBrazil": 6137,
      "Ġabandoned": 6138,
      "Ġgall": 6139,
      "Ġemotional": 6140,
      "ads": 6141,
      "ĠEngine": 6142,
      "Ġmissing": 6143,
      "lik": 6144,
      "Ġcontinuous": 6145,
      "Ġstreet": 6146,
      "Ġconcert": 6147,
      "rance": 6148,
      "Ġpure": 6149,
      "Ġtwelve": 6150,
      "Ġacts": 6151,
      "Ġassistance": 6152,
      "Ġvessels": 6153,
      "inth": 6154,
      "ĠVictoria": 6155,
      "adelph": 6156,
      "Ġmile": 6157,
      "ĠMen": 6158,
      "ĠPoint": 6159,
      "Ġapply": 6160,
      "Ġmilk": 6161,
      "Ġpeaked": 6162,
      "BS": 6163,
      "ĠRy": 6164,
      "azz": 6165,
      "Ġscoring": 6166,
      "Ġgrade": 6167,
      "Ġnortheast": 6168,
      "va": 6169,
      "uses": 6170,
      "Ġfinds": 6171,
      "Ġfindings": 6172,
      "Ġutil": 6173,
      "gian": 6174,
      "ĠTreat": 6175,
      "ĠCat": 6176,
      "ĠStan": 6177,
      "ĠStone": 6178,
      "35": 6179,
      "ibl": 6180,
      "ĠAst": 6181,
      "Ġaccompl": 6182,
      "Ġhappen": 6183,
      "ĠSol": 6184,
      "ET": 6185,
      "Ġchampionship": 6186,
      "Ġadvert": 6187,
      "ĠChildren": 6188,
      "ban": 6189,
      "pat": 6190,
      "Ġgovernor": 6191,
      "Ġtechnologies": 6192,
      "ĠPortug": 6193,
      "Ġtank": 6194,
      "ĠRegiment": 6195,
      "related": 6196,
      "Ġtissue": 6197,
      "Ġwidespread": 6198,
      "organ": 6199,
      "ĠCard": 6200,
      "Ġcomponents": 6201,
      "mann": 6202,
      "Ġarrival": 6203,
      "ĠMov": 6204,
      "Ġmovements": 6205,
      "Ġdepos": 6206,
      "Ġtrip": 6207,
      "Ġproducers": 6208,
      "ĠStephen": 6209,
      "Ġexpedition": 6210,
      "Ġenl": 6211,
      "ignment": 6212,
      "Ġdetailed": 6213,
      "ĠNever": 6214,
      "Ġspeak": 6215,
      "These": 6216,
      "Ġindicate": 6217,
      "Ġexactly": 6218,
      "Ġkick": 6219,
      "Ġacres": 6220,
      "Ġextreme": 6221,
      "then": 6222,
      "ĠPakistan": 6223,
      "eder": 6224,
      "ĠIV": 6225,
      "ĠPen": 6226,
      "Ġvul": 6227,
      "ework": 6228,
      "Ġactor": 6229,
      "ĠIndians": 6230,
      "Ġarticles": 6231,
      "ĠCharl": 6232,
      "adelphia": 6233,
      "Ġconsec": 6234,
      "ĠNAS": 6235,
      "antine": 6236,
      "Ġstarts": 6237,
      "Ġcrime": 6238,
      "Ġdiscussed": 6239,
      "point": 6240,
      "Ġfought": 6241,
      "Ġpret": 6242,
      "Ġhistorian": 6243,
      "Ġearliest": 6244,
      "Ġlayer": 6245,
      "Ġmassive": 6246,
      "hire": 6247,
      "osaur": 6248,
      "aka": 6249,
      "Ġalle": 6250,
      "ĠIslands": 6251,
      "Ġgreatly": 6252,
      "Ġspiritual": 6253,
      "Ġbrand": 6254,
      "Ġconcer": 6255,
      "Ġchair": 6256,
      "rams": 6257,
      "Ġsixth": 6258,
      "Ġearthqu": 6259,
      "ĠCub": 6260,
      "Ġsynd": 6261,
      "Ġneighbor": 6262,
      "zen": 6263,
      "Ġrom": 6264,
      "eld": 6265,
      "ĠEnergy": 6266,
      "ĠShort": 6267,
      "ĠOrig": 6268,
      "ĠFer": 6269,
      "rition": 6270,
      "Ġathlet": 6271,
      "Ġcab": 6272,
      "Ġhang": 6273,
      "Ġsector": 6274,
      "pert": 6275,
      "Ġcouncil": 6276,
      "Ġcyclone": 6277,
      "ione": 6278,
      "ura": 6279,
      "ĠHung": 6280,
      "Ġproport": 6281,
      "aki": 6282,
      "antly": 6283,
      "overty": 6284,
      "Ġcoordin": 6285,
      "ĠSeries": 6286,
      "ĠRetrieved": 6287,
      "Ġliqu": 6288,
      "Ġperiods": 6289,
      "Ġflooding": 6290,
      "igration": 6291,
      "ĠGro": 6292,
      "ifications": 6293,
      "Ġ1988": 6294,
      "bar": 6295,
      "Ġnations": 6296,
      "ĠHa": 6297,
      "ĠMedical": 6298,
      "Ġcarrying": 6299,
      "aser": 6300,
      "Ġ1989": 6301,
      "umes": 6302,
      "Ġsud": 6303,
      "Ġvisible": 6304,
      "Ġdiscussion": 6305,
      "ĠUpon": 6306,
      "pan": 6307,
      "ocol": 6308,
      "ipl": 6309,
      "Ġraise": 6310,
      "obe": 6311,
      "Ġ85": 6312,
      "ĠTeam": 6313,
      "itled": 6314,
      "eler": 6315,
      "Ġagricultural": 6316,
      "ĠFilm": 6317,
      "Ġguest": 6318,
      "Ġpolitics": 6319,
      "ĠLow": 6320,
      "see": 6321,
      "Ġspeaking": 6322,
      "Ġdescription": 6323,
      "Ġcommittee": 6324,
      "ĠGeorgia": 6325,
      "rine": 6326,
      "Ġfan": 6327,
      "ushing": 6328,
      "Ġviewed": 6329,
      "Ġindicated": 6330,
      "Ġcommitted": 6331,
      "ĠOhio": 6332,
      "oir": 6333,
      "ĠRhod": 6334,
      "ĠLar": 6335,
      "Ġobvious": 6336,
      "Ġsemi": 6337,
      "Ġbat": 6338,
      "Ġapproved": 6339,
      "nce": 6340,
      "Ġfired": 6341,
      "ĠRem": 6342,
      "ĠPhiladelphia": 6343,
      "Ġcart": 6344,
      "ĠRoll": 6345,
      "lder": 6346,
      "Ġlibrary": 6347,
      "uster": 6348,
      "Ġviewers": 6349,
      "Ġfemales": 6350,
      "ĠBrook": 6351,
      "Ġsettlement": 6352,
      "ĠSecretary": 6353,
      "col": 6354,
      "Ã¨": 6355,
      "ĠDub": 6356,
      "Ġdisappe": 6357,
      "Ġtopic": 6358,
      "Ġdestruction": 6359,
      "Ġamounts": 6360,
      "Ġgradually": 6361,
      "itud": 6362,
      "Ġhem": 6363,
      "Ġheads": 6364,
      "Ġsteel": 6365,
      "Ġphotograph": 6366,
      "Ġconsiderable": 6367,
      "ĠHomer": 6368,
      "Ġcomposition": 6369,
      "Ġminimum": 6370,
      "Ġbreeding": 6371,
      "Ġinstitutions": 6372,
      "igenous": 6373,
      "rep": 6374,
      "Ġconsisted": 6375,
      "Ġequivalent": 6376,
      "ht": 6377,
      "Ġped": 6378,
      "asure": 6379,
      "Ġseed": 6380,
      "Ġ800": 6381,
      "Ġoptions": 6382,
      "ĠMos": 6383,
      "Ġ1987": 6384,
      "vements": 6385,
      "hyth": 6386,
      "pool": 6387,
      "Ġgrown": 6388,
      "Ġindependence": 6389,
      "ĠDaniel": 6390,
      "Ġsession": 6391,
      "imental": 6392,
      "Ġattached": 6393,
      "atters": 6394,
      "ĠBey": 6395,
      "Ġtrav": 6396,
      "ĠMurray": 6397,
      "Ġderived": 6398,
      "Ġfeaturing": 6399,
      "ker": 6400,
      "ĠCO": 6401,
      "Ġexplan": 6402,
      "Ġdescend": 6403,
      "Ex": 6404,
      "onym": 6405,
      "ĠAlbert": 6406,
      "Ġinjuries": 6407,
      "ĠDuke": 6408,
      "burgh": 6409,
      "DA": 6410,
      "lets": 6411,
      "Ġven": 6412,
      "Ġdisorders": 6413,
      "Ġroot": 6414,
      "Ġ42": 6415,
      "33": 6416,
      "Ġconqu": 6417,
      "ĠGirl": 6418,
      "Ġaer": 6419,
      "amber": 6420,
      "Ġgenus": 6421,
      "Ġswim": 6422,
      "Ġgirls": 6423,
      "Ġwounded": 6424,
      "Ġfamiliar": 6425,
      "ĠTaylor": 6426,
      "ãĤ": 6427,
      "ĠBart": 6428,
      "Ġrecru": 6429,
      "Ġobl": 6430,
      "Ġrestrict": 6431,
      "stood": 6432,
      "Ġchapter": 6433,
      "Ġtransition": 6434,
      "Ġopposite": 6435,
      "Ġreducing": 6436,
      "jo": 6437,
      "Ġrival": 6438,
      "Ġeasier": 6439,
      "Ġcriticized": 6440,
      "Ġmales": 6441,
      "Ġlung": 6442,
      "Ġfunds": 6443,
      "Ġdepending": 6444,
      "zing": 6445,
      "Ġfal": 6446,
      "Ġfinish": 6447,
      "TV": 6448,
      "Ġneither": 6449,
      "Ġpreced": 6450,
      "Ġdownload": 6451,
      "theless": 6452,
      "Ġpurposes": 6453,
      "Ġphenomen": 6454,
      "ĠRay": 6455,
      "apore": 6456,
      "ĠLeg": 6457,
      "Ġtouchdown": 6458,
      "Ġtoxic": 6459,
      "ĠCop": 6460,
      "ivered": 6461,
      "riers": 6462,
      "Ġhelping": 6463,
      "Ġthreatened": 6464,
      "Ġsudden": 6465,
      "isp": 6466,
      "ĠBurn": 6467,
      "ĠFinal": 6468,
      "resents": 6469,
      "Ġchronic": 6470,
      "Ġnav": 6471,
      "Ġreserv": 6472,
      "Ġradiation": 6473,
      "Ġproteins": 6474,
      "Ġsoul": 6475,
      "ĠMax": 6476,
      "Ġshif": 6477,
      "zym": 6478,
      "asters": 6479,
      "Ġmonit": 6480,
      "Ġ1985": 6481,
      "icide": 6482,
      "aked": 6483,
      "Ġyourself": 6484,
      "aire": 6485,
      "Ġbear": 6486,
      "Ġagree": 6487,
      "Ġ56": 6488,
      "yright": 6489,
      "Ġchallenges": 6490,
      "Ġsuffering": 6491,
      "Is": 6492,
      "OT": 6493,
      "hi": 6494,
      "pton": 6495,
      "active": 6496,
      "rane": 6497,
      "Ġrefers": 6498,
      "Ġideal": 6499,
      "Ġassociation": 6500,
      "ooth": 6501,
      "Ġsell": 6502,
      "Ġwet": 6503,
      "irt": 6504,
      "ĠScient": 6505,
      "Ġpredict": 6506,
      "Ġregularly": 6507,
      "alls": 6508,
      "Ġparticipated": 6509,
      "Ġdogs": 6510,
      "Ġing": 6511,
      "Ġanx": 6512,
      "ĠNaz": 6513,
      "Ġmeters": 6514,
      "Ġperforming": 6515,
      "Ġimmediate": 6516,
      "Ġpremi": 6517,
      "ĠSS": 6518,
      "ĠSpring": 6519,
      "ĠRoss": 6520,
      "ĠUse": 6521,
      "Ġmedium": 6522,
      "Ġexplains": 6523,
      "hered": 6524,
      "Ġdesire": 6525,
      "Ġaccounts": 6526,
      "Ġcorner": 6527,
      "bal": 6528,
      "ĠRh": 6529,
      "Ġvast": 6530,
      "oking": 6531,
      "Ġlooks": 6532,
      "Ġdebate": 6533,
      "75": 6534,
      "ĠAvenue": 6535,
      "Ġstim": 6536,
      "ĠWhe": 6537,
      "ieties": 6538,
      "Ġengineering": 6539,
      "Ġnormally": 6540,
      "Ġgather": 6541,
      "sey": 6542,
      "ĠIndust": 6543,
      "Ġkeeping": 6544,
      "Ġoption": 6545,
      "avalry": 6546,
      "ĠSingapore": 6547,
      "Ġsample": 6548,
      "ĠSat": 6549,
      "claim": 6550,
      "inton": 6551,
      "Ġexpert": 6552,
      "Ġsubjects": 6553,
      "Ġadministr": 6554,
      "ĠColl": 6555,
      "ĠVar": 6556,
      "âĢĿ.": 6557,
      "Ġparticipants": 6558,
      "ĠRhodes": 6559,
      "IA": 6560,
      "Ġgone": 6561,
      "ĠRog": 6562,
      "Ġsole": 6563,
      "Ġartillery": 6564,
      "Ġmeasured": 6565,
      "Ġrejected": 6566,
      "Ġsurrender": 6567,
      "ogle": 6568,
      "Ġassault": 6569,
      "Ġhighlight": 6570,
      "Ġclinical": 6571,
      "ĠProfess": 6572,
      "With": 6573,
      "ownt": 6574,
      "ĠBal": 6575,
      "ĠHeart": 6576,
      "Ġcolour": 6577,
      "Ġvictims": 6578,
      "Ġdynam": 6579,
      "Ġ41": 6580,
      "ĠAndrew": 6581,
      "Ġdelivered": 6582,
      "Ġjobs": 6583,
      "ether": 6584,
      "Ġpurchased": 6585,
      "ĠCroat": 6586,
      "atab": 6587,
      "ĠAri": 6588,
      "unicip": 6589,
      "abled": 6590,
      "Ġentry": 6591,
      "Ġdisturb": 6592,
      "Ġmerch": 6593,
      "icon": 6594,
      "Ġkg": 6595,
      "inem": 6596,
      "Ġconsumption": 6597,
      "Ġaccompanied": 6598,
      "abeth": 6599,
      "Ġtele": 6600,
      "Ġelectronic": 6601,
      "Ġemployees": 6602,
      "Ġcoastal": 6603,
      "Ġprincipal": 6604,
      "Ġsan": 6605,
      "ĠCorn": 6606,
      "ĠMid": 6607,
      "Ġdefinition": 6608,
      "Ġpull": 6609,
      "Ġnotice": 6610,
      "Ġpossess": 6611,
      "ĠEliz": 6612,
      "gent": 6613,
      "ĠPit": 6614,
      "Ġ178": 6615,
      "Ġdrinking": 6616,
      "Ġprisoners": 6617,
      "ĠForest": 6618,
      "ĠFoundation": 6619,
      "ĠLibrary": 6620,
      "Ġpassage": 6621,
      "Ġfrequency": 6622,
      "Ġdocuments": 6623,
      "iner": 6624,
      "ĠBul": 6625,
      "Ġstopped": 6626,
      "Ġcomprehens": 6627,
      "Ġrepresents": 6628,
      "Ġoccas": 6629,
      "By": 6630,
      "Ġille": 6631,
      "Ġton": 6632,
      "ĠTurn": 6633,
      "ching": 6634,
      "Ġwrites": 6635,
      "ester": 6636,
      "ĠPhys": 6637,
      "wing": 6638,
      "ye": 6639,
      "Ġcited": 6640,
      "ĠLo": 6641,
      "Ġturning": 6642,
      "Ġinvolving": 6643,
      "Ġpainting": 6644,
      "Ġseemed": 6645,
      "Ġcamera": 6646,
      "Ġtournament": 6647,
      "HE": 6648,
      "Ġexclus": 6649,
      "Ġ54": 6650,
      "Ġ1975": 6651,
      "Ġoccupied": 6652,
      "Ġcrisis": 6653,
      "cell": 6654,
      "Ġnone": 6655,
      "ellect": 6656,
      "Ġvitamin": 6657,
      "ĠPC": 6658,
      "iox": 6659,
      "Ġsimpl": 6660,
      "acher": 6661,
      "ĠLew": 6662,
      "oster": 6663,
      "Ġagent": 6664,
      "Ġwithdraw": 6665,
      "Ġconverted": 6666,
      "Ġsomewhat": 6667,
      "Ġthin": 6668,
      "ĠAdmiral": 6669,
      "Ġpurchase": 6670,
      "Ġcircumst": 6671,
      "ĠBBC": 6672,
      "Ġshaped": 6673,
      "ĠColor": 6674,
      "ĠCambridge": 6675,
      "Ġdismiss": 6676,
      "Ġformat": 6677,
      "Ġwonder": 6678,
      "ĠSym": 6679,
      "Ġru": 6680,
      "Ġmuscle": 6681,
      "SA": 6682,
      "ĠDue": 6683,
      "Ġretired": 6684,
      "Ġgoods": 6685,
      "Ġprinciples": 6686,
      "uable": 6687,
      "intend": 6688,
      "Ġthemes": 6689,
      "Ġcalc": 6690,
      "body": 6691,
      "Ġtrained": 6692,
      "ĠCommand": 6693,
      "Ġstands": 6694,
      "grad": 6695,
      "Ġrequirements": 6696,
      "Ġlinks": 6697,
      "ĠDig": 6698,
      "Ġrub": 6699,
      "ĠDirector": 6700,
      "ĠBon": 6701,
      "ulpt": 6702,
      "Ġspin": 6703,
      "Ġrailway": 6704,
      "ĠSix": 6705,
      "Ġpersonnel": 6706,
      "eor": 6707,
      "eenth": 6708,
      "Ġfaster": 6709,
      "ĠRa": 6710,
      "Ġlanding": 6711,
      "Ġelectrical": 6712,
      "Ġstrategies": 6713,
      "RE": 6714,
      "iro": 6715,
      "agan": 6716,
      "Ġsky": 6717,
      "Ġsettled": 6718,
      "ĠMedicine": 6719,
      "erted": 6720,
      "arant": 6721,
      "ĠHon": 6722,
      "Ġdifficulty": 6723,
      "Ġfarmers": 6724,
      "Ġenjoyed": 6725,
      "uters": 6726,
      "Ġseeing": 6727,
      "Ġthousand": 6728,
      "Ġbriefly": 6729,
      "Ġcong": 6730,
      "Ġspend": 6731,
      "Ġ1943": 6732,
      "Ġmir": 6733,
      "osm": 6734,
      "Ġevac": 6735,
      "ivation": 6736,
      "Ġintens": 6737,
      "Ġchildhood": 6738,
      "irds": 6739,
      "Ġyield": 6740,
      "Ġdispl": 6741,
      "Ġcrossing": 6742,
      "ĠNASA": 6743,
      "Ġchain": 6744,
      "Ġshop": 6745,
      "cribed": 6746,
      "ĠPrime": 6747,
      "Ġfavour": 6748,
      "Ġcloser": 6749,
      "Ġsight": 6750,
      "Ġtrials": 6751,
      "inations": 6752,
      "amental": 6753,
      "ĠLine": 6754,
      "Ġdesigns": 6755,
      "Ġoperate": 6756,
      "Ġbegun": 6757,
      "Ġax": 6758,
      "ador": 6759,
      "idges": 6760,
      "Ġinstalled": 6761,
      "Ġlose": 6762,
      "anger": 6763,
      "Ġdepartment": 6764,
      "Ġcasual": 6765,
      "itter": 6766,
      "ĠAge": 6767,
      "Ġimpossible": 6768,
      "Ġjustice": 6769,
      "Ġliterary": 6770,
      "ulum": 6771,
      "ĠEntertain": 6772,
      "iger": 6773,
      "ĠKey": 6774,
      "ĠSunday": 6775,
      "ĠMir": 6776,
      "Ġplate": 6777,
      "Ġjump": 6778,
      "cknow": 6779,
      "Ġserves": 6780,
      "ĠFrancisco": 6781,
      "ilit": 6782,
      "etime": 6783,
      "Ġforests": 6784,
      "chers": 6785,
      "tenance": 6786,
      "Ġgovernments": 6787,
      "All": 6788,
      "Ġneck": 6789,
      "They": 6790,
      "athy": 6791,
      "nership": 6792,
      "ulating": 6793,
      "ĠPot": 6794,
      "emies": 6795,
      "Ġ1984": 6796,
      "Ġstrongly": 6797,
      "Ġbringing": 6798,
      "ĠMaryland": 6799,
      "ĠMoon": 6800,
      "apse": 6801,
      "Ġclassification": 6802,
      "Ġfacility": 6803,
      "Ġdeclined": 6804,
      "Ġburied": 6805,
      "Un": 6806,
      "Ġcraft": 6807,
      "isa": 6808,
      "Ġdin": 6809,
      "Ġprovin": 6810,
      "Ġlanguages": 6811,
      "iary": 6812,
      "ĠSus": 6813,
      "ĠShow": 6814,
      "BN": 6815,
      "no": 6816,
      "Ġpip": 6817,
      "ĠSup": 6818,
      "Ġoutput": 6819,
      "Ġvolcan": 6820,
      "Ġlegislation": 6821,
      "tr": 6822,
      "ĠDisc": 6823,
      "Ġtitles": 6824,
      "45": 6825,
      "MA": 6826,
      "yd": 6827,
      "orrow": 6828,
      "Ġemissions": 6829,
      "ls": 6830,
      "Ġdates": 6831,
      "ĠNC": 6832,
      "ogy": 6833,
      "Ġexpensive": 6834,
      "ĠAllied": 6835,
      "Ġarchae": 6836,
      "ieval": 6837,
      "While": 6838,
      "Ġfrequent": 6839,
      "Ġadjust": 6840,
      "Ġbattery": 6841,
      "Ġnominated": 6842,
      "Ġthrow": 6843,
      "Ġinner": 6844,
      "Ġlake": 6845,
      "ĠST": 6846,
      "ĠUt": 6847,
      "ĠWhy": 6848,
      "Ġboats": 6849,
      "orous": 6850,
      "ĠSR": 6851,
      "Ġconclusion": 6852,
      "ĠFood": 6853,
      "Ġresource": 6854,
      "inder": 6855,
      "ranean": 6856,
      "Ġinvolves": 6857,
      "onia": 6858,
      "Ġheadquarters": 6859,
      "illy": 6860,
      "ĠHeb": 6861,
      "ĠIndepend": 6862,
      "ĠOpen": 6863,
      "Ġsamples": 6864,
      "ĠMeanwhile": 6865,
      "Ġcomfort": 6866,
      "ĠUr": 6867,
      "ella": 6868,
      "Ġowners": 6869,
      "Ġsoundtrack": 6870,
      "ĠBan": 6871,
      "ĠEp": 6872,
      "inding": 6873,
      "ocked": 6874,
      "Ġtrail": 6875,
      "Ġentitled": 6876,
      "cycl": 6877,
      "Ġclassroom": 6878,
      "ĠKorea": 6879,
      "Ġvulner": 6880,
      "okes": 6881,
      "ĠHarrison": 6882,
      "PS": 6883,
      "Ġacknow": 6884,
      "ĠOperation": 6885,
      "Ġscheduled": 6886,
      "Ġprol": 6887,
      "ĠClark": 6888,
      "Ġ1918": 6889,
      "Ġbiological": 6890,
      "Ġcrim": 6891,
      "ĠSuch": 6892,
      "oto": 6893,
      "Ġ1969": 6894,
      "ãģ": 6895,
      "Ġlies": 6896,
      "ĠNic": 6897,
      "Ġorganic": 6898,
      "Ġ1979": 6899,
      "Ġcopy": 6900,
      "erman": 6901,
      "unc": 6902,
      "Ġprohib": 6903,
      "arsh": 6904,
      "Ġlegs": 6905,
      "Ġprofession": 6906,
      "Ġsquadron": 6907,
      "Ġsatell": 6908,
      "roid": 6909,
      "ĠFair": 6910,
      "Ġcourts": 6911,
      "Ġcampus": 6912,
      "Ġexcellent": 6913,
      "Ġpoverty": 6914,
      "ĠMike": 6915,
      "aya": 6916,
      "atever": 6917,
      "Ġevening": 6918,
      "Ġalbums": 6919,
      "Ġcorpor": 6920,
      "ndom": 6921,
      "Ġ53": 6922,
      "Ġactors": 6923,
      "Ġphone": 6924,
      "Ġperspective": 6925,
      "ĠEmperor": 6926,
      "Ġargument": 6927,
      "ĠHawai": 6928,
      "Ġcrops": 6929,
      "ĠEntertainment": 6930,
      "icy": 6931,
      "Ġstruggle": 6932,
      "ĠBond": 6933,
      "Ġteen": 6934,
      "Ġrandom": 6935,
      "Ġsignal": 6936,
      "Ġbreed": 6937,
      "Ġbrothers": 6938,
      "Ġrear": 6939,
      "Ġgiant": 6940,
      "ampion": 6941,
      "Ġhappy": 6942,
      "Ġinjured": 6943,
      "Ġha": 6944,
      "ĠLiver": 6945,
      "Ġagency": 6946,
      "Ġrose": 6947,
      "Ġ66": 6948,
      "Ġowner": 6949,
      "Ġpotentially": 6950,
      "Ġbiggest": 6951,
      "Ġunusual": 6952,
      "Ġcolors": 6953,
      "cope": 6954,
      "Ġimmune": 6955,
      "Ġassessment": 6956,
      "ĠCarey": 6957,
      "pet": 6958,
      "Ġmode": 6959,
      "Ġappeal": 6960,
      "Ġexplore": 6961,
      "Ġcertainly": 6962,
      "Ġrebu": 6963,
      "Ġdoubt": 6964,
      "Ġpretty": 6965,
      "Ġfer": 6966,
      "Ġpitch": 6967,
      "ĠHun": 6968,
      "acent": 6969,
      "Ġphr": 6970,
      "Ġproperly": 6971,
      "Ġseparated": 6972,
      "ĠWars": 6973,
      "Ġsuperior": 6974,
      "apel": 6975,
      "Ġmilit": 6976,
      "Ġholds": 6977,
      "ĠFootball": 6978,
      "aver": 6979,
      "Ġnit": 6980,
      "Ġshift": 6981,
      "Ġupgr": 6982,
      "issance": 6983,
      "Ġsinging": 6984,
      "Ġ1964": 6985,
      "Ġrecognition": 6986,
      "Ġsurvived": 6987,
      "Ġdistributed": 6988,
      "gend": 6989,
      "Ġcharged": 6990,
      "Ġwarning": 6991,
      "Ġreduction": 6992,
      "Ġlisten": 6993,
      "Some": 6994,
      "Ġmit": 6995,
      "Ġsculpt": 6996,
      "osph": 6997,
      "Ġ160": 6998,
      "Ġgenerated": 6999,
      "Pro": 7000,
      "yles": 7001,
      "ansas": 7002,
      "Ġearn": 7003,
      "born": 7004,
      "ĠHIV": 7005,
      "ĠAsh": 7006,
      "Ġ76": 7007,
      "Ġantib": 7008,
      "ĠScottish": 7009,
      "ĠBible": 7010,
      "ĠHay": 7011,
      "western": 7012,
      "Ġaired": 7013,
      "Ġstead": 7014,
      "aga": 7015,
      "ĠGreg": 7016,
      "Ġobservations": 7017,
      "Ġdrawing": 7018,
      "bi": 7019,
      "spe": 7020,
      "Ġnick": 7021,
      "rav": 7022,
      "Ġsurf": 7023,
      "ĠTechnology": 7024,
      "avery": 7025,
      "Ġpump": 7026,
      "Ġoldest": 7027,
      "Ġwars": 7028,
      "Ġclim": 7029,
      "Ġprovince": 7030,
      "ĠHan": 7031,
      "Ġdeck": 7032,
      "ints": 7033,
      "Ġsingles": 7034,
      "Ġ250": 7035,
      "onc": 7036,
      "Ġwants": 7037,
      "ami": 7038,
      "ache": 7039,
      "Ġorient": 7040,
      "inction": 7041,
      "ĠInit": 7042,
      "Ġ1982": 7043,
      "Ġ1976": 7044,
      "ommod": 7045,
      "Ġgender": 7046,
      "Ġrarely": 7047,
      "GN": 7048,
      "ket": 7049,
      "Ġtact": 7050,
      "ĠMu": 7051,
      "Ġcomments": 7052,
      "Ġnutri": 7053,
      "Ġseventh": 7054,
      "urches": 7055,
      "using": 7056,
      "ĠBrian": 7057,
      "Ġintellect": 7058,
      "Ġpractical": 7059,
      "aturally": 7060,
      "esis": 7061,
      "asp": 7062,
      "Ġexternal": 7063,
      "coming": 7064,
      "Ġfeelings": 7065,
      "Ġcategory": 7066,
      "isers": 7067,
      "Ġveter": 7068,
      "Ġelectron": 7069,
      "ĠMarine": 7070,
      "ĠMuslim": 7071,
      "ĠPolish": 7072,
      "Ġdollars": 7073,
      "Ġprocedure": 7074,
      "Ġkilometres": 7075,
      "ĠUnivers": 7076,
      "Ġhistoric": 7077,
      "Ġmounted": 7078,
      "ture": 7079,
      "Ġtex": 7080,
      "Ġapprec": 7081,
      "lishing": 7082,
      "Ġheaded": 7083,
      "Ġsurvive": 7084,
      "ĠMiller": 7085,
      "fe": 7086,
      "Ġmoves": 7087,
      "Ġextension": 7088,
      "Ġengines": 7089,
      "Ġhappens": 7090,
      "ĠPalest": 7091,
      "Ġconsecutive": 7092,
      "uct": 7093,
      "Ġinher": 7094,
      "ĠLind": 7095,
      "Ġcomponent": 7096,
      "Ġ51": 7097,
      "Ġprocessing": 7098,
      "Ġpool": 7099,
      "ouri": 7100,
      "Ġlimits": 7101,
      "Ġnucle": 7102,
      "friend": 7103,
      "ocated": 7104,
      "Ġconscious": 7105,
      "athan": 7106,
      "Ġcriticism": 7107,
      "Ġcharts": 7108,
      "do": 7109,
      "rating": 7110,
      "Ġbot": 7111,
      "ĠAlb": 7112,
      "weight": 7113,
      "Ġfoundation": 7114,
      "ĠRepublican": 7115,
      "cient": 7116,
      "Ġben": 7117,
      "ĠCape": 7118,
      "Ġroots": 7119,
      "Ġtested": 7120,
      "Ġstreets": 7121,
      "ĠNorway": 7122,
      "Ġsucceeded": 7123,
      "Ġmoon": 7124,
      "ails": 7125,
      "Ġoffensive": 7126,
      "Ġentering": 7127,
      "Ġgrav": 7128,
      "ela": 7129,
      "uther": 7130,
      "ĠPed": 7131,
      "Ġflo": 7132,
      "ĠBarb": 7133,
      "ĠSupp": 7134,
      "Ġhydrogen": 7135,
      "Ġprices": 7136,
      "Ġtub": 7137,
      "orph": 7138,
      "Ġabund": 7139,
      "Ġreputation": 7140,
      "AD": 7141,
      "Ġdecor": 7142,
      "Ġparticipate": 7143,
      "itual": 7144,
      "emble": 7145,
      "Ġworst": 7146,
      "Ġflower": 7147,
      "apping": 7148,
      "Ġapproaches": 7149,
      "Ġroutes": 7150,
      "car": 7151,
      "Ġsons": 7152,
      "ĠHospital": 7153,
      "ĠJr": 7154,
      "ĠStat": 7155,
      "Ġinterchange": 7156,
      "rimination": 7157,
      "ĠKentucky": 7158,
      "ira": 7159,
      "Ġexplo": 7160,
      "Ġinvestment": 7161,
      "Ġinvestigation": 7162,
      "Ġdrama": 7163,
      "break": 7164,
      "yer": 7165,
      "indu": 7166,
      "Ġposted": 7167,
      "Ġrising": 7168,
      "Ġfalling": 7169,
      "Ġfishing": 7170,
      "ĠHolly": 7171,
      "Ġexception": 7172,
      "Ġprepare": 7173,
      "Ã¸": 7174,
      "Ġ57": 7175,
      "ĠAsian": 7176,
      "iterranean": 7177,
      "ĠBetween": 7178,
      "ĠElizabeth": 7179,
      "RO": 7180,
      "care": 7181,
      "uan": 7182,
      "ĠSound": 7183,
      "ĠBern": 7184,
      "ĠHit": 7185,
      "Ġclassic": 7186,
      "Ġrefuge": 7187,
      "Ġemployment": 7188,
      "Ġinhabit": 7189,
      "otype": 7190,
      "ĠJoe": 7191,
      "iah": 7192,
      "Ġappearances": 7193,
      "ĠColonel": 7194,
      "with": 7195,
      "Ġhip": 7196,
      "ĠDream": 7197,
      "ova": 7198,
      "aware": 7199,
      "Ġinformed": 7200,
      "Ġsolo": 7201,
      "Ġinstrument": 7202,
      "Ġphilosophy": 7203,
      "Ġduty": 7204,
      "ĠFleet": 7205,
      "ja": 7206,
      "Ġtherm": 7207,
      "Ġbran": 7208,
      "Ġdrew": 7209,
      "Ġplane": 7210,
      "Ġunion": 7211,
      "lick": 7212,
      "Ġ1971": 7213,
      "Ġ1973": 7214,
      "Ġ1939": 7215,
      "ĠAdditionally": 7216,
      "After": 7217,
      "iability": 7218,
      "Ġmine": 7219,
      "Ġvital": 7220,
      "Ġdisaster": 7221,
      "Ġarranged": 7222,
      "Ġethnic": 7223,
      "ashed": 7224,
      "Ġdust": 7225,
      "ĠMexican": 7226,
      "Ph": 7227,
      "Ġnotable": 7228,
      "ĠThose": 7229,
      "Ġunderstood": 7230,
      "ĠSyd": 7231,
      "box": 7232,
      "zy": 7233,
      "ĠBh": 7234,
      "ĠJane": 7235,
      "Ġconcepts": 7236,
      "Ġvisitors": 7237,
      "ĠGolden": 7238,
      "ĠFamily": 7239,
      "Ġwaves": 7240,
      "Ġfib": 7241,
      "ulture": 7242,
      "ĠAssembly": 7243,
      "Ġmulti": 7244,
      "Ġsurvival": 7245,
      "Ġceremony": 7246,
      "Ġcriminal": 7247,
      "after": 7248,
      "Ġmining": 7249,
      "Ġminister": 7250,
      "Ġtemporary": 7251,
      "ega": 7252,
      "ĠIndiana": 7253,
      "ĠBalt": 7254,
      "ifies": 7255,
      "Ġentertain": 7256,
      "ĠWho": 7257,
      "Ġ1967": 7258,
      "ĠMediterranean": 7259,
      "Ġsustained": 7260,
      "rogen": 7261,
      "Ġpermission": 7262,
      "Ġcolleagues": 7263,
      "Ġfundamental": 7264,
      "Ġcommissioned": 7265,
      "Ġdress": 7266,
      "Ġwasn": 7267,
      "Ġsuitable": 7268,
      "Ġprinciple": 7269,
      "Ġassumed": 7270,
      "orus": 7271,
      "Ġmart": 7272,
      "Ġrender": 7273,
      "ĠNative": 7274,
      "Ġmaintenance": 7275,
      "Ġconcrete": 7276,
      "Ġsteam": 7277,
      "ortunately": 7278,
      "Ġconsisting": 7279,
      "iations": 7280,
      "Ġdownt": 7281,
      "ĠStation": 7282,
      "aret": 7283,
      "Ġdriven": 7284,
      "Ġwindow": 7285,
      "Ġadopt": 7286,
      "Ġinstruments": 7287,
      "ĠKorean": 7288,
      "idelines": 7289,
      "Ġconventional": 7290,
      "37": 7291,
      "ĠLady": 7292,
      "Ġouter": 7293,
      "oys": 7294,
      "ĠAnderson": 7295,
      "ĠGuide": 7296,
      "ĠRailway": 7297,
      "BI": 7298,
      "ibilities": 7299,
      "Ġarchitecture": 7300,
      "Ġoccasionally": 7301,
      "chang": 7302,
      "ogether": 7303,
      "Ġ700": 7304,
      "Ġwhereas": 7305,
      "Ġfavorite": 7306,
      "Ġcrown": 7307,
      "usal": 7308,
      "agle": 7309,
      "Ġrivers": 7310,
      "Ġspr": 7311,
      "ĠAnth": 7312,
      "Ġplease": 7313,
      "Ġcovers": 7314,
      "Ġbought": 7315,
      "Ġ1974": 7316,
      "Ġ1965": 7317,
      "Ġvocals": 7318,
      "Ġstable": 7319,
      "ĠNH": 7320,
      "Ġcontroll": 7321,
      "Ġ1972": 7322,
      "Ġ1968": 7323,
      "ĠMissouri": 7324,
      "ĠLiverpool": 7325,
      "'ve": 7326,
      "Sh": 7327,
      "ĠTropical": 7328,
      "ĠPle": 7329,
      "Ġarts": 7330,
      "ĠSupreme": 7331,
      "Ġindu": 7332,
      "owed": 7333,
      "Ġuniform": 7334,
      "Ġexperts": 7335,
      "Ġsentence": 7336,
      "Ġpictures": 7337,
      "Ġencouraged": 7338,
      "ader": 7339,
      "Ġpointed": 7340,
      "Ġorganisms": 7341,
      "ĠImperial": 7342,
      "Ġobtain": 7343,
      "Ġgalax": 7344,
      "Ġtorpedo": 7345,
      "arks": 7346,
      "Ġtooth": 7347,
      "ĠOk": 7348,
      "ĠKir": 7349,
      "ificial": 7350,
      "ĠOlympic": 7351,
      "chen": 7352,
      "ĠWalk": 7353,
      "Ġmanage": 7354,
      "Ġages": 7355,
      "ervative": 7356,
      "Ġaccommod": 7357,
      "uccess": 7358,
      "ĠAN": 7359,
      "Ġagents": 7360,
      "Ġ1914": 7361,
      "Ġpercentage": 7362,
      "ĠMountain": 7363,
      "ST": 7364,
      "ĠRod": 7365,
      "ĠFestival": 7366,
      "Ġ1983": 7367,
      "ĠControl": 7368,
      "Ġcircumstances": 7369,
      "Ġbes": 7370,
      "leton": 7371,
      "Ġ52": 7372,
      "Ġestate": 7373,
      "Ġstrengthen": 7374,
      "Ġestablishment": 7375,
      "Ġsynthes": 7376,
      "aired": 7377,
      "ĠChart": 7378,
      "Ġevil": 7379,
      "Ġconcentration": 7380,
      "real": 7381,
      "Ġtoler": 7382,
      "ĠNight": 7383,
      "phone": 7384,
      "Ġengage": 7385,
      "Ġinspir": 7386,
      "Ġisolated": 7387,
      "ĠGib": 7388,
      "Ġunless": 7389,
      "Ġinfantry": 7390,
      "Ġmarine": 7391,
      "Ġinfections": 7392,
      "Ġtanks": 7393,
      "ordan": 7394,
      "Ġcharges": 7395,
      "Ġentrance": 7396,
      "Ġdrink": 7397,
      "ĠAdminist": 7398,
      "Ġmoral": 7399,
      "idity": 7400,
      "iva": 7401,
      "ĠLive": 7402,
      "aph": 7403,
      "Ġadmitted": 7404,
      "Ġindeed": 7405,
      "ĠTherefore": 7406,
      "Ġcontribute": 7407,
      "Ġdiagnosis": 7408,
      "Ġaccurate": 7409,
      "iac": 7410,
      "uts": 7411,
      "ĠBab": 7412,
      "ĠFree": 7413,
      "ĠArts": 7414,
      "Ġfilming": 7415,
      "bound": 7416,
      "ĠSteve": 7417,
      "Ġpoetry": 7418,
      "Ġneighborhood": 7419,
      "Ġinterior": 7420,
      "ognitive": 7421,
      "Ġcirculation": 7422,
      "Ġpopularity": 7423,
      "ĠWalter": 7424,
      "Ġtorn": 7425,
      "ĠHo": 7426,
      "Ġvan": 7427,
      "ĠLes": 7428,
      "Ġintense": 7429,
      "Ġdisapp": 7430,
      "Ġmoist": 7431,
      "heastern": 7432,
      "olve": 7433,
      "Ġenzym": 7434,
      "Ġresolution": 7435,
      "Ġ1917": 7436,
      "Ġencourage": 7437,
      "Ġsubstantial": 7438,
      "ivated": 7439,
      "Ġmodified": 7440,
      "Ġparticles": 7441,
      "Ġerr": 7442,
      "aska": 7443,
      "Ġcomparison": 7444,
      "Ġnarrative": 7445,
      "36": 7446,
      "Ġforming": 7447,
      "Ġrelevant": 7448,
      "Ġreaders": 7449,
      "Ġcopper": 7450,
      "Ġmissions": 7451,
      "Ġarrested": 7452,
      "ta": 7453,
      "Ġbones": 7454,
      "Ġpounds": 7455,
      "ĠIra": 7456,
      "ĠMain": 7457,
      "ĠBack": 7458,
      "ĠOffic": 7459,
      "ĠHarry": 7460,
      "hythm": 7461,
      "jan": 7462,
      "Ġcricket": 7463,
      "asks": 7464,
      "ĠCra": 7465,
      "ĠNap": 7466,
      "Ġplastic": 7467,
      "ĠZh": 7468,
      "ĠBroad": 7469,
      "Ġinstitution": 7470,
      "fire": 7471,
      "Ġment": 7472,
      "Ġnerv": 7473,
      "Ġcompens": 7474,
      "Ġclassified": 7475,
      "Ġfreeway": 7476,
      "cules": 7477,
      "Ġjudge": 7478,
      "ĠISBN": 7479,
      "xual": 7480,
      "ĠTy": 7481,
      "ĠDer": 7482,
      "Ġ1948": 7483,
      "Ġfewer": 7484,
      "Â°": 7485,
      "ĠNatural": 7486,
      "ĠMcG": 7487,
      "Ġdebuted": 7488,
      "Ġ*": 7489,
      "rell": 7490,
      "ĠWW": 7491,
      "ĠJean": 7492,
      "shire": 7493,
      "ĠAM": 7494,
      "ĠPub": 7495,
      "Ġpartner": 7496,
      "Ġparliament": 7497,
      "ĠGermans": 7498,
      "ĠRadio": 7499,
      "ĠCirc": 7500,
      "Ġchrom": 7501,
      "ĠInformation": 7502,
      "Ġcontest": 7503,
      "Ġ58": 7504,
      "ĠAlbum": 7505,
      "Ġkingdom": 7506,
      "Ġboys": 7507,
      "Ġduties": 7508,
      "Ġawards": 7509,
      "Ġinfer": 7510,
      "Ġgross": 7511,
      "Ġproposal": 7512,
      "ĠDougl": 7513,
      "ĠNorman": 7514,
      "Ġsick": 7515,
      "ective": 7516,
      "ĠStorm": 7517,
      "Ġefficiency": 7518,
      "Ġfacing": 7519,
      "ĠMinnes": 7520,
      "Ġmountains": 7521,
      "rastructure": 7522,
      "Ġattributed": 7523,
      "bro": 7524,
      "ĠBol": 7525,
      "worth": 7526,
      "Ġpiano": 7527,
      "Ġdensity": 7528,
      "ilation": 7529,
      "ĠArthur": 7530,
      "ennon": 7531,
      "Ġ1916": 7532,
      "Ġabsence": 7533,
      "Ġchemicals": 7534,
      "Ġresponded": 7535,
      "ĠSydney": 7536,
      "oken": 7537,
      "Ġcandidate": 7538,
      "Be": 7539,
      "bell": 7540,
      "Ġalter": 7541,
      "Ġshore": 7542,
      "Ġwilling": 7543,
      "ĠUSA": 7544,
      "Ġagriculture": 7545,
      "Ġbehaviour": 7546,
      "uman": 7547,
      "iller": 7548,
      "ĠJersey": 7549,
      "Ġ99": 7550,
      "Ġ1947": 7551,
      "Ġdemonstrated": 7552,
      "Ġsyndrome": 7553,
      "Ġforth": 7554,
      "Ġ130": 7555,
      "Ġbelieves": 7556,
      "Ġbattalion": 7557,
      "itudes": 7558,
      "ĠLewis": 7559,
      "39": 7560,
      "ĠBat": 7561,
      "ĠRights": 7562,
      "Ġrig": 7563,
      "Ġtopics": 7564,
      "ĠNetwork": 7565,
      "rets": 7566,
      "Ġflex": 7567,
      "Ġspons": 7568,
      "Ġsubmar": 7569,
      "Ġbaseball": 7570,
      "Ġcolonial": 7571,
      "gon": 7572,
      "Ġhired": 7573,
      "Ġhaz": 7574,
      "ĠPy": 7575,
      "ĠDE": 7576,
      "ailed": 7577,
      "Ġinvolvement": 7578,
      "regon": 7579,
      "Ġtalking": 7580,
      "38": 7581,
      "Ġmatters": 7582,
      "ĠTan": 7583,
      "Ġbusinesses": 7584,
      "Ã¡n": 7585,
      "Ġpollution": 7586,
      "Ġfict": 7587,
      "Ġstream": 7588,
      "names": 7589,
      "ĠTower": 7590,
      "ĠCre": 7591,
      "Ġlect": 7592,
      "Ġdefensive": 7593,
      "Ġretire": 7594,
      "Ġfalls": 7595,
      "Ġwooden": 7596,
      "Ġawareness": 7597,
      "FL": 7598,
      "yo": 7599,
      "Ġasking": 7600,
      "Ġassistant": 7601,
      "Ġsacr": 7602,
      "Ġlandscape": 7603,
      "Ġcustom": 7604,
      "norm": 7605,
      "ĠHMS": 7606,
      "rous": 7607,
      "Ġfacts": 7608,
      "Ġhybr": 7609,
      "Ġcrossed": 7610,
      "ĠIllino": 7611,
      "Acc": 7612,
      "hus": 7613,
      "Ġmand": 7614,
      "umed": 7615,
      "Ġsup": 7616,
      "Ġacids": 7617,
      "ati": 7618,
      "una": 7619,
      "ĠDown": 7620,
      "ĠObs": 7621,
      "Ġattitude": 7622,
      "ĠCentre": 7623,
      "Ġsuffer": 7624,
      "Ġhoriz": 7625,
      "Ġtexts": 7626,
      "ĠBang": 7627,
      "racy": 7628,
      "Ġorchest": 7629,
      "ĠJordan": 7630,
      "Ġabuse": 7631,
      "Ġsituations": 7632,
      "Ġexisted": 7633,
      "Ġrecovery": 7634,
      "ĠColorado": 7635,
      "ito": 7636,
      "ĠPass": 7637,
      "Ġintention": 7638,
      "Ġextract": 7639,
      "Ġtemple": 7640,
      "ĠSimilar": 7641,
      "Ġdecrease": 7642,
      "ules": 7643,
      "Ġcomedy": 7644,
      "Ġenemies": 7645,
      "insula": 7646,
      "Ġsmoke": 7647,
      "Ġmanufactur": 7648,
      "Ġfixed": 7649,
      "ographer": 7650,
      "Ġstood": 7651,
      "Ġcompounds": 7652,
      "ropol": 7653,
      "name": 7654,
      "Ġkinds": 7655,
      "Ġhousing": 7656,
      "Ġseeking": 7657,
      "Ġthirty": 7658,
      "Ġwish": 7659,
      "achel": 7660,
      "Ġprey": 7661,
      "Ġagencies": 7662,
      "Ġ1946": 7663,
      "Ġmobile": 7664,
      "ĠMatthew": 7665,
      "Ġinsects": 7666,
      "gers": 7667,
      "Ġham": 7668,
      "omal": 7669,
      "ĠWell": 7670,
      "Ġcomic": 7671,
      "opher": 7672,
      "Ġnoise": 7673,
      "Ġbreaking": 7674,
      "Ġgap": 7675,
      "Ġgrounds": 7676,
      "Ġindicates": 7677,
      "Ġturb": 7678,
      "Ġfold": 7679,
      "ĠMS": 7680,
      "ĠFive": 7681,
      "ĠNBA": 7682,
      "Ġinvited": 7683,
      "Ġessay": 7684,
      "ĠHoly": 7685,
      "Ġdenied": 7686,
      "Ġreplacement": 7687,
      "bra": 7688,
      "imet": 7689,
      "ĠNature": 7690,
      "ĠStr": 7691,
      "ĠStew": 7692,
      "ultane": 7693,
      "hedral": 7694,
      "Ġfiles": 7695,
      "Ġprotest": 7696,
      "Ġcontrols": 7697,
      "ĠIllinois": 7698,
      "ĠCook": 7699,
      "otes": 7700,
      "otton": 7701,
      "ĠEver": 7702,
      "Ġmoderate": 7703,
      "Ġslavery": 7704,
      "ĠCorpor": 7705,
      "ĠStudents": 7706,
      "amil": 7707,
      "ĠRu": 7708,
      "ĠKnow": 7709,
      "ographical": 7710,
      "Ġemerged": 7711,
      "Ġash": 7712,
      "heric": 7713,
      "Ġsupplement": 7714,
      "ĠSummer": 7715,
      "Ġinput": 7716,
      "ĠOregon": 7717,
      "Ġpartnership": 7718,
      "âĢĿ,": 7719,
      "ĠJustice": 7720,
      "ĠDiego": 7721,
      "Ġfur": 7722,
      "alities": 7723,
      "olph": 7724,
      "owing": 7725,
      "eman": 7726,
      "Ġtea": 7727,
      "Ġruled": 7728,
      "Ġwalking": 7729,
      "Ġfolk": 7730,
      "Ġpy": 7731,
      "sts": 7732,
      "Ġsuit": 7733,
      "Ġresemb": 7734,
      "Ġjur": 7735,
      "Ġfled": 7736,
      "Ġ1981": 7737,
      "Ġelections": 7738,
      "Ġlowest": 7739,
      "Ġrisks": 7740,
      "Ġcredited": 7741,
      "Ġtribes": 7742,
      "Ġburning": 7743,
      "agonist": 7744,
      "Ġnaturally": 7745,
      "ĠFire": 7746,
      "aints": 7747,
      "Ġaccum": 7748,
      "Ġscheme": 7749,
      "bec": 7750,
      "Ġdipl": 7751,
      "ĠBad": 7752,
      "ĠBos": 7753,
      "Ġworse": 7754,
      "ĠAdam": 7755,
      "ĠEarl": 7756,
      "Ġcreative": 7757,
      "ĠAgency": 7758,
      "III": 7759,
      "Ġvessel": 7760,
      "Ġwearing": 7761,
      "ĠGilbert": 7762,
      "tra": 7763,
      "yt": 7764,
      "ĠLast": 7765,
      "ĠKa": 7766,
      "Ġ59": 7767,
      "Ġblog": 7768,
      "Ġdecide": 7769,
      "ĠPhilip": 7770,
      "Ġtransportation": 7771,
      "Ġfossil": 7772,
      "rant": 7773,
      "Ġreconst": 7774,
      "Ġmetab": 7775,
      "Ġapproached": 7776,
      "Ġsubstance": 7777,
      "ĠHebrew": 7778,
      "ĠAff": 7779,
      "Ġrenamed": 7780,
      "Ġcul": 7781,
      "Ġpin": 7782,
      "elly": 7783,
      "Ġvaluable": 7784,
      "OC": 7785,
      "Ġdescribing": 7786,
      "ĠWithin": 7787,
      "Ġhunting": 7788,
      "ĠRen": 7789,
      "Ġspoke": 7790,
      "wealth": 7791,
      "Ġ177": 7792,
      "Ġguarant": 7793,
      "Ġaudio": 7794,
      "ĠNorwe": 7795,
      "ĠProfessor": 7796,
      "aud": 7797,
      "olves": 7798,
      "ĠRos": 7799,
      "ĠLieutenant": 7800,
      "Ġassemb": 7801,
      "Ġcontinuing": 7802,
      "Ġvegetables": 7803,
      "Ġsessions": 7804,
      "Ġbass": 7805,
      "igure": 7806,
      "Ġrecip": 7807,
      "Ġinstruction": 7808,
      "Ġconsequences": 7809,
      "ĠJacob": 7810,
      "ĠJun": 7811,
      "Ġarc": 7812,
      "Ġ67": 7813,
      "Ġpubl": 7814,
      "Ġstring": 7815,
      "Ġsharp": 7816,
      "Ġdiverse": 7817,
      "Ġtiny": 7818,
      "urd": 7819,
      "Ġrated": 7820,
      "amps": 7821,
      "ĠOlympics": 7822,
      "Ġpregnant": 7823,
      "Ġrescue": 7824,
      "TP": 7825,
      "Ġhal": 7826,
      "Ġhits": 7827,
      "ĠSomet": 7828,
      "Ġchannel": 7829,
      "Ġspending": 7830,
      "Ġdefence": 7831,
      "Ġrepair": 7832,
      "Ġerror": 7833,
      "Ġuncertain": 7834,
      "Ġincorporated": 7835,
      "ĠGard": 7836,
      "ureau": 7837,
      "Ġlasted": 7838,
      "Ġframe": 7839,
      "wan": 7840,
      "ĠEconom": 7841,
      "Ġclick": 7842,
      "Ġoffices": 7843,
      "azing": 7844,
      "ĠAdv": 7845,
      "ĠPhill": 7846,
      "ĠSecurity": 7847,
      "eles": 7848,
      "ags": 7849,
      "Ġorbit": 7850,
      "Ġexperiments": 7851,
      "Ġ110": 7852,
      "Ġdifficulties": 7853,
      "ĠSquare": 7854,
      "Ġearthquake": 7855,
      "Ġmath": 7856,
      "Ġintervention": 7857,
      "Ġmunicip": 7858,
      "Ġgro": 7859,
      "Ġprove": 7860,
      "ĠStaff": 7861,
      "Ġinvent": 7862,
      "Ġobst": 7863,
      "Ġcourses": 7864,
      "Ġ1966": 7865,
      "ĠMedia": 7866,
      "Ġconvin": 7867,
      "Ġapparently": 7868,
      "'ll": 7869,
      "iday": 7870,
      "ĠDog": 7871,
      "ĠBeat": 7872,
      "Ġfacilit": 7873,
      "Ġmillions": 7874,
      "Ġweakened": 7875,
      "Americ": 7876,
      "Ġtied": 7877,
      "ĠTrib": 7878,
      "ĠSanta": 7879,
      "Ġstored": 7880,
      "ĠFantasy": 7881,
      "Ġintent": 7882,
      "Ġreserve": 7883,
      "Ġtempor": 7884,
      "Ġelsewhere": 7885,
      "Ġcollaboration": 7886,
      "Ġfalse": 7887,
      "Ġwatched": 7888,
      "encing": 7889,
      "Ġfasc": 7890,
      "Ġdiversity": 7891,
      "ishment": 7892,
      "Ġwire": 7893,
      "ĠSher": 7894,
      "Ġkit": 7895,
      "Ġ68": 7896,
      "Ġequipped": 7897,
      "Ġrailroad": 7898,
      "ĠDemocratic": 7899,
      "Ġsegment": 7900,
      "ĠBase": 7901,
      "umps": 7902,
      "ĠUnlike": 7903,
      "Ġassass": 7904,
      "Ġpersu": 7905,
      "Ġlatest": 7906,
      "Ġliquid": 7907,
      "ĠIraq": 7908,
      "da": 7909,
      "Ġtheories": 7910,
      "Ġchest": 7911,
      "Ġliver": 7912,
      "Ġpron": 7913,
      "Ġprogramme": 7914,
      "criptions": 7915,
      "Ġsoutheast": 7916,
      "agh": 7917,
      "orted": 7918,
      "Ġoutl": 7919,
      "Ġsmooth": 7920,
      "rait": 7921,
      "Ġmedieval": 7922,
      "Ġ1977": 7923,
      "Ġ1963": 7924,
      "Ġeru": 7925,
      "TS": 7926,
      "Ġvon": 7927,
      "Ġusual": 7928,
      "ĠReport": 7929,
      "ĠDec": 7930,
      "66": 7931,
      "lan": 7932,
      "inated": 7933,
      "erior": 7934,
      "Ġsees": 7935,
      "ĠKim": 7936,
      "iege": 7937,
      "Ġ1915": 7938,
      "Ġinteraction": 7939,
      "host": 7940,
      "urrent": 7941,
      "overe": 7942,
      "Ġblocks": 7943,
      "Ġdiff": 7944,
      "Ġ1978": 7945,
      "Ġrepresenting": 7946,
      "Ġoptim": 7947,
      "Ġvillages": 7948,
      "Ġunsuccess": 7949,
      "Ġdoctors": 7950,
      "lav": 7951,
      "ilst": 7952,
      "ivan": 7953,
      "Ġ69": 7954,
      "Ġcharacterized": 7955,
      "Ġcircle": 7956,
      "ĠEgyptian": 7957,
      "Ġpreferred": 7958,
      "34": 7959,
      "AM": 7960,
      "ĠRow": 7961,
      "Ġcann": 7962,
      "Ġrestric": 7963,
      "Ġsouthwest": 7964,
      "Ġshooting": 7965,
      "ĠAuthor": 7966,
      "Ġintellectual": 7967,
      ".|": 7968,
      "hist": 7969,
      "rary": 7970,
      "Ġtick": 7971,
      "ĠChron": 7972,
      "Ġspaces": 7973,
      "Ġbands": 7974,
      "Ġadapted": 7975,
      "ĠBowl": 7976,
      "Ġholid": 7977,
      "Ġstadium": 7978,
      "Ġ74": 7979,
      "ĠArmen": 7980,
      "Ġeighth": 7981,
      "ĠSaf": 7982,
      "ĠMississ": 7983,
      "ĠMoore": 7984,
      "ĠMinnesota": 7985,
      "eas": 7986,
      "Ġaqu": 7987,
      "Ġwel": 7988,
      "Ġstick": 7989,
      "acc": 7990,
      "ĠOrder": 7991,
      "Ġpapers": 7992,
      "ĠTs": 7993,
      "ĠFord": 7994,
      "Ġenforce": 7995,
      "Ġ77": 7996,
      "ĠArgent": 7997,
      "ĠMcK": 7998,
      "US": 7999,
      "asa": 8000,
      "ĠWright": 8001,
      "aren": 8002,
      "Ġvideos": 8003,
      "Ġcompletion": 8004,
      "Ġdollar": 8005,
      "night": 8006,
      "emed": 8007,
      "ĠDC": 8008,
      "Ġadequ": 8009,
      "Ġtrouble": 8010,
      "Ġalleged": 8011,
      "32": 8012,
      "Ġtheore": 8013,
      "isd": 8014,
      "ĠAk": 8015,
      "hemical": 8016,
      "Ġpresentation": 8017,
      "Ġanticip": 8018,
      "Ġsweet": 8019,
      "Ġ<": 8020,
      "ĠEst": 8021,
      "ector": 8022,
      "Ġpersonality": 8023,
      "Ġlessons": 8024,
      "ĠOliv": 8025,
      "Ġsale": 8026,
      "Ġdated": 8027,
      "Ġhorm": 8028,
      "ĠNon": 8029,
      "Ġrelation": 8030,
      "Ġinfrastructure": 8031,
      "Ġtight": 8032,
      "Ġlin": 8033,
      "ĠDrag": 8034,
      "Ġske": 8035,
      "Ġswitch": 8036,
      "Ġcutting": 8037,
      "ĠStudies": 8038,
      ".;": 8039,
      "Ġnurs": 8040,
      "cho": 8041,
      "ĠNob": 8042,
      "aws": 8043,
      "Ġmonarch": 8044,
      "Ġlesson": 8045,
      "ĠManagement": 8046,
      "Ġpanel": 8047,
      "ji": 8048,
      "zed": 8049,
      "onald": 8050,
      "Ġfault": 8051,
      "ilton": 8052,
      "Ġgenre": 8053,
      "Ġcolony": 8054,
      "Ġcurric": 8055,
      "Ġsolutions": 8056,
      "Ġtreatments": 8057,
      "That": 8058,
      "Ġprecip": 8059,
      "Ġmonitoring": 8060,
      "Ġere": 8061,
      "Ġbond": 8062,
      "uscript": 8063,
      "ersed": 8064,
      "Ġ1956": 8065,
      "Ġlaboratory": 8066,
      "Ġintersection": 8067,
      "Ġpregnancy": 8068,
      "64": 8069,
      "itals": 8070,
      "Ġbats": 8071,
      "Ġafford": 8072,
      "ĠAirport": 8073,
      "Ġneighb": 8074,
      "Ġmaps": 8075,
      "icts": 8076,
      "Ġalg": 8077,
      "ĠEth": 8078,
      "ika": 8079,
      "Ġ1919": 8080,
      "namese": 8081,
      "ĠPsych": 8082,
      "Ġorb": 8083,
      "ideo": 8084,
      "Ġaccused": 8085,
      "Ġpoison": 8086,
      "Ġreturns": 8087,
      "Ġsensitive": 8088,
      "Ġstayed": 8089,
      "ĠMicro": 8090,
      "ĠSimpson": 8091,
      "Ġdiameter": 8092,
      "Ġmos": 8093,
      "Ġstrict": 8094,
      "ĠExt": 8095,
      "Ġplus": 8096,
      "Ġ78": 8097,
      "Ġterror": 8098,
      "Ġpenal": 8099,
      "Ġsin": 8100,
      "Ġseeds": 8101,
      "Ġcircuit": 8102,
      "ĠTemple": 8103,
      "Ġcomprehensive": 8104,
      "ml": 8105,
      "Ġrecept": 8106,
      "ĠIns": 8107,
      "Ġaged": 8108,
      "ĠAlab": 8109,
      "Ġproduces": 8110,
      "ockey": 8111,
      "Ġ1953": 8112,
      "ĠRoberts": 8113,
      "Ġjudg": 8114,
      "Ġhypothes": 8115,
      "Ġbranches": 8116,
      "ĠPict": 8117,
      "Ġbutter": 8118,
      "Ġ62": 8119,
      "Ġfilmed": 8120,
      "Ġoffering": 8121,
      "ĠAgain": 8122,
      "Ġdelivery": 8123,
      "Ġsatellite": 8124,
      "mouth": 8125,
      "Ġretained": 8126,
      "Ġdiscrimination": 8127,
      "Ġreferences": 8128,
      "Ġsettlers": 8129,
      "po": 8130,
      "Ġcards": 8131,
      "orld": 8132,
      "ruption": 8133,
      "ĠAbb": 8134,
      "Ġpassengers": 8135,
      "oids": 8136,
      "ĠTok": 8137,
      "Ġclothing": 8138,
      "Ġ94": 8139,
      "Ġtruly": 8140,
      "Ġsurviving": 8141,
      "Ġexplanation": 8142,
      "According": 8143,
      "ĠBru": 8144,
      "ippi": 8145,
      "ĠMinistry": 8146,
      "ĠâĪ": 8147,
      "Res": 8148,
      "ĠSn": 8149,
      "ĠHou": 8150,
      "Ġ175": 8151,
      "Ġpainted": 8152,
      "ĠDavis": 8153,
      "ourage": 8154,
      "Ġbanks": 8155,
      "ĠDaily": 8156,
      "Ġpartly": 8157,
      "Ġrelie": 8158,
      "Ġreactions": 8159,
      "ĠMagazine": 8160,
      "Ġdowntown": 8161,
      "ĠPA": 8162,
      "Ġnoting": 8163,
      "Ġactress": 8164,
      "Ġcoff": 8165,
      "erald": 8166,
      "Ġsimultane": 8167,
      "rett": 8168,
      "Ġremainder": 8169,
      "Ġongoing": 8170,
      "apped": 8171,
      "Ġmissed": 8172,
      "Ġattracted": 8173,
      "iology": 8174,
      "Ġgate": 8175,
      "ĠRose": 8176,
      "dule": 8177,
      "ĠVietnamese": 8178,
      "Ġthrone": 8179,
      "Ġwatching": 8180,
      "ĠEnvironmental": 8181,
      "ederation": 8182,
      "ĠLanc": 8183,
      "Ġexists": 8184,
      "Ġ1962": 8185,
      "Ġfairly": 8186,
      "ĠAlabama": 8187,
      "PC": 8188,
      "Ġprev": 8189,
      "Ġdivor": 8190,
      "Ġtrend": 8191,
      "Ġfluid": 8192,
      "fit": 8193,
      "erals": 8194,
      "estyle": 8195,
      "Ġcomputers": 8196,
      "Ġparas": 8197,
      "Ġstudying": 8198,
      "Ġdepends": 8199,
      "vy": 8200,
      "ĠPur": 8201,
      "ĠLi": 8202,
      "Ġconsistent": 8203,
      "Ġtargets": 8204,
      "Ġmechanism": 8205,
      "Arthur": 8206,
      "Ġillegal": 8207,
      "mat": 8208,
      "Ġtaste": 8209,
      "Ġabol": 8210,
      "iversary": 8211,
      "Ġslaves": 8212,
      "ficial": 8213,
      "Ġsurrounded": 8214,
      "Ġdialogue": 8215,
      "Ġmanip": 8216,
      "Ġconnections": 8217,
      "Ġdramatic": 8218,
      "Ġdominated": 8219,
      "Ġritual": 8220,
      "ĠVill": 8221,
      "Ġfeeding": 8222,
      "which": 8223,
      "ĠThroughout": 8224,
      "aft": 8225,
      "ĠFA": 8226,
      "ĠFront": 8227,
      "Ġcoin": 8228,
      "Ġgenerate": 8229,
      "Ġcovering": 8230,
      "Ġremoval": 8231,
      "ĠGoogle": 8232,
      "ĠUsing": 8233,
      "Ġweapon": 8234,
      "cyclop": 8235,
      "ĠUTC": 8236,
      "Ġcoins": 8237,
      "ĠPoland": 8238,
      "borne": 8239,
      "iatric": 8240,
      "Ġprocedures": 8241,
      "Ġregistered": 8242,
      "ĠMarshall": 8243,
      "oen": 8244,
      "ups": 8245,
      "inally": 8246,
      "Ġbasket": 8247,
      "Ġmerely": 8248,
      "ĠCommonwealth": 8249,
      "ĠShortly": 8250,
      "aug": 8251,
      "oples": 8252,
      "Ġpatrol": 8253,
      "Ġsurviv": 8254,
      "ĠConnect": 8255,
      "Ġreader": 8256,
      "hedule": 8257,
      "Ġfill": 8258,
      "Ġinject": 8259,
      "Ġdatab": 8260,
      "Ġhill": 8261,
      "Ġmarkets": 8262,
      "Ġfictional": 8263,
      "wick": 8264,
      "ĠCher": 8265,
      "Ġalive": 8266,
      "Ġjun": 8267,
      "ĠSciences": 8268,
      "ION": 8269,
      "vard": 8270,
      "ĠAC": 8271,
      "oked": 8272,
      "Ġphysics": 8273,
      "Ġrepresentative": 8274,
      "Station": 8275,
      "ĠNether": 8276,
      "Ġacknowled": 8277,
      "Ġaest": 8278,
      "Ġcrop": 8279,
      "Ġcavalry": 8280,
      "Ġmood": 8281,
      "ĠAz": 8282,
      "Ġaren": 8283,
      "Ġchurches": 8284,
      "Ġleaf": 8285,
      "ĠVis": 8286,
      "Ġputting": 8287,
      "Ġrecognize": 8288,
      "Ġinspiration": 8289,
      "ĠNorwegian": 8290,
      "Ġmild": 8291,
      "Ġdating": 8292,
      "ĠSle": 8293,
      "Ġplanets": 8294,
      "Ġbom": 8295,
      "Ġminim": 8296,
      "Ġratio": 8297,
      "fish": 8298,
      "Ġtelling": 8299,
      "itely": 8300,
      "Ġsuicide": 8301,
      "ĠSeattle": 8302,
      "Ġmedal": 8303,
      "Ġlandfall": 8304,
      "Ġexperimental": 8305,
      "ylan": 8306,
      "From": 8307,
      "andy": 8308,
      "Ġrooms": 8309,
      "Ġoverw": 8310,
      "nessee": 8311,
      "ĠStudios": 8312,
      "ĠModern": 8313,
      "Ġranging": 8314,
      "intendo": 8315,
      "gi": 8316,
      "ĠAlf": 8317,
      "Ġrestored": 8318,
      "Ġparticipation": 8319,
      "Ġrecovered": 8320,
      "Ġadjacent": 8321,
      "ĠOrganization": 8322,
      "auc": 8323,
      "anth": 8324,
      "ĠYe": 8325,
      "Ġdriver": 8326,
      "ĠMarg": 8327,
      "ĠOttoman": 8328,
      "Ġtone": 8329,
      "acle": 8330,
      "ĠNintendo": 8331,
      "Ġpolar": 8332,
      "Ġviolent": 8333,
      "Ġmanufacturing": 8334,
      "Ġgods": 8335,
      "Ġsatisf": 8336,
      "Ġcasualties": 8337,
      "Ġcod": 8338,
      "Ġhandle": 8339,
      "Ġ1961": 8340,
      "Ġwindows": 8341,
      "Ġanxiety": 8342,
      "EM": 8343,
      "Le": 8344,
      "ĠIran": 8345,
      "ĠYet": 8346,
      "Ġretreat": 8347,
      "fficient": 8348,
      "Ġcryst": 8349,
      "ĠDouglas": 8350,
      "ĠMississippi": 8351,
      "Ġcup": 8352,
      "Ġdies": 8353,
      "Ġgard": 8354,
      "Ġvoted": 8355,
      "Ġdesert": 8356,
      "eping": 8357,
      "Ġ140": 8358,
      "Ġimprovement": 8359,
      "Ġvulnerable": 8360,
      "ĠAdministration": 8361,
      "ĠBureau": 8362,
      "Ġplain": 8363,
      "Ġ79": 8364,
      "Ġsignificance": 8365,
      "ĠMacArthur": 8366,
      "ĠPlayStation": 8367,
      "OL": 8368,
      "ĠNich": 8369,
      "Ġcenters": 8370,
      "Ġclassical": 8371,
      "ĠMarc": 8372,
      "Ġ1910": 8373,
      "Ġcrash": 8374,
      "Ġangle": 8375,
      "Ġdanger": 8376,
      "ĠTennessee": 8377,
      "ĠDublin": 8378,
      "31": 8379,
      "oom": 8380,
      "Ġtut": 8381,
      "Ġrecalled": 8382,
      "ullivan": 8383,
      "osystem": 8384,
      "uty": 8385,
      "Ġmanuscript": 8386,
      "Ġraces": 8387,
      "ĠLeon": 8388,
      "Ġcollapse": 8389,
      "Ġcontribution": 8390,
      "Ġimmun": 8391,
      "Ġmagnetic": 8392,
      "hand": 8393,
      "ko": 8394,
      "Ġsubt": 8395,
      "Ġwarming": 8396,
      "Ġsitting": 8397,
      "Ġreveals": 8398,
      "However": 8399,
      "Ġreinforce": 8400,
      "FA": 8401,
      "etics": 8402,
      "ocracy": 8403,
      "Ġusage": 8404,
      "cluding": 8405,
      "Ġflash": 8406,
      "Ġsupports": 8407,
      "Ġthoughts": 8408,
      "Ġdebt": 8409,
      "Ġhidden": 8410,
      "ĠLim": 8411,
      "Ġlayers": 8412,
      "Ġwildlife": 8413,
      "Ġkidney": 8414,
      "hma": 8415,
      "ivals": 8416,
      "ordon": 8417,
      "Ġslave": 8418,
      "Ġrestaur": 8419,
      "ĠAllen": 8420,
      "198": 8421,
      "Ġnecessarily": 8422,
      "Ġlabour": 8423,
      "Ġinterpre": 8424,
      "Sp": 8425,
      "Äĥ": 8426,
      "quir": 8427,
      "Ġsharing": 8428,
      "ĠThird": 8429,
      "achment": 8430,
      "Ġevolved": 8431,
      "Ġprovision": 8432,
      "Ġenthus": 8433,
      "Ġbrigade": 8434,
      "Ġengineer": 8435,
      "ĠMilitary": 8436,
      "ois": 8437,
      "Ġodd": 8438,
      "Ġbeach": 8439,
      "ĠBand": 8440,
      "ĠFund": 8441,
      "sole": 8442,
      "Ġallerg": 8443,
      "teenth": 8444,
      "Ġgameplay": 8445,
      "Ġinfected": 8446,
      "Ġmarks": 8447,
      "vironments": 8448,
      "Ġcommanded": 8449,
      "ascular": 8450,
      "Ġcrucial": 8451,
      "ĠMemorial": 8452,
      "burn": 8453,
      "ĠMit": 8454,
      "Ġwhatever": 8455,
      "ĠLy": 8456,
      "comes": 8457,
      "Ġinfluential": 8458,
      "Ġchoices": 8459,
      "Ġnetworks": 8460,
      "Ġmaintaining": 8461,
      "itzer": 8462,
      "Ġhosp": 8463,
      "Ġlob": 8464,
      "ĠBrand": 8465,
      "ĠBishop": 8466,
      "that": 8467,
      "Ġvel": 8468,
      "ĠLess": 8469,
      "ĠKat": 8470,
      "Ġmanif": 8471,
      "Ġinsurance": 8472,
      "Ġ1912": 8473,
      "Ġhoped": 8474,
      "Ġingred": 8475,
      "Now": 8476,
      "inian": 8477,
      "Ġexport": 8478,
      "Ġ1900": 8479,
      "Ġprime": 8480,
      "Ġmyst": 8481,
      "Ġequally": 8482,
      "Ġinternet": 8483,
      "CS": 8484,
      "yes": 8485,
      "Ġproof": 8486,
      "Ġ98": 8487,
      "Ġtransmission": 8488,
      "Ġobjective": 8489,
      "Ã³n": 8490,
      "ĠBa": 8491,
      "ĠDylan": 8492,
      "ĠEle": 8493,
      "Ġperceived": 8494,
      "Ġmuscles": 8495,
      "Ġhistorians": 8496,
      "Ġprevented": 8497,
      "Ġgrey": 8498,
      "ĠFreder": 8499,
      "Ġneutral": 8500,
      "Here": 8501,
      "Ġtack": 8502,
      "ori": 8503,
      "asant": 8504,
      "tery": 8505,
      "ĠLisa": 8506,
      "Ġdisrupt": 8507,
      "Ġregime": 8508,
      "Ġartificial": 8509,
      "ĠPeace": 8510,
      "Ġaffects": 8511,
      "Ġfranch": 8512,
      "Ġinhib": 8513,
      "Ġrocks": 8514,
      "Ġracial": 8515,
      "ounced": 8516,
      "Ġestimates": 8517,
      "Ġaccompany": 8518,
      "Ġencountered": 8519,
      "rust": 8520,
      "herent": 8521,
      "Ġbears": 8522,
      "ĠGer": 8523,
      "Ġscholar": 8524,
      "Ġmolecular": 8525,
      "Ġloved": 8526,
      "Ġinhabitants": 8527,
      "Ġbread": 8528,
      "emor": 8529,
      "ĠGet": 8530,
      "Ġvice": 8531,
      "apy": 8532,
      "Ġdischar": 8533,
      "ĠConvention": 8534,
      "Ġ1936": 8535,
      "Ġimproving": 8536,
      "Ġprinted": 8537,
      "bles": 8538,
      "ĠAround": 8539,
      "Ġcomprom": 8540,
      "Ġoutbreak": 8541,
      "Ġfounder": 8542,
      "ĠAny": 8543,
      "uese": 8544,
      "elsh": 8545,
      "Ġtraditions": 8546,
      "Ġcolonies": 8547,
      "Ġpreparation": 8548,
      "New": 8549,
      "orney": 8550,
      "Ġpound": 8551,
      "Ġpione": 8552,
      "omatic": 8553,
      "ghan": 8554,
      "Ġabilities": 8555,
      "atty": 8556,
      "ĠSign": 8557,
      "ĠRoy": 8558,
      "ĠLennon": 8559,
      "iley": 8560,
      "Ġdemands": 8561,
      "Ġ1958": 8562,
      "Ġstoryline": 8563,
      "Ġoccupation": 8564,
      "Ġcontroversial": 8565,
      "Ġlists": 8566,
      "ĠIron": 8567,
      "ĠHu": 8568,
      "agen": 8569,
      "Ġunderground": 8570,
      "itarian": 8571,
      "Ġcra": 8572,
      "Ġloyal": 8573,
      "ĠBall": 8574,
      "ĠWin": 8575,
      "Ġlongest": 8576,
      "Ġconsidering": 8577,
      "Ġknows": 8578,
      "Ġhosted": 8579,
      "Ġtraveled": 8580,
      "Ġemphasis": 8581,
      "Ġinterpretation": 8582,
      "alysis": 8583,
      "ĠData": 8584,
      "Ġregulations": 8585,
      "ĠDesign": 8586,
      "how": 8587,
      "Ġstyles": 8588,
      "ĠGarden": 8589,
      "Ġsumm": 8590,
      "Ġsuperv": 8591,
      "Ġ1880": 8592,
      "Ġmolecules": 8593,
      "ĠHollywood": 8594,
      "Ġelder": 8595,
      "lyn": 8596,
      "terior": 8597,
      "Ġconven": 8598,
      "Ġraising": 8599,
      "Ġpole": 8600,
      "Ġsignals": 8601,
      "Ġadvis": 8602,
      "Ġstrip": 8603,
      "Ġdominant": 8604,
      "Many": 8605,
      "á»": 8606,
      "Ġfisher": 8607,
      "istent": 8608,
      "pty": 8609,
      "Ġminimal": 8610,
      "Ġskill": 8611,
      "DF": 8612,
      "Ġlb": 8613,
      "idal": 8614,
      "etary": 8615,
      "Ġstores": 8616,
      "ĠHug": 8617,
      "emeter": 8618,
      "Ġanth": 8619,
      "Ġamino": 8620,
      "ĠHoward": 8621,
      "Ġtreaty": 8622,
      "Ġfertil": 8623,
      "zo": 8624,
      "Ġfulf": 8625,
      "ĠHaving": 8626,
      "Ġdeleg": 8627,
      "ĠReal": 8628,
      "Ġ87": 8629,
      "Ġpossession": 8630,
      "bean": 8631,
      "ĠAntar": 8632,
      "Ġsustainable": 8633,
      "Cl": 8634,
      "sm": 8635,
      "Ġid": 8636,
      "igate": 8637,
      "Ġstroke": 8638,
      "Ġ1955": 8639,
      "Ġcoverage": 8640,
      "Ġpraise": 8641,
      "ĠPrior": 8642,
      "Ġpassenger": 8643,
      "wall": 8644,
      "Ġgent": 8645,
      "Ġunlike": 8646,
      "Ġimpacts": 8647,
      "Ġtasks": 8648,
      "Ġfro": 8649,
      "ĠAP": 8650,
      "ĠRun": 8651,
      "Ġplug": 8652,
      "haust": 8653,
      "oust": 8654,
      "ĠSky": 8655,
      "ĠDark": 8656,
      "Ġoral": 8657,
      "Ġsituated": 8658,
      "Ġstronger": 8659,
      "Ġcontributions": 8660,
      "Ġgraphics": 8661,
      "heimer": 8662,
      "ĠCorporation": 8663,
      "Ġpace": 8664,
      "asm": 8665,
      "otyp": 8666,
      "ĠChannel": 8667,
      "away": 8668,
      "ĠRead": 8669,
      "Ġinfluences": 8670,
      "Ġsuspend": 8671,
      "Ġconvinced": 8672,
      "IL": 8673,
      "arn": 8674,
      "ĠBuff": 8675,
      "ĠPrem": 8676,
      "ĠDomin": 8677,
      "ifer": 8678,
      "Ġaboard": 8679,
      "Ġtaxes": 8680,
      "Although": 8681,
      "Ġresidential": 8682,
      "Ġcurriculum": 8683,
      "ĠEc": 8684,
      "ocation": 8685,
      "Ġestimate": 8686,
      "Ġsupporters": 8687,
      "Ġcriter": 8688,
      "Ġpromotion": 8689,
      "ĠErn": 8690,
      "orious": 8691,
      "ĠMoh": 8692,
      "ricts": 8693,
      "Ġtrains": 8694,
      "obile": 8695,
      "ĠArctic": 8696,
      "Ġlock": 8697,
      "Ġ1959": 8698,
      "ĠSimon": 8699,
      "Ġfruits": 8700,
      "fare": 8701,
      "athered": 8702,
      "isk": 8703,
      "ĠTru": 8704,
      "ĠMP": 8705,
      "ĠMul": 8706,
      "ĠBir": 8707,
      "ĠWelsh": 8708,
      "Ġrice": 8709,
      "izer": 8710,
      "Ġ88": 8711,
      "Ġvalley": 8712,
      "Ġdisplayed": 8713,
      "____": 8714,
      "ĠBusiness": 8715,
      "Ġsav": 8716,
      "Ġwings": 8717,
      "Ġwait": 8718,
      "ĠCab": 8719,
      "Ġvic": 8720,
      "Ġenvironments": 8721,
      "Ġcargo": 8722,
      "prise": 8723,
      "Ġimprovements": 8724,
      "Ġprevention": 8725,
      "Ġcertified": 8726,
      "Ġdisappoint": 8727,
      "Ġerect": 8728,
      "ĠPope": 8729,
      "Ġprosec": 8730,
      "iffer": 8731,
      "Ġenable": 8732,
      "Ġsurge": 8733,
      "Ġpresidential": 8734,
      "Ġinteractions": 8735,
      "Ġbeauty": 8736,
      "Ġapproval": 8737,
      "Ġvertical": 8738,
      "ĠBull": 8739,
      "ĠWhere": 8740,
      "iece": 8741,
      "Ġindex": 8742,
      "Ġindigenous": 8743,
      "Ġpreserved": 8744,
      "Ġcommunications": 8745,
      "Ġ1954": 8746,
      "wen": 8747,
      "asts": 8748,
      "Ġvictim": 8749,
      "100": 8750,
      "Most": 8751,
      "Ġov": 8752,
      "ĠSel": 8753,
      "ĠSant": 8754,
      "forced": 8755,
      "Ġreveal": 8756,
      "Ġterritories": 8757,
      "Ġessentially": 8758,
      "igrants": 8759,
      "ĠExpress": 8760,
      "ĠRoger": 8761,
      "ĠTal": 8762,
      "ĠRaj": 8763,
      "Ġafterwards": 8764,
      "Ġdemol": 8765,
      "Ġ1938": 8766,
      "ĠExpl": 8767,
      "noon": 8768,
      "Ġtips": 8769,
      "ĠAI": 8770,
      "ĠAlong": 8771,
      "Ġconfidence": 8772,
      "ĠPhilipp": 8773,
      "ĠCommunity": 8774,
      "Ġconversation": 8775,
      "omach": 8776,
      "Ġuncom": 8777,
      "Ġemail": 8778,
      "Ġsurprise": 8779,
      "Ġaimed": 8780,
      "Ġhouseholds": 8781,
      "Ġdelayed": 8782,
      "Ġproportion": 8783,
      "ĠNetherlands": 8784,
      "ds": 8785,
      "Ġrect": 8786,
      "Ġliv": 8787,
      "ĠHop": 8788,
      "Ġrecre": 8789,
      "ronze": 8790,
      "Ġphosph": 8791,
      "Ġinvolve": 8792,
      "Ġstorms": 8793,
      "Ġcategories": 8794,
      "oncÃ©": 8795,
      "65": 8796,
      "DP": 8797,
      "RI": 8798,
      "ĠMas": 8799,
      "Ġridge": 8800,
      "occ": 8801,
      "Ġworship": 8802,
      "Ġbelt": 8803,
      "Ġboost": 8804,
      "SP": 8805,
      "ĠSon": 8806,
      "ĠDyn": 8807,
      "Ġknots": 8808,
      "Ġ72": 8809,
      "ĠCancer": 8810,
      "ĠBeyoncÃ©": 8811,
      "44": 8812,
      "AP": 8813,
      "RC": 8814,
      "Ġchampion": 8815,
      "Ġsecured": 8816,
      "elson": 8817,
      "Ġreflected": 8818,
      "Ġterminus": 8819,
      "net": 8820,
      "Ġcub": 8821,
      "roit": 8822,
      "ĠBor": 8823,
      "ĠDise": 8824,
      "ĠNO": 8825,
      "Ġpartially": 8826,
      "Ġsurve": 8827,
      "yself": 8828,
      "Ġcarefully": 8829,
      "Ġmessages": 8830,
      "hop": 8831,
      "Ġpup": 8832,
      "Ġhat": 8833,
      "Ġunw": 8834,
      "ĠChristians": 8835,
      "Ġintegrated": 8836,
      "bing": 8837,
      "Ã±": 8838,
      "ĠPier": 8839,
      "ĠLook": 8840,
      "ĠOt": 8841,
      "Ġmeets": 8842,
      "Ġuniversal": 8843,
      "ĠPortuguese": 8844,
      "EL": 8845,
      "laim": 8846,
      "Ġbare": 8847,
      "ĠDal": 8848,
      "ĠRain": 8849,
      "ĠGram": 8850,
      "ĠCarib": 8851,
      "Ġoverwhel": 8852,
      "mes": 8853,
      "icing": 8854,
      "Ġforg": 8855,
      "ĠIN": 8856,
      "Ġschedule": 8857,
      "Ġquiet": 8858,
      "No": 8859,
      "iop": 8860,
      "elle": 8861,
      "ĠLiter": 8862,
      "ĠBlood": 8863,
      "akespe": 8864,
      "Ġ1957": 8865,
      "Ġverse": 8866,
      "ĠTrust": 8867,
      "ĠAnton": 8868,
      "Ġsequences": 8869,
      "Ġcomplicated": 8870,
      "ĠHindu": 8871,
      "ĠPul": 8872,
      "Ġcanal": 8873,
      "Ġfunctional": 8874,
      "Ġembry": 8875,
      "Ġdealing": 8876,
      "Ġflew": 8877,
      "Ġcontroversy": 8878,
      "Ġcompris": 8879,
      "Ġelectro": 8880,
      "Ġfriendly": 8881,
      "ĠFurthermore": 8882,
      "Ã§": 8883,
      "ĠTHE": 8884,
      "angel": 8885,
      "ĠLouisiana": 8886,
      "Ġarrangement": 8887,
      "Ġbeliefs": 8888,
      "Ġathletes": 8889,
      "ĠMaster": 8890,
      "Ġresid": 8891,
      "Ġcounties": 8892,
      "Ġdepicted": 8893,
      "Ġguidelines": 8894,
      "ĠAndy": 8895,
      "Ġannually": 8896,
      "Ġ1937": 8897,
      "ĠHarris": 8898,
      "Ġdevast": 8899,
      "attered": 8900,
      "ĠSamuel": 8901,
      "ropolitan": 8902,
      "wa": 8903,
      "Ġmature": 8904,
      "employ": 8905,
      "operation": 8906,
      "Ġrid": 8907,
      "ĠJay": 8908,
      "Ġrequested": 8909,
      "ĠCarter": 8910,
      "anguage": 8911,
      "Ġ1890": 8912,
      "Ġmechanical": 8913,
      "ĠMrs": 8914,
      "ĠHamilton": 8915,
      "Ġportrayed": 8916,
      "uits": 8917,
      "Ġfestival": 8918,
      "ĠType": 8919,
      "adow": 8920,
      "uma": 8921,
      "Ġshots": 8922,
      "Ġimprison": 8923,
      "Ġsailed": 8924,
      "opes": 8925,
      "anny": 8926,
      "ĠRepresent": 8927,
      "Ġsuspect": 8928,
      "ĠObama": 8929,
      "See": 8930,
      "Ġcognitive": 8931,
      "ĠIGN": 8932,
      "Ġstere": 8933,
      "ĠAlan": 8934,
      "Ġanswers": 8935,
      "ĠTransport": 8936,
      "Ġcotton": 8937,
      "eli": 8938,
      "ĠTheatre": 8939,
      "Ġrhythm": 8940,
      "Ġgenerations": 8941,
      "Ġ1913": 8942,
      "Ġconversion": 8943,
      "likely": 8944,
      "Ġcalcium": 8945,
      "ĠâĪĴ": 8946,
      "CO": 8947,
      "Gen": 8948,
      "ĠKong": 8949,
      "Ġseverely": 8950,
      "Ġownership": 8951,
      "Ġdepict": 8952,
      "Ġwinner": 8953,
      "ĠLawrence": 8954,
      "ĠLearning": 8955,
      "ĠAriz": 8956,
      "ĠTar": 8957,
      "ĠSab": 8958,
      "Ġunex": 8959,
      "ĠNewton": 8960,
      "roscop": 8961,
      "upiter": 8962,
      "Ġforecast": 8963,
      "Ġstatements": 8964,
      "Ġprede": 8965,
      "Ġexecuted": 8966,
      "Ġinstructions": 8967,
      "ĠCy": 8968,
      "ĠWat": 8969,
      "ĠFact": 8970,
      "Ġdisag": 8971,
      "phy": 8972,
      "plete": 8973,
      "Ġdeliber": 8974,
      "Ġattempting": 8975,
      "ĠParker": 8976,
      "Ġtens": 8977,
      "Ġlie": 8978,
      "Ġlots": 8979,
      "ĠNat": 8980,
      "Ġclock": 8981,
      "Ġ2017": 8982,
      "Ġ96": 8983,
      "ĠContin": 8984,
      "Ġvotes": 8985,
      "Ġpush": 8986,
      "arth": 8987,
      "ĠHart": 8988,
      "ĠLyn": 8989,
      "ĠBeach": 8990,
      "ĠServices": 8991,
      "Ġdistinguished": 8992,
      "ĠNevertheless": 8993,
      "Ġbeans": 8994,
      "ĠCall": 8995,
      "emia": 8996,
      "Ġvig": 8997,
      "Ġlanded": 8998,
      "Ġanniversary": 8999,
      "Ġphoto": 9000,
      "Ġencounter": 9001,
      "ĠRyan": 9002,
      "mad": 9003,
      "incess": 9004,
      "Ġsovere": 9005,
      "Ġcosm": 9006,
      "Ġdrought": 9007,
      "ĠCE": 9008,
      "Ã©e": 9009,
      "Ġhyper": 9010,
      "ĠGlobal": 9011,
      "ĠSimpsons": 9012,
      "Ġinitiative": 9013,
      "eness": 9014,
      "ali": 9015,
      "omed": 9016,
      "ĠAh": 9017,
      "ĠFather": 9018,
      "Ġdeemed": 9019,
      "ĠVideo": 9020,
      "hester": 9021,
      "Ġclaiming": 9022,
      "Ġcrosses": 9023,
      "ercury": 9024,
      "ĠBerlin": 9025,
      "Ġcelebrated": 9026,
      "Ġfurn": 9027,
      "ques": 9028,
      "Ġhanded": 9029,
      "Ġmixture": 9030,
      "Ġpicked": 9031,
      "Ġinflamm": 9032,
      "Ġphotographs": 9033,
      "rh": 9034,
      "Ġpushed": 9035,
      "Ġdimens": 9036,
      "Ġreception": 9037,
      "ĠNaval": 9038,
      "Ġchick": 9039,
      "Ġpeoples": 9040,
      "ĠShakespe": 9041,
      "Ġ1949": 9042,
      "Ġexamination": 9043,
      "Ġstriking": 9044,
      "Ġmedications": 9045,
      "Ġsubsid": 9046,
      "Ġcattle": 9047,
      "Ġcinem": 9048,
      "rooms": 9049,
      "Ġthorough": 9050,
      "ĠAy": 9051,
      "Ġasks": 9052,
      "Ġrum": 9053,
      "Ġcompound": 9054,
      "Ġorigins": 9055,
      "Ġdependent": 9056,
      "Ġnomination": 9057,
      "Ġhybrid": 9058,
      "ĠMiam": 9059,
      "Ġstuff": 9060,
      "ĠDom": 9061,
      "avor": 9062,
      "Ġshock": 9063,
      "Ġpreval": 9064,
      "angle": 9065,
      "neys": 9066,
      "Ġsuggesting": 9067,
      "Ġfaces": 9068,
      "Ġmeetings": 9069,
      "Ġnutrition": 9070,
      "Ġratings": 9071,
      "Ġcomposer": 9072,
      "Ġfract": 9073,
      "ĠSud": 9074,
      "race": 9075,
      "abits": 9076,
      "ioxide": 9077,
      "?âĢĿ": 9078,
      "ez": 9079,
      "Ġbon": 9080,
      "ĠDor": 9081,
      "Ġshark": 9082,
      "oga": 9083,
      "Ġrelax": 9084,
      "Ġdistricts": 9085,
      "ĠSerb": 9086,
      "Ġmeasurements": 9087,
      "Ġtheatre": 9088,
      "utt": 9089,
      "Ġbrings": 9090,
      "Ġcondem": 9091,
      "Ġoccurring": 9092,
      "ictionary": 9093,
      "Ġnewspapers": 9094,
      "Ġdeparture": 9095,
      "edding": 9096,
      "Ġrestricted": 9097,
      "Ġpenalty": 9098,
      "aton": 9099,
      "olas": 9100,
      "ethe": 9101,
      "abul": 9102,
      "Ġabnorm": 9103,
      "Ġimperial": 9104,
      "Ġcharacteristic": 9105,
      "Ġprofit": 9106,
      "Ġconvoy": 9107,
      "ĠGreece": 9108,
      "usalem": 9109,
      "green": 9110,
      "nia": 9111,
      "ĠProp": 9112,
      "ĠOd": 9113,
      "Ġbridges": 9114,
      "ĠAdams": 9115,
      "Ġamongst": 9116,
      "Ġaccessible": 9117,
      "Ġpredomin": 9118,
      "Ġmoments": 9119,
      "Ġceleb": 9120,
      "ĠFinally": 9121,
      "ĠPitts": 9122,
      "Ġacclaim": 9123,
      "Ġformally": 9124,
      "Ġ97": 9125,
      "Ġgray": 9126,
      "Ġfinishing": 9127,
      "Ġ1935": 9128,
      "ĠConservation": 9129,
      "Ġimplemented": 9130,
      "ĠDigital": 9131,
      "Ġfra": 9132,
      "ĠMach": 9133,
      "Ġexhaust": 9134,
      "duction": 9135,
      "ĠVo": 9136,
      "Ġoutcome": 9137,
      "Ġafternoon": 9138,
      "Ġ84": 9139,
      "ĠAnne": 9140,
      "ĠPlant": 9141,
      "Ġnovels": 9142,
      "ĠMorris": 9143,
      "Ġestablishing": 9144,
      "ĠPatrick": 9145,
      "Ġsaved": 9146,
      "ĠSin": 9147,
      "ĠSection": 9148,
      "ĠNear": 9149,
      "Ġfeels": 9150,
      "Ġepid": 9151,
      "Ġ1952": 9152,
      "Ġrepresentatives": 9153,
      "Ġzero": 9154,
      "Ġpredicted": 9155,
      "ĠTreaty": 9156,
      "Ġrestrictions": 9157,
      "ĠArizona": 9158,
      "Ġpredecess": 9159,
      "yard": 9160,
      "esity": 9161,
      "Ġsect": 9162,
      "arded": 9163,
      "Ġsmart": 9164,
      "ĠConc": 9165,
      "Ġaffil": 9166,
      "ĠPolit": 9167,
      "Ġexcav": 9168,
      "Ġframework": 9169,
      "ĠIndonesia": 9170,
      "ĠMiami": 9171,
      "oven": 9172,
      "ennis": 9173,
      "ĠWorks": 9174,
      "Ġvalid": 9175,
      "Ġdiagnosed": 9176,
      "ĠArea": 9177,
      "ĠMuch": 9178,
      "Ġstomach": 9179,
      "ĠGordon": 9180,
      "oba": 9181,
      "Ġrealize": 9182,
      "Ġchemistry": 9183,
      "Ġinvestigate": 9184,
      "Ġwrest": 9185,
      "ĠMake": 9186,
      "Ġvariable": 9187,
      "Ġrestoration": 9188,
      "Ġcultures": 9189,
      "ĠWithout": 9190,
      "ĠAgricult": 9191,
      "Ġseriously": 9192,
      "Ġfrust": 9193,
      "Ġdissip": 9194,
      "Ġmathematics": 9195,
      "My": 9196,
      "Ġmac": 9197,
      "Ġhunt": 9198,
      "ĠList": 9199,
      "Ġnotably": 9200,
      "Ġpartial": 9201,
      "sequently": 9202,
      "Ġannounce": 9203,
      "Ġromantic": 9204,
      "rin": 9205,
      "roe": 9206,
      "Ġreaches": 9207,
      "Ġwhilst": 9208,
      "agu": 9209,
      "Ġunlikely": 9210,
      "Ġenters": 9211,
      "minister": 9212,
      "Ġindustries": 9213,
      "ĠBuilding": 9214,
      "Ġecosystem": 9215,
      "Ġwaiting": 9216,
      "Ġpaintings": 9217,
      "Ġconcerning": 9218,
      "Ġphrase": 9219,
      "omot": 9220,
      "Ġ170": 9221,
      "Ġprofile": 9222,
      "Ġrepresentation": 9223,
      "ĠHeritage": 9224,
      "Ġdigest": 9225,
      "uv": 9226,
      "inals": 9227,
      "Ġmarch": 9228,
      "Ġhole": 9229,
[...]
